<unk>	0
<pad>	0
<s>	0
</s>	0
<mask>	0
▁d	-0
es	-1
▁l	-2
en	-3
on	-4
▁p	-5
ou	-6
▁c	-7
▁s	-8
▁de	-9
re	-10
an	-11
er	-12
▁a	-13
ti	-14
qu	-15
is	-16
in	-17
et	-18
ent	-19
▁m	-20
it	-21
le	-22
ar	-23
un	-24
ur	-25
▁t	-26
▁la	-27
▁v	-28
▁et	-29
▁qu	-30
te	-31
▁f	-32
or	-33
il	-34
▁n	-35
tion	-36
our	-37
▁le	-38
▁à	-39
ra	-40
▁un	-41
om	-42
▁en	-43
el	-44
ment	-45
▁les	-46
ré	-47
▁des	-48
us	-49
al	-50
▁b	-51
ro	-52
as	-53
ant	-54
est	-55
ri	-56
▁L	-57
ce	-58
ous	-59
ont	-60
ch	-61
ans	-62
au	-63
▁j	-64
▁C	-65
ve	-66
ai	-67
me	-68
▁au	-69
▁par	-70
▁pour	-71
ation	-72
eu	-73
▁é	-74
res	-75
▁du	-76
si	-77
ais	-78
ag	-79
oi	-80
..	-81
que	-82
▁g	-83
se	-84
tre	-85
li	-86
ci	-87
▁dé	-88
▁P	-89
▁que	-90
ne	-91
▁pl	-92
▁S	-93
▁re	-94
at	-95
de	-96
▁une	-97
▁ch	-98
ait	-99
▁com	-100
▁con	-101
▁M	-102
▁dans	-103
▁A	-104
os	-105
▁sur	-106
té	-107
▁est	-108
▁pas	-109
▁pro	-110
▁in	-111
▁qui	-112
mp	-113
ol	-114
▁ré	-115
▁D	-116
di	-117
▁(	-118
ie	-119
▁1	-120
▁se	-121
ée	-122
ab	-123
ité	-124
▁2	-125
les	-126
▁e	-127
ac	-128
▁r	-129
▁E	-130
ers	-131
ff	-132
elle	-133
ain	-134
pp	-135
▁h	-136
▁plus	-137
▁ou	-138
vec	-139
ons	-140
▁:	-141
aire	-142
am	-143
▁vous	-144
▁B	-145
tu	-146
▁avec	-147
end	-148
ran	-149
urs	-150
out	-151
ouv	-152
▁I	-153
ite	-154
age	-155
▁T	-156
▁ce	-157
ter	-158
onn	-159
ir	-160
▁su	-161
...	-162
▁o	-163
▁il	-164
ul	-165
▁J	-166
ès	-167
ère	-168
▁ne	-169
▁R	-170
▁F	-171
▁je	-172
ig	-173
ale	-174
és	-175
▁tr	-176
ien	-177
▁di	-178
▁mo	-179
▁N	-180
ques	-181
tes	-182
ces	-183
▁av	-184
ille	-185
▁V	-186
otre	-187
oir	-188
ge	-189
ui	-190
▁pré	-191
ue	-192
pr	-193
ette	-194
▁Le	-195
che	-196
ort	-197
▁ex	-198
▁i	-199
ot	-200
pe	-201
▁20	-202
ction	-203
ées	-204
ois	-205
▁sont	-206
▁peu	-207
▁sa	-208
une	-209
▁G	-210
▁pr	-211
▁son	-212
ier	-213
▁mais	-214
mb	-215
ique	-216
▁tout	-217
ic	-218
ati	-219
and	-220
ure	-221
iv	-222
ine	-223
▁ra	-224
uis	-225
▁La	-226
eux	-227
pé	-228
orm	-229
▁si	-230
▁an	-231
aux	-232
oc	-233
og	-234
ux	-235
▁«	-236
▁tra	-237
▁nous	-238
▁-	-239
um	-240
▁ac	-241
ance	-242
ence	-243
entre	-244
ill	-245
ins	-246
▁ser	-247
▁te	-248
▁Il	-249
▁aux	-250
én	-251
ise	-252
▁comp	-253
▁me	-254
av	-255
▁»	-256
able	-257
du	-258
mes	-259
ours	-260
ap	-261
▁Les	-262
▁cont	-263
ad	-264
▁po	-265
ens	-266
ors	-267
▁so	-268
▁ét	-269
être	-270
ut	-271
ist	-272
00	-273
lé	-274
▁!	-275
ate	-276
▁votre	-277
ations	-278
▁U	-279
▁bien	-280
▁O	-281
ét	-282
▁per	-283
▁fait	-284
st	-285
▁3	-286
▁mon	-287
▁H	-288
▁ar	-289
vi	-290
im	-291
éri	-292
ouve	-293
▁parti	-294
▁app	-295
▁"	-296
▁cette	-297
▁al	-298
ême	-299
▁201	-300
ard	-301
aut	-302
ants	-303
▁comm	-304
ion	-305
co	-306
ert	-307
▁En	-308
ér	-309
▁comme	-310
bre	-311
ace	-312
ub	-313
▁mar	-314
ay	-315
ct	-316
▁dis	-317
▁ren	-318
id	-319
ond	-320
▁pe	-321
ser	-322
onne	-323
til	-324
ussi	-325
sent	-326
▁faire	-327
ph	-328
▁ses	-329
▁y	-330
ord	-331
ments	-332
tif	-333
▁pers	-334
▁Je	-335
tions	-336
aires	-337
ten	-338
eur	-339
elles	-340
▁tou	-341
▁car	-342
▁déc	-343
ble	-344
alis	-345
oup	-346
tique	-347
sion	-348
▁on	-349
éra	-350
▁aut	-351
éc	-352
▁Ch	-353
ss	-354
▁li	-355
mi	-356
▁entre	-357
cont	-358
▁ma	-359
oy	-360
▁prop	-361
▁très	-362
▁ont	-363
▁?	-364
▁même	-365
tin	-366
ang	-367
▁leur	-368
▁co	-369
▁être	-370
ex	-371
ts	-372
endre	-373
▁été	-374
▁st	-375
ez	-376
oire	-377
).	-378
▁peut	-379
onc	-380
▁aussi	-381
par	-382
ru	-383
em	-384
teur	-385
ème	-386
ég	-387
▁gran	-388
ture	-389
▁trav	-390
▁res	-391
ni	-392
rer	-393
▁deux	-394
aine	-395
eau	-396
alité	-397
ven	-398
mps	-399
▁4	-400
▁ces	-401
près	-402
its	-403
cher	-404
▁nom	-405
▁fin	-406
met	-407
▁pre	-408
use	-409
▁es	-410
▁sans	-411
lic	-412
ents	-413
▁pos	-414
form	-415
▁cons	-416
▁quel	-417
ec	-418
▁5	-419
util	-420
jet	-421
all	-422
▁at	-423
▁Pour	-424
▁elle	-425
ing	-426
ante	-427
▁imp	-428
▁lui	-429
▁ter	-430
▁Par	-431
▁for	-432
▁19	-433
▁tous	-434
▁ad	-435
ages	-436
alement	-437
▁ann	-438
ver	-439
com	-440
ouver	-441
▁peti	-442
ob	-443
lement	-444
),	-445
▁inter	-446
▁ph	-447
▁personn	-448
▁cl	-449
▁rencont	-450
ourn	-451
ose	-452
▁éc	-453
ici	-454
▁Q	-455
des	-456
▁sou	-457
▁am	-458
oit	-459
ail	-460
fin	-461
▁mé	-462
rai	-463
cu	-464
▁col	-465
▁prof	-466
tis	-467
▁diff	-468
ass	-469
▁Fran	-470
aient	-471
▁cel	-472
ign	-473
tiv	-474
▁jus	-475
▁pri	-476
ong	-477
▁vi	-478
utilis	-479
▁notre	-480
▁mes	-481
enti	-482
▁dire	-483
▁tro	-484
▁De	-485
▁ca	-486
▁eff	-487
app	-488
man	-489
iss	-490
▁ri	-491
tra	-492
▁site	-493
min	-494
▁ti	-495
▁gra	-496
tement	-497
▁ans	-498
lle	-499
▁temps	-500
ils	-501
▁Et	-502
ères	-503
éd	-504
▁man	-505
pl	-506
▁conf	-507
els	-508
vent	-509
ler	-510
▁gr	-511
▁conc	-512
▁Ce	-513
core	-514
ures	-515
▁Com	-516
▁dev	-517
▁K	-518
▁ob	-519
▁W	-520
int	-521
▁or	-522
▁cha	-523
ales	-524
▁puis	-525
▁produ	-526
puis	-527
ente	-528
▁vis	-529
▁vos	-530
ça	-531
▁Un	-532
▁der	-533
▁permet	-534
▁cré	-535
qui	-536
▁donn	-537
▁soci	-538
iste	-539
▁pub	-540
▁rég	-541
orte	-542
ari	-543
▁6	-544
lè	-545
insi	-546
itu	-547
▁sy	-548
▁min	-549
▁In	-550
op	-551
▁rec	-552
anc	-553
ats	-554
oul	-555
igne	-556
rit	-557
▁présent	-558
dé	-559
▁vie	-560
ités	-561
▁encore	-562
▁,	-563
olog	-564
▁tu	-565
ains	-566
▁suis	-567
▁Mais	-568
▁ça	-569
été	-570
tr	-571
▁seu	-572
▁où	-573
ense	-574
▁donc	-575
rez	-576
per	-577
▁cas	-578
▁fa	-579
tic	-580
▁mal	-581
▁rep	-582
iques	-583
ves	-584
olu	-585
▁;	-586
▁part	-587
▁sous	-588
▁ass	-589
mbre	-590
cep	-591
▁beau	-592
po	-593
▁Vous	-594
▁fois	-595
isse	-596
oule	-597
▁form	-598
emp	-599
▁gén	-600
▁Qu	-601
▁sal	-602
▁ég	-603
ner	-604
pi	-605
▁avant	-606
ib	-607
▁était	-608
▁trans	-609
▁nos	-610
▁fran	-611
▁sé	-612
nes	-613
▁nombre	-614
titu	-615
▁pay	-616
ches	-617
ites	-618
ém	-619
▁ni	-620
▁env	-621
endant	-622
▁fem	-623
▁Nous	-624
▁acc	-625
▁ainsi	-626
oin	-627
▁lors	-628
jour	-629
▁th	-630
▁bl	-631
▁7	-632
▁conn	-633
ateur	-634
vez	-635
ête	-636
jours	-637
▁mil	-638
▁off	-639
▁ju	-640
▁grand	-641
▁cor	-642
▁non	-643
▁Mar	-644
▁...	-645
▁monde	-646
enne	-647
tiques	-648
opp	-649
oute	-650
▁bon	-651
▁im	-652
▁servi	-653
▁dont	-654
▁toute	-655
▁Si	-656
▁France	-657
▁rép	-658
▁fil	-659
ies	-660
▁depuis	-661
▁sec	-662
▁cert	-663
élé	-664
▁leurs	-665
mer	-666
▁mont	-667
▁Une	-668
oci	-669
▁200	-670
▁nouv	-671
▁utilis	-672
▁moins	-673
gan	-674
sid	-675
▁après	-676
▁dro	-677
▁Au	-678
▁met	-679
▁rencontre	-680
▁w	-681
▁cour	-682
▁as	-683
mis	-684
eure	-685
iter	-686
ues	-687
▁fon	-688
voir	-689
▁contre	-690
▁toujours	-691
▁8	-692
asse	-693
omme	-694
▁commun	-695
év	-696
▁soit	-697
▁avait	-698
▁pouv	-699
rée	-700
▁premi	-701
ances	-702
aille	-703
mble	-704
sionn	-705
▁ab	-706
▁déb	-707
teurs	-708
▁év	-709
ire	-710
▁avoir	-711
▁nouve	-712
▁quelques	-713
▁An	-714
▁long	-715
▁alors	-716
▁ag	-717
▁rés	-718
aines	-719
▁ver	-720
ilité	-721
one	-722
cip	-723
lique	-724
çais	-725
ables	-726
rait	-727
▁également	-728
▁On	-729
▁–	-730
▁mi	-731
are	-732
▁rapp	-733
▁enf	-734
▁no	-735
ann	-736
cl	-737
▁moi	-738
▁toutes	-739
lig	-740
▁Al	-741
ature	-742
ement	-743
▁ent	-744
▁main	-745
nement	-746
ric	-747
▁inté	-748
▁dév	-749
▁jou	-750
oupe	-751
tionn	-752
▁Dans	-753
▁jour	-754
▁différ	-755
▁k	-756
gra	-757
uer	-758
▁va	-759
▁10	-760
cess	-761
▁cro	-762
ellement	-763
mand	-764
ivre	-765
▁bas	-766
▁ils	-767
▁pass	-768
▁fonction	-769
▁autres	-770
tive	-771
coup	-772
ange	-773
ché	-774
erci	-775
▁.	-776
▁dép	-777
ommes	-778
antes	-779
▁cap	-780
ron	-781
▁pays	-782
▁sera	-783
fi	-784
▁Elle	-785
ises	-786
▁cela	-787
ta	-788
▁ins	-789
▁généra	-790
ière	-791
▁9	-792
▁quand	-793
elopp	-794
▁[	-795
quer	-796
▁coup	-797
▁exp	-798
▁char	-799
dic	-800
▁faut	-801
▁vrai	-802
▁sc	-803
ros	-804
estion	-805
péci	-806
▁phot	-807
tres	-808
mar	-809
mé	-810
▁simp	-811
▁place	-812
▁déj	-813
▁cher	-814
agn	-815
▁cli	-816
▁fi	-817
▁mus	-818
ger	-819
▁rest	-820
ences	-821
lier	-822
tant	-823
▁poli	-824
▁profes	-825
ganis	-826
▁rel	-827
ern	-828
ieurs	-829
▁vers	-830
▁compr	-831
onom	-832
tel	-833
▁autre	-834
▁beaucoup	-835
▁/	-836
▁pi	-837
▁aff	-838
sible	-839
aî	-840
péri	-841
mier	-842
ouvez	-843
uro	-844
▁reg	-845
▁recher	-846
▁meille	-847
sition	-848
dre	-849
▁éle	-850
ôt	-851
20	-852
▁chez	-853
tés	-854
▁mat	-855
▁projet	-856
▁|	-857
▁fer	-858
▁spéci	-859
acc	-860
▁Cette	-861
▁dom	-862
imp	-863
▁const	-864
▁gar	-865
▁disp	-866
ines	-867
▁prin	-868
▁travail	-869
aiss	-870
▁ro	-871
▁personnes	-872
vis	-873
uses	-874
▁mod	-875
rir	-876
▁fam	-877
▁sais	-878
▁mom	-879
▁voir	-880
▁né	-881
▁propos	-882
▁préc	-883
ets	-884
rib	-885
ress	-886
▁Pl	-887
▁situ	-888
▁tech	-889
▁réalis	-890
th	-891
ris	-892
agne	-893
▁parf	-894
hui	-895
▁mois	-896
oix	-897
▁petit	-898
vre	-899
cri	-900
▁français	-901
▁dou	-902
▁cul	-903
ateurs	-904
▁public	-905
▁développ	-906
▁trois	-907
▁gratu	-908
oo	-909
▁déjà	-910
▁prob	-911
ges	-912
▁Des	-913
ell	-914
illes	-915
ctions	-916
ber	-917
▁18	-918
▁chaque	-919
cc	-920
▁jusqu	-921
▁0	-922
▁trop	-923
be	-924
rê	-925
▁plusieurs	-926
aur	-927
mpl	-928
gn	-929
▁dit	-930
▁ven	-931
▁souv	-932
ivers	-933
▁jam	-934
▁réf	-935
▁aur	-936
ode	-937
entes	-938
▁Pro	-939
▁là	-940
orti	-941
ions	-942
ES	-943
▁partie	-944
él	-945
▁nouveau	-946
▁É	-947
▁jours	-948
▁15	-949
▁sp	-950
▁Con	-951
▁premier	-952
▁Ar	-953
prise	-954
az	-955
rés	-956
▁por	-957
▁suiv	-958
▁lég	-959
rais	-960
▁déf	-961
ration	-962
!!	-963
▁prix	-964
▁bes	-965
▁soi	-966
▁dur	-967
ult	-968
▁bou	-969
autres	-970
ili	-971
▁Re	-972
▁loc	-973
ON	-974
000	-975
▁»,	-976
▁inform	-977
téri	-978
elon	-979
était	-980
▁ai	-981
atique	-982
ps	-983
▁rien	-984
▁arri	-985
▁mis	-986
▁derni	-987
mande	-988
▁comment	-989
▁fond	-990
qué	-991
istoire	-992
▁télé	-993
▁doit	-994
if	-995
quipe	-996
▁grande	-997
ication	-998
ène	-999
▁particu	-1000
▁inst	-1001
ore	-1002
ande	-1003
▁cours	-1004
▁plan	-1005
resse	-1006
▁moment	-1007
act	-1008
▁cet	-1009
jourd	-1010
▁maison	-1011
▁première	-1012
ade	-1013
vers	-1014
▁che	-1015
pect	-1016
oli	-1017
▁vol	-1018
ach	-1019
▁afin	-1020
▁moy	-1021
▁bi	-1022
▁suite	-1023
▁ville	-1024
ath	-1025
bles	-1026
▁professionn	-1027
▁nature	-1028
▁ligne	-1029
aint	-1030
▁journ	-1031
éli	-1032
▁femme	-1033
▁compte	-1034
▁indi	-1035
▁conse	-1036
fs	-1037
vé	-1038
▁pouvez	-1039
rent	-1040
▁Paris	-1041
▁Th	-1042
▁supp	-1043
▁jeu	-1044
amment	-1045
▁qualité	-1046
▁intern	-1047
▁jamais	-1048
tern	-1049
....	-1050
▁mag	-1051
iens	-1052
résent	-1053
▁att	-1054
▁ty	-1055
ras	-1056
▁avons	-1057
veau	-1058
êtes	-1059
▁pra	-1060
▁sem	-1061
ettes	-1062
ole	-1063
▁fais	-1064
èrement	-1065
ori	-1066
▁dés	-1067
isme	-1068
▁ten	-1069
▁peuvent	-1070
▁années	-1071
raph	-1072
comp	-1073
anti	-1074
cul	-1075
cien	-1076
▁cô	-1077
xe	-1078
▁men	-1079
▁lieu	-1080
sions	-1081
▁recherche	-1082
▁nouvelle	-1083
ager	-1084
▁ret	-1085
anger	-1086
▁id	-1087
▁produits	-1088
ah	-1089
ER	-1090
vous	-1091
▁ess	-1092
amb	-1093
▁colle	-1094
unes	-1095
▁tour	-1096
▁eu	-1097
ticle	-1098
idé	-1099
lu	-1100
orts	-1101
▁ple	-1102
▁Y	-1103
▁can	-1104
▁Di	-1105
▁mati	-1106
▁trouve	-1107
ov	-1108
▁import	-1109
▁ceux	-1110
▁12	-1111
▁enfants	-1112
▁milli	-1113
ép	-1114
od	-1115
ression	-1116
ôle	-1117
ret	-1118
▁prendre	-1119
▁X	-1120
iller	-1121
oris	-1122
sez	-1123
▁découv	-1124
tout	-1125
▁savoir	-1126
ud	-1127
tifs	-1128
gram	-1129
▁bonne	-1130
onde	-1131
uit	-1132
▁pouvoir	-1133
▁personne	-1134
▁not	-1135
oil	-1136
▁voy	-1137
hait	-1138
uss	-1139
▁celui	-1140
▁sol	-1141
çon	-1142
▁société	-1143
▁(1	-1144
▁».	-1145
atri	-1146
▁retr	-1147
▁point	-1148
ût	-1149
gie	-1150
▁inf	-1151
▁hab	-1152
▁ép	-1153
aud	-1154
eurs	-1155
▁sorti	-1156
olution	-1157
▁souhait	-1158
cle	-1159
▁vraiment	-1160
▁ici	-1161
▁étu	-1162
tier	-1163
uire	-1164
▁mét	-1165
▁nation	-1166
▁exemp	-1167
▁mettre	-1168
▁appar	-1169
nent	-1170
tien	-1171
▁syst	-1172
▁auc	-1173
▁z	-1174
eb	-1175
▁rais	-1176
gl	-1177
nier	-1178
ow	-1179
▁effet	-1180
ak	-1181
▁séri	-1182
écur	-1183
▁mieux	-1184
air	-1185
ative	-1186
▁mer	-1187
▁cal	-1188
▁droit	-1189
▁avez	-1190
▁pendant	-1191
âce	-1192
gé	-1193
▁trouver	-1194
▁Car	-1195
▁organis	-1196
ible	-1197
rique	-1198
enc	-1199
▁sens	-1200
cteur	-1201
▁nécess	-1202
▁cad	-1203
▁service	-1204
ds	-1205
▁partir	-1206
ograph	-1207
▁dernier	-1208
▁2018	-1209
eures	-1210
ich	-1211
▁niveau	-1212
▁princip	-1213
ueil	-1214
mo	-1215
oires	-1216
▁coule	-1217
▁demande	-1218
▁groupe	-1219
▁souvent	-1220
▁reste	-1221
èle	-1222
la	-1223
omm	-1224
ption	-1225
uite	-1226
▁représent	-1227
ront	-1228
ust	-1229
▁techn	-1230
dition	-1231
▁demand	-1232
▁contin	-1233
iti	-1234
",	-1235
▁hum	-1236
éb	-1237
art	-1238
rie	-1239
▁esp	-1240
pte	-1241
pul	-1242
▁sau	-1243
AN	-1244
▁mise	-1245
tée	-1246
▁chose	-1247
▁dém	-1248
mbl	-1249
ditions	-1250
▁program	-1251
▁pens	-1252
▁mainten	-1253
▁port	-1254
▁tant	-1255
▁rou	-1256
▁Saint	-1257
ologie	-1258
▁sour	-1259
▁fl	-1260
▁fut	-1261
pide	-1262
▁seul	-1263
▁dess	-1264
rier	-1265
arge	-1266
▁%	-1267
anté	-1268
▁ouv	-1269
▁chois	-1270
omb	-1271
▁30	-1272
▁inc	-1273
▁film	-1274
▁14	-1275
▁petite	-1276
▁selon	-1277
abl	-1278
EN	-1279
▁données	-1280
▁région	-1281
▁possible	-1282
serv	-1283
▁ense	-1284
rain	-1285
▁comb	-1286
autre	-1287
aise	-1288
vient	-1289
▁17	-1290
▁St	-1291
adi	-1292
▁16	-1293
▁femmes	-1294
èg	-1295
▁voit	-1296
aff	-1297
▁11	-1298
▁surtout	-1299
▁sécur	-1300
venir	-1301
Un	-1302
▁question	-1303
▁Ils	-1304
▁veu	-1305
istes	-1306
uc	-1307
▁rapide	-1308
▁cou	-1309
▁cent	-1310
part	-1311
ww	-1312
jec	-1313
▁activ	-1314
-1	-1315
▁celle	-1316
▁famille	-1317
▁dét	-1318
▁prom	-1319
oles	-1320
istre	-1321
▁Tout	-1322
▁gl	-1323
orme	-1324
pons	-1325
▁br	-1326
▁porte	-1327
▁services	-1328
ément	-1329
ile	-1330
éro	-1331
▁gen	-1332
▁sub	-1333
▁all	-1334
▁ref	-1335
cture	-1336
▁cuis	-1337
▁besoin	-1338
ième	-1339
lar	-1340
▁siè	-1341
era	-1342
▁élect	-1343
tent	-1344
▁notamment	-1345
▁pris	-1346
▁cin	-1347
▁Ren	-1348
▁choix	-1349
inter	-1350
ess	-1351
quoi	-1352
▁début	-1353
ke	-1354
▁aujourd	-1355
éné	-1356
▁jeune	-1357
▁certains	-1358
▁num	-1359
TI	-1360
ali	-1361
▁ta	-1362
▁Z	-1363
▁ris	-1364
▁fac	-1365
▁pu	-1366
onnement	-1367
▁Avec	-1368
endu	-1369
illet	-1370
▁Tr	-1371
aute	-1372
▁Après	-1373
▁13	-1374
▁parce	-1375
▁piè	-1376
▁exemple	-1377
▁juste	-1378
prises	-1379
▁tot	-1380
▁jeunes	-1381
▁année	-1382
gré	-1383
▁propose	-1384
rage	-1385
aly	-1386
cole	-1387
▁doc	-1388
▁regard	-1389
oration	-1390
▁log	-1391
▁ci	-1392
▁système	-1393
▁ach	-1394
sident	-1395
▁·	-1396
▁faci	-1397
▁Mon	-1398
▁face	-1399
cid	-1400
oie	-1401
▁grâce	-1402
vier	-1403
pes	-1404
itement	-1405
▁homme	-1406
▁lit	-1407
▁sign	-1408
▁vu	-1409
érence	-1410
▁forme	-1411
▁politique	-1412
▁Jean	-1413
lex	-1414
issement	-1415
▁cr	-1416
▁bar	-1417
je	-1418
ribu	-1419
▁économ	-1420
assi	-1421
▁25	-1422
▁tex	-1423
▁passer	-1424
sib	-1425
œu	-1426
lection	-1427
isc	-1428
▁À	-1429
▁envir	-1430
▁voul	-1431
nif	-1432
▁rapport	-1433
▁vidé	-1434
▁salle	-1435
▁sujet	-1436
▁simple	-1437
▁trouv	-1438
▁2017	-1439
▁cadre	-1440
att	-1441
▁côté	-1442
▁liv	-1443
".	-1444
▁assez	-1445
▁seulement	-1446
vée	-1447
▁super	-1448
yn	-1449
▁parc	-1450
ambre	-1451
▁ton	-1452
▁type	-1453
ack	-1454
▁travers	-1455
▁proc	-1456
▁op	-1457
esp	-1458
▁dispo	-1459
lément	-1460
▁sommes	-1461
▁fra	-1462
avoir	-1463
ule	-1464
▁résult	-1465
AR	-1466
▁respons	-1467
▁façon	-1468
▁dispon	-1469
ox	-1470
▁péri	-1471
▁rése	-1472
▁Ces	-1473
▁constru	-1474
201	-1475
rière	-1476
oût	-1477
▁actu	-1478
asion	-1479
uropé	-1480
ug	-1481
30	-1482
▁particuli	-1483
▁vue	-1484
▁Se	-1485
▁produit	-1486
ète	-1487
▁lim	-1488
▁passe	-1489
▁cer	-1490
▁poin	-1491
▁préf	-1492
aître	-1493
ame	-1494
▁mai	-1495
pec	-1496
▁gratuit	-1497
xim	-1498
yant	-1499
▁pense	-1500
▁Ex	-1501
▁associ	-1502
▁pres	-1503
▁éch	-1504
▁anim	-1505
tention	-1506
▁Sur	-1507
env	-1508
▁popul	-1509
▁font	-1510
éré	-1511
▁bois	-1512
anci	-1513
▁nombreux	-1514
oses	-1515
▁près	-1516
ind	-1517
équ	-1518
aissance	-1519
▁gros	-1520
▁heures	-1521
▁répond	-1522
▁photos	-1523
▁etc	-1524
inté	-1525
▁devant	-1526
éric	-1527
▁belle	-1528
▁rencontres	-1529
▁Ph	-1530
dez	-1531
▁minu	-1532
▁plais	-1533
▁haut	-1534
▁êtes	-1535
suite	-1536
tt	-1537
▁livre	-1538
▁serait	-1539
▁Cl	-1540
action	-1541
▁100	-1542
▁Ne	-1543
mment	-1544
▁formation	-1545
enir	-1546
▁quoi	-1547
▁développement	-1548
ital	-1549
▁corps	-1550
térieur	-1551
▁contra	-1552
▁juin	-1553
▁Bl	-1554
eter	-1555
▁quelque	-1556
gent	-1557
atif	-1558
▁culture	-1559
▁tête	-1560
▁effec	-1561
▁mari	-1562
--	-1563
▁manière	-1564
▁série	-1565
ote	-1566
▁Mont	-1567
port	-1568
▁vale	-1569
fr	-1570
▁seront	-1571
ception	-1572
oth	-1573
itaire	-1574
▁publi	-1575
▁unique	-1576
▁plut	-1577
ane	-1578
▁donner	-1579
▁eux	-1580
▁pie	-1581
isation	-1582
▁ress	-1583
▁dos	-1584
▁ind	-1585
uel	-1586
▁réc	-1587
▁sécurité	-1588
▁centre	-1589
IS	-1590
ienne	-1591
UR	-1592
▁proch	-1593
▁hommes	-1594
icile	-1595
▁parfait	-1596
▁base	-1597
▁chau	-1598
▁mul	-1599
oph	-1600
abilité	-1601
▁&	-1602
ptembre	-1603
▁constitu	-1604
minist	-1605
▁table	-1606
IN	-1607
▁dist	-1608
▁santé	-1609
ook	-1610
cription	-1611
arm	-1612
iles	-1613
duc	-1614
▁rev	-1615
▁concern	-1616
eff	-1617
dit	-1618
▁appel	-1619
usement	-1620
▁inv	-1621
année	-1622
▁disc	-1623
▁mob	-1624
▁199	-1625
▁doi	-1626
rom	-1627
▁Cel	-1628
aces	-1629
même	-1630
▁empl	-1631
▁cat	-1632
▁elles	-1633
gu	-1634
mbres	-1635
▁gens	-1636
inform	-1637
▁sû	-1638
▁camp	-1639
▁Bon	-1640
ierre	-1641
▁change	-1642
ailleurs	-1643
▁gouver	-1644
▁+	-1645
▁règ	-1646
▁général	-1647
▁2016	-1648
▁expéri	-1649
▁béné	-1650
▁semaine	-1651
ition	-1652
rement	-1653
▁maintenant	-1654
erne	-1655
lication	-1656
▁sites	-1657
rant	-1658
iser	-1659
ry	-1660
▁plutôt	-1661
temps	-1662
▁informations	-1663
▁donne	-1664
▁cir	-1665
tat	-1666
obre	-1667
ock	-1668
ôtel	-1669
▁dès	-1670
urer	-1671
▁reconn	-1672
amp	-1673
▁internation	-1674
▁€	-1675
▁suff	-1676
▁Pas	-1677
agement	-1678
▁vér	-1679
lir	-1680
vembre	-1681
▁artis	-1682
▁équipe	-1683
▁contr	-1684
ok	-1685
pendant	-1686
alités	-1687
▁meilleur	-1688
vant	-1689
ardin	-1690
▁visite	-1691
quel	-1692
▁choses	-1693
50	-1694
inc	-1695
▁compé	-1696
▁europé	-1697
▁2015	-1698
In	-1699
▁bout	-1700
rêt	-1701
▁cherche	-1702
▁ord	-1703
▁autour	-1704
▁Gr	-1705
orter	-1706
▁compos	-1707
▁accomp	-1708
▁étaient	-1709
▁nouvelles	-1710
▁prév	-1711
▁titre	-1712
duction	-1713
agit	-1714
▁coll	-1715
▁propri	-1716
▁défin	-1717
atre	-1718
▁matéri	-1719
gment	-1720
▁24	-1721
lème	-1722
▁page	-1723
▁•	-1724
▁>	-1725
once	-1726
▁marché	-1727
ril	-1728
▁direc	-1729
▁cri	-1730
▁fourn	-1731
cre	-1732
▁oct	-1733
▁prend	-1734
▁emp	-1735
▁aj	-1736
▁maj	-1737
2,	-1738
histoire	-1739
▁mot	-1740
▁plaisir	-1741
phone	-1742
dro	-1743
▁loi	-1744
▁membres	-1745
▁val	-1746
œur	-1747
▁raison	-1748
▁journée	-1749
▁conditions	-1750
▁septembre	-1751
aill	-1752
▁différents	-1753
▁tourn	-1754
▁découvrir	-1755
▁docu	-1756
▁dési	-1757
avant	-1758
▁collec	-1759
▁Ré	-1760
▁destin	-1761
anvier	-1762
sence	-1763
uri	-1764
▁parten	-1765
uli	-1766
▁feu	-1767
RE	-1768
▁problème	-1769
▁passé	-1770
▁fab	-1771
▁but	-1772
▁Comme	-1773
▁000	-1774
avais	-1775
▁thé	-1776
let	-1777
▁Can	-1778
▁plu	-1779
off	-1780
▁conten	-1781
▁toi	-1782
▁Me	-1783
▁gé	-1784
▁orig	-1785
10	-1786
illage	-1787
▁pourrait	-1788
▁lang	-1789
▁bat	-1790
der	-1791
oti	-1792
chi	-1793
▁50	-1794
uerre	-1795
erts	-1796
▁petits	-1797
▁aid	-1798
▁imm	-1799
▁exc	-1800
▁situation	-1801
▁Du	-1802
tenir	-1803
▁Alors	-1804
sy	-1805
cie	-1806
ètres	-1807
▁propre	-1808
▁lib	-1809
▁dernière	-1810
▁mesure	-1811
pt	-1812
ieu	-1813
▁rév	-1814
▁eng	-1815
▁minutes	-1816
fici	-1817
▁loin	-1818
con	-1819
▁cuisine	-1820
tisse	-1821
cembre	-1822
outer	-1823
lus	-1824
oici	-1825
heure	-1826
prit	-1827
▁senti	-1828
▁large	-1829
duire	-1830
oud	-1831
▁rom	-1832
▁retour	-1833
▁pratique	-1834
enf	-1835
▁fille	-1836
ia	-1837
occ	-1838
▁offre	-1839
▁novembre	-1840
▁El	-1841
vention	-1842
▁heure	-1843
▁dépl	-1844
exp	-1845
▁lorsque	-1846
▁lum	-1847
▁poi	-1848
▁chac	-1849
urope	-1850
▁pourquoi	-1851
▁médi	-1852
auv	-1853
▁modi	-1854
gement	-1855
▁aller	-1856
ys	-1857
ast	-1858
▁x	-1859
▁équi	-1860
▁chambre	-1861
▁programme	-1862
écu	-1863
▁commenc	-1864
aît	-1865
âte	-1866
auteur	-1867
▁temp	-1868
▁seule	-1869
erre	-1870
▁â	-1871
péra	-1872
▁rem	-1873
tez	-1874
iance	-1875
aul	-1876
▁2014	-1877
men	-1878
▁sac	-1879
▁Pe	-1880
▁marque	-1881
ération	-1882
▁Gran	-1883
rig	-1884
▁parfois	-1885
▁ayant	-1886
▁mort	-1887
//	-1888
érique	-1889
▁chem	-1890
tim	-1891
orer	-1892
▁pol	-1893
▁élé	-1894
▁test	-1895
▁vient	-1896
rop	-1897
▁janvier	-1898
▁puiss	-1899
ting	-1900
hab	-1901
orité	-1902
▁21	-1903
▁ques	-1904
▁semble	-1905
▁adap	-1906
çu	-1907
acité	-1908
alisation	-1909
▁aucun	-1910
isser	-1911
inst	-1912
▁mess	-1913
ensemble	-1914
▁veut	-1915
LE	-1916
▁carte	-1917
oins	-1918
...]	-1919
▁Col	-1920
ysi	-1921
▁octobre	-1922
▁Sal	-1923
▁gestion	-1924
▁divers	-1925
▁soir	-1926
lie	-1927
▁vic	-1928
ablement	-1929
▁moyen	-1930
aï	-1931
▁Sh	-1932
tivité	-1933
▁sex	-1934
▁entreprises	-1935
die	-1936
TE	-1937
▁Son	-1938
oyer	-1939
II	-1940
▁bal	-1941
▁mode	-1942
▁Pré	-1943
reg	-1944
erie	-1945
▁Comment	-1946
▁appr	-1947
aisse	-1948
▁mars	-1949
aque	-1950
val	-1951
oure	-1952
▁mor	-1953
▁viv	-1954
▁sty	-1955
issant	-1956
anche	-1957
ards	-1958
▁Plus	-1959
sibilité	-1960
ones	-1961
▁charge	-1962
▁conte	-1963
▁grands	-1964
▁vari	-1965
dio	-1966
dess	-1967
▁spécialis	-1968
ome	-1969
▁rend	-1970
tient	-1971
An	-1972
▁naturel	-1973
▁parler	-1974
://	-1975
▁noir	-1976
▁DE	-1977
▁norm	-1978
af	-1979
▁travaux	-1980
▁saison	-1981
▁Dé	-1982
▁hy	-1983
duit	-1984
atiques	-1985
tection	-1986
▁voyage	-1987
▁pan	-1988
▁ali	-1989
▁pap	-1990
▁cit	-1991
▁juillet	-1992
▁Su	-1993
ancer	-1994
▁couleur	-1995
▁sus	-1996
▁particip	-1997
▁décembre	-1998
▁champ	-1999
▁cause	-2000
▁syn	-2001
▁vit	-2002
ision	-2003
▁viol	-2004
▁différentes	-2005
▁second	-2006
rim	-2007
▁plein	-2008
▁us	-2009
atives	-2010
▁Ser	-2011
médi	-2012
èmes	-2013
hé	-2014
▁président	-2015
dec	-2016
empl	-2017
▁yeux	-2018
▁présente	-2019
ki	-2020
▁fr	-2021
▁médic	-2022
▁création	-2023
ee	-2024
▁points	-2025
atis	-2026
oser	-2027
ide	-2028
▁millions	-2029
ologique	-2030
Ar	-2031
ses	-2032
éch	-2033
▁lo	-2034
▁autant	-2035
▁Ou	-2036
équipe	-2037
▁tent	-2038
né	-2039
Al	-2040
▁longue	-2041
▁nouveaux	-2042
▁prise	-2043
▁œu	-2044
▁déci	-2045
▁Lors	-2046
êt	-2047
...)	-2048
▁tend	-2049
▁conne	-2050
▁classe	-2051
▁Ac	-2052
tives	-2053
▁blanc	-2054
▁quatre	-2055
▁territ	-2056
ibles	-2057
▁musique	-2058
▁jeux	-2059
▁sélection	-2060
▁photo	-2061
▁nombreuses	-2062
▁étant	-2063
1,	-2064
▁'	-2065
▁[...]	-2066
▁étudi	-2067
oub	-2068
▁(2	-2069
auche	-2070
otidi	-2071
▁réun	-2072
ze	-2073
▁rempl	-2074
▁blog	-2075
▁nuit	-2076
▁Dieu	-2077
iner	-2078
▁vendre	-2079
▁App	-2080
▁siècle	-2081
▁terre	-2082
▁2013	-2083
rées	-2084
▁vidéo	-2085
▁avis	-2086
▁fort	-2087
▁dég	-2088
▁questions	-2089
▁ensuite	-2090
orig	-2091
▁22	-2092
oh	-2093
▁vac	-2094
fier	-2095
▁réser	-2096
égor	-2097
▁Cela	-2098
atoire	-2099
indre	-2100
ociation	-2101
▁atte	-2102
did	-2103
article	-2104
gne	-2105
▁effic	-2106
▁aurait	-2107
▁clients	-2108
ime	-2109
▁ban	-2110
▁peux	-2111
▁pai	-2112
▁hist	-2113
utilisation	-2114
▁gam	-2115
occasion	-2116
aller	-2117
▁écrit	-2118
▁vente	-2119
sitions	-2120
▁simplement	-2121
▁créer	-2122
▁#	-2123
▁intéress	-2124
▁complè	-2125
▁restaur	-2126
▁rendre	-2127
▁Bien	-2128
ton	-2129
▁is	-2130
▁matin	-2131
homme	-2132
▁rapidement	-2133
onnes	-2134
nov	-2135
▁Or	-2136
ith	-2137
▁quotidi	-2138
▁améric	-2139
AS	-2140
▁mondi	-2141
quelle	-2142
ax	-2143
▁gouvernement	-2144
▁mouve	-2145
▁tard	-2146
▁article	-2147
cier	-2148
▁multi	-2149
▁Déc	-2150
▁garanti	-2151
▁oc	-2152
▁vite	-2153
rou	-2154
▁Am	-2155
▁taille	-2156
▁quar	-2157
▁important	-2158
▁maî	-2159
▁conv	-2160
▁nav	-2161
venu	-2162
niques	-2163
mission	-2164
▁bâ	-2165
▁doute	-2166
▁Intern	-2167
▁Ad	-2168
▁Cor	-2169
inf	-2170
▁consomm	-2171
▁doivent	-2172
▁réseau	-2173
▁bord	-2174
▁commerci	-2175
▁autom	-2176
▁web	-2177
inaire	-2178
▁bo	-2179
▁Sa	-2180
partement	-2181
▁alle	-2182
▁vais	-2183
▁histoire	-2184
tivement	-2185
▁traitement	-2186
▁recom	-2187
▁anti	-2188
▁genre	-2189
ots	-2190
tées	-2191
▁sein	-2192
▁Notre	-2193
▁oblig	-2194
▁frais	-2195
raî	-2196
▁Rencont	-2197
clus	-2198
▁activités	-2199
▁bénéfici	-2200
▁nécessaire	-2201
▁sûr	-2202
▁matière	-2203
èrent	-2204
▁ensemble	-2205
▁laquelle	-2206
▁française	-2207
▁aucune	-2208
▁droits	-2209
▁guerre	-2210
0,	-2211
▁financi	-2212
▁prov	-2213
▁version	-2214
rance	-2215
▁habit	-2216
mun	-2217
pond	-2218
▁objec	-2219
▁Conse	-2220
itez	-2221
▁aura	-2222
vement	-2223
aime	-2224
son	-2225
fois	-2226
▁Te	-2227
▁certaines	-2228
▁cœur	-2229
▁idé	-2230
évrier	-2231
iné	-2232
▁entreprise	-2233
no	-2234
tie	-2235
▁physi	-2236
▁liber	-2237
▁pati	-2238
onomie	-2239
▁u	-2240
bes	-2241
ice	-2242
▁confort	-2243
▁risque	-2244
agner	-2245
▁date	-2246
▁effectu	-2247
▁liste	-2248
▁crois	-2249
▁pren	-2250
entreprise	-2251
▁prog	-2252
uros	-2253
▁période	-2254
▁souff	-2255
êmes	-2256
▁amis	-2257
▁Char	-2258
▁partici	-2259
▁vivre	-2260
onse	-2261
▁particulier	-2262
▁enfin	-2263
▁domaine	-2264
▁démar	-2265
ourg	-2266
quant	-2267
abord	-2268
urent	-2269
▁Pr	-2270
tiers	-2271
▁int	-2272
▁vois	-2273
▁sen	-2274
AL	-2275
▁Depuis	-2276
▁Gu	-2277
▁déclar	-2278
ède	-2279
AC	-2280
▁offici	-2281
▁rê	-2282
quent	-2283
aide	-2284
▁avril	-2285
ouss	-2286
▁valeur	-2287
▁expl	-2288
▁km	-2289
▁modèle	-2290
▁Merci	-2291
▁jardin	-2292
▁fai	-2293
▁spect	-2294
▁23	-2295
2.	-2296
ël	-2297
▁accep	-2298
itable	-2299
▁symp	-2300
▁agré	-2301
▁cm	-2302
étu	-2303
▁fig	-2304
arri	-2305
▁nég	-2306
▁chi	-2307
▁terme	-2308
▁priv	-2309
erm	-2310
▁contac	-2311
▁force	-2312
▁Tu	-2313
▁vont	-2314
▁chacun	-2315
respond	-2316
éh	-2317
▁Que	-2318
entiel	-2319
▁aim	-2320
▁proté	-2321
▁forum	-2322
ck	-2323
▁htt	-2324
▁succ	-2325
▁projets	-2326
▁auprès	-2327
▁sexe	-2328
▁Cons	-2329
▁résultats	-2330
urb	-2331
alog	-2332
▁Mal	-2333
pa	-2334
▁rue	-2335
organis	-2336
▁sav	-2337
▁stra	-2338
uve	-2339
▁étran	-2340
esse	-2341
lo	-2342
▁procéd	-2343
▁sortie	-2344
▁client	-2345
▁emb	-2346
▁laisser	-2347
OU	-2348
ureau	-2349
élè	-2350
time	-2351
oun	-2352
▁outil	-2353
ulaire	-2354
▁vacances	-2355
▁méth	-2356
ende	-2357
▁production	-2358
▁40	-2359
▁dél	-2360
▁facile	-2361
▁augment	-2362
▁comprendre	-2363
▁respec	-2364
▁technique	-2365
▁univers	-2366
paration	-2367
▁lien	-2368
▁compris	-2369
▁correspond	-2370
avait	-2371
oign	-2372
osition	-2373
▁Bar	-2374
iennent	-2375
▁psy	-2376
onie	-2377
ouse	-2378
OR	-2379
▁gui	-2380
▁fav	-2381
yth	-2382
11	-2383
▁)	-2384
ditionn	-2385
▁internet	-2386
▁évi	-2387
▁lire	-2388
▁gu	-2389
poque	-2390
raient	-2391
auté	-2392
▁donné	-2393
entif	-2394
▁utiliser	-2395
▁éner	-2396
▁stru	-2397
▁atta	-2398
▁essay	-2399
▁supéri	-2400
vie	-2401
ape	-2402
▁origin	-2403
▁directement	-2404
IC	-2405
arde	-2406
▁Es	-2407
aison	-2408
vision	-2409
eng	-2410
roche	-2411
hum	-2412
▁libre	-2413
▁deuxième	-2414
▁mots	-2415
▁oui	-2416
▁fle	-2417
▁poss	-2418
▁repr	-2419
▁198	-2420
▁médec	-2421
éhic	-2422
chés	-2423
▁rôle	-2424
▁grandes	-2425
oilà	-2426
▁protection	-2427
char	-2428
▁enti	-2429
▁neu	-2430
▁couleurs	-2431
▁plate	-2432
ticles	-2433
origine	-2434
▁No	-2435
▁Tra	-2436
▁commande	-2437
cer	-2438
ly	-2439
acement	-2440
ix	-2441
▁février	-2442
▁lun	-2443
▁relation	-2444
vres	-2445
for	-2446
▁pièces	-2447
▁parents	-2448
mm	-2449
▁club	-2450
▁Cont	-2451
▁concernant	-2452
sse	-2453
▁jouer	-2454
9,	-2455
itaires	-2456
OM	-2457
▁Quand	-2458
amour	-2459
après	-2460
▁rece	-2461
▁remar	-2462
gique	-2463
raire	-2464
5,	-2465
▁père	-2466
▁*	-2467
▁presque	-2468
▁perform	-2469
▁milieu	-2470
cience	-2471
cident	-2472
▁civ	-2473
veur	-2474
▁gard	-2475
▁tri	-2476
pération	-2477
▁cam	-2478
▁mach	-2479
illeurs	-2480
▁nationale	-2481
▁diffic	-2482
ett	-2483
▁professionnels	-2484
rons	-2485
olutions	-2486
▁parmi	-2487
sier	-2488
ades	-2489
ks	-2490
tile	-2491
▁parle	-2492
▁tel	-2493
▁voiture	-2494
itation	-2495
▁enfant	-2496
çois	-2497
▁véhic	-2498
8,	-2499
he	-2500
▁route	-2501
▁personnel	-2502
▁août	-2503
yl	-2504
ionn	-2505
yon	-2506
▁déli	-2507
▁chauff	-2508
▁indé	-2509
▁sait	-2510
▁candid	-2511
▁besoins	-2512
▁envie	-2513
▁scène	-2514
▁secteur	-2515
cs	-2516
fait	-2517
▁pied	-2518
▁of	-2519
oux	-2520
▁contrôle	-2521
▁amb	-2522
▁longtemps	-2523
▁texte	-2524
▁pot	-2525
▁départ	-2526
▁économique	-2527
▁indivi	-2528
▁remp	-2529
▁Conseil	-2530
4,	-2531
aj	-2532
▁tom	-2533
▁élè	-2534
▁Man	-2535
▁style	-2536
ple	-2537
▁chemin	-2538
▁solution	-2539
ormais	-2540
entrée	-2541
▁état	-2542
▁sig	-2543
quis	-2544
▁euros	-2545
ennes	-2546
▁sh	-2547
iers	-2548
isp	-2549
chant	-2550
▁commer	-2551
▁mauv	-2552
ilier	-2553
▁laisse	-2554
▁Br	-2555
▁accord	-2556
quée	-2557
uelle	-2558
▁venir	-2559
▁présence	-2560
▁ministre	-2561
▁précis	-2562
termin	-2563
ase	-2564
▁oub	-2565
▁celles	-2566
▁install	-2567
▁volont	-2568
lect	-2569
▁durant	-2570
ient	-2571
acer	-2572
▁spécif	-2573
▁aider	-2574
uré	-2575
▁1.	-2576
envir	-2577
▁merci	-2578
rice	-2579
▁chef	-2580
usse	-2581
urg	-2582
▁four	-2583
alyse	-2584
ieux	-2585
gue	-2586
oupes	-2587
▁objet	-2588
ules	-2589
ambres	-2590
aliste	-2591
tit	-2592
▁petites	-2593
▁classi	-2594
▁difficile	-2595
▁26	-2596
position	-2597
▁existe	-2598
▁taux	-2599
lèmes	-2600
▁code	-2601
issent	-2602
▁fré	-2603
▁lut	-2604
▁direction	-2605
▁conséqu	-2606
oré	-2607
▁aliment	-2608
eté	-2609
face	-2610
▁document	-2611
▁certaine	-2612
orde	-2613
▁commune	-2614
▁ve	-2615
▁voix	-2616
▁Site	-2617
▁Rép	-2618
▁techniques	-2619
▁diri	-2620
▁relig	-2621
▁extra	-2622
▁tes	-2623
lam	-2624
car	-2625
▁gauche	-2626
▁meu	-2627
▁précéd	-2628
dique	-2629
▁mère	-2630
information	-2631
▁let	-2632
▁devrait	-2633
èse	-2634
▁rej	-2635
7,	-2636
▁choisir	-2637
▁manque	-2638
ash	-2639
ige	-2640
èles	-2641
▁sang	-2642
▁abs	-2643
▁retrouver	-2644
tice	-2645
▁collab	-2646
ref	-2647
▁améli	-2648
▁position	-2649
ral	-2650
titude	-2651
pré	-2652
▁match	-2653
▁équ	-2654
medi	-2655
acté	-2656
▁straté	-2657
▁gamme	-2658
ament	-2659
12	-2660
▁capit	-2661
istance	-2662
orique	-2663
▁logici	-2664
▁termin	-2665
▁sole	-2666
▁expérience	-2667
▁avaient	-2668
▁peau	-2669
▁conseil	-2670
▁28	-2671
▁département	-2672
▁répondre	-2673
▁be	-2674
▁cu	-2675
ousse	-2676
▁ouver	-2677
ouverture	-2678
IL	-2679
▁design	-2680
venue	-2681
▁social	-2682
▁joli	-2683
inture	-2684
▁établ	-2685
roy	-2686
tine	-2687
▁pat	-2688
lent	-2689
▁fils	-2690
▁réaliser	-2691
cup	-2692
▁permettre	-2693
Unis	-2694
▁pours	-2695
▁consi	-2696
▁lequel	-2697
▁intéri	-2698
▁problèmes	-2699
ailler	-2700
▁impos	-2701
▁él	-2702
▁maladi	-2703
bat	-2704
ini	-2705
▁séjour	-2706
▁initi	-2707
▁appré	-2708
▁communication	-2709
TION	-2710
▁rouge	-2711
▁administ	-2712
▁via	-2713
▁changer	-2714
▁consul	-2715
▁environ	-2716
matique	-2717
tation	-2718
▁tém	-2719
areil	-2720
▁fix	-2721
cteurs	-2722
ducation	-2723
oint	-2724
yc	-2725
▁fro	-2726
▁catégor	-2727
1.	-2728
▁soleil	-2729
▁construction	-2730
iversité	-2731
▁durée	-2732
▁manif	-2733
▁bâti	-2734
ada	-2735
▁Ainsi	-2736
▁réussi	-2737
▁chat	-2738
6,	-2739
liquer	-2740
▁lorsqu	-2741
▁terrain	-2742
▁opp	-2743
▁sociale	-2744
▁Ab	-2745
▁éléments	-2746
▁Mich	-2747
▁Quel	-2748
▁droite	-2749
▁Français	-2750
▁semaines	-2751
▁confir	-2752
▁réponse	-2753
▁enc	-2754
▁magnif	-2755
▁27	-2756
▁numéro	-2757
veux	-2758
▁pourtant	-2759
éma	-2760
ustri	-2761
ergie	-2762
▁permis	-2763
▁cop	-2764
Le	-2765
▁plupart	-2766
▁disponible	-2767
ume	-2768
▁pal	-2769
▁veux	-2770
OS	-2771
▁ble	-2772
AT	-2773
▁ailleurs	-2774
▁fru	-2775
▁images	-2776
▁dra	-2777
▁!!!	-2778
inte	-2779
▁transform	-2780
enn	-2781
main	-2782
▁ami	-2783
▁inves	-2784
arch	-2785
▁soient	-2786
▁maxim	-2787
▁soli	-2788
▁village	-2789
nements	-2790
/201	-2791
▁diman	-2792
3,	-2793
▁Fem	-2794
▁Tous	-2795
▁retra	-2796
▁197	-2797
▁consid	-2798
AM	-2799
▁Aut	-2800
usion	-2801
▁réalité	-2802
▁fé	-2803
book	-2804
stitu	-2805
UE	-2806
▁désormais	-2807
▁poids	-2808
▁facilement	-2809
odes	-2810
▁situé	-2811
▁détail	-2812
▁suivre	-2813
onner	-2814
ute	-2815
▁opéra	-2816
/0	-2817
▁pleine	-2818
].	-2819
emb	-2820
cel	-2821
▁fonctionn	-2822
▁For	-2823
lin	-2824
ographie	-2825
▁meilleure	-2826
▁premiers	-2827
▁sort	-2828
apon	-2829
▁mouvement	-2830
▁méc	-2831
▁mariage	-2832
veill	-2833
IT	-2834
▁bureau	-2835
▁chambres	-2836
ination	-2837
▁pièce	-2838
▁compagn	-2839
quête	-2840
andes	-2841
▁the	-2842
▁comprend	-2843
atifs	-2844
rec	-2845
▁The	-2846
mettre	-2847
ulation	-2848
▁quit	-2849
oncé	-2850
sibles	-2851
▁haute	-2852
▁psych	-2853
ocra	-2854
▁meilleurs	-2855
▁résid	-2856
▁écl	-2857
bum	-2858
▁satis	-2859
▁devenir	-2860
▁certain	-2861
utilise	-2862
▁dispar	-2863
ates	-2864
ciens	-2865
aie	-2866
sie	-2867
▁commence	-2868
ppe	-2869
60	-2870
▁cinq	-2871
▁succès	-2872
école	-2873
▁réguli	-2874
ville	-2875
▁confiance	-2876
argent	-2877
rimer	-2878
intérieur	-2879
▁professionnel	-2880
cientif	-2881
▁référence	-2882
▁hors	-2883
oll	-2884
▁nu	-2885
▁véritable	-2886
▁tran	-2887
▁cra	-2888
uy	-2889
urance	-2890
▁direct	-2891
▁mém	-2892
rale	-2893
▁couv	-2894
▁spectac	-2895
▁dimanche	-2896
▁disposition	-2897
▁samedi	-2898
▁respect	-2899
▁signif	-2900
▁Acc	-2901
ignement	-2902
▁coeur	-2903
oise	-2904
▁Val	-2905
▁chale	-2906
▁bain	-2907
xte	-2908
▁scol	-2909
▁permettant	-2910
▁chiff	-2911
▁Voici	-2912
▁montre	-2913
▁proche	-2914
vir	-2915
▁angl	-2916
▁caract	-2917
érer	-2918
este	-2919
▁trouvé	-2920
▁politiques	-2921
pend	-2922
▁moyens	-2923
▁possibilité	-2924
▁national	-2925
▁mél	-2926
En	-2927
crit	-2928
tal	-2929
▁double	-2930
arité	-2931
étais	-2932
accord	-2933
▁ressour	-2934
▁Bel	-2935
▁lecture	-2936
▁articles	-2937
▁Pierre	-2938
▁contact	-2939
▁zone	-2940
▁fou	-2941
ublique	-2942
40	-2943
▁sorte	-2944
▁faites	-2945
▁douce	-2946
▁2.	-2947
▁conseils	-2948
ombre	-2949
ross	-2950
▁endro	-2951
▁publique	-2952
▁dernières	-2953
▁générale	-2954
▁population	-2955
ension	-2956
ouverte	-2957
iver	-2958
-2	-2959
actéris	-2960
▁Internet	-2961
▁source	-2962
log	-2963
iez	-2964
▁sembl	-2965
▁attend	-2966
▁60	-2967
eek	-2968
inon	-2969
ina	-2970
▁devient	-2971
hy	-2972
▁salon	-2973
▁habitu	-2974
expéri	-2975
▁malgré	-2976
▁rappel	-2977
ancement	-2978
▁esc	-2979
osé	-2980
▁passage	-2981
▁téléphone	-2982
lications	-2983
▁spor	-2984
▁Cet	-2985
èque	-2986
▁propriété	-2987
▁1,	-2988
▁sociaux	-2989
ik	-2990
▁ir	-2991
▁process	-2992
▁Go	-2993
▁demander	-2994
EL	-2995
ordre	-2996
▁évé	-2997
▁2012	-2998
▁én	-2999
▁Pre	-3000
▁véri	-3001
ébec	-3002
▁pourra	-3003
▁Bonjour	-3004
▁mas	-3005
▁moyenne	-3006
terie	-3007
▁joueurs	-3008
▁Enfin	-3009
▁rendez	-3010
âtre	-3011
▁peur	-3012
▁Ann	-3013
▁peine	-3014
▁derniers	-3015
▁pén	-3016
▁élèves	-3017
▁contrat	-3018
▁détermin	-3019
▁lumière	-3020
mat	-3021
▁rester	-3022
ha	-3023
quet	-3024
▁31	-3025
www	-3026
▁compar	-3027
ignes	-3028
▁occ	-3029
▁scientif	-3030
tissement	-3031
▁profiter	-3032
▁Is	-3033
▁message	-3034
▁Ét	-3035
▁connaiss	-3036
Etat	-3037
aci	-3038
▁navig	-3039
▁suivi	-3040
▁chance	-3041
▁enreg	-3042
lié	-3043
▁utilisé	-3044
accès	-3045
hés	-3046
▁physique	-3047
ulture	-3048
▁minim	-3049
frique	-3050
ma	-3051
▁train	-3052
oot	-3053
estiv	-3054
▁lieux	-3055
ht	-3056
▁Co	-3057
▁transf	-3058
ronique	-3059
do	-3060
▁Mus	-3061
▁excell	-3062
lant	-3063
▁langue	-3064
▁reven	-3065
▁magas	-3066
ynam	-3067
isé	-3068
▁pourrez	-3069
iscine	-3070
▁Be	-3071
▁prest	-3072
fication	-3073
ana	-3074
▁pages	-3075
▁recommand	-3076
▁individu	-3077
▁puisque	-3078
▁difficul	-3079
objet	-3080
▁contenu	-3081
__	-3082
ications	-3083
esprit	-3084
ètre	-3085
▁combat	-3086
▁29	-3087
▁Rencontre	-3088
▁Votre	-3089
▁dén	-3090
▁Oui	-3091
▁roman	-3092
▁retrouve	-3093
▁Fl	-3094
ribution	-3095
ister	-3096
ays	-3097
▁cy	-3098
demment	-3099
énergie	-3100
tor	-3101
▁décidé	-3102
▁stat	-3103
▁Ass	-3104
▁considé	-3105
up	-3106
ève	-3107
▁ancien	-3108
▁collection	-3109
▁idées	-3110
rist	-3111
DE	-3112
aume	-3113
▁travailler	-3114
▁fall	-3115
▁sortir	-3116
là	-3117
agné	-3118
▁quelqu	-3119
▁2010	-3120
▁processus	-3121
▁faud	-3122
dire	-3123
idée	-3124
agé	-3125
▁permettent	-3126
▁image	-3127
▁continu	-3128
êche	-3129
▁œuvre	-3130
tir	-3131
▁mains	-3132
▁suivant	-3133
▁gal	-3134
▁responsable	-3135
▁rencontrer	-3136
activité	-3137
▁=	-3138
▁décision	-3139
image	-3140
igue	-3141
AP	-3142
éral	-3143
▁lu	-3144
seur	-3145
▁obtenir	-3146
▁activité	-3147
ission	-3148
▁traditionn	-3149
hi	-3150
astique	-3151
qués	-3152
▁sim	-3153
▁partager	-3154
▁patri	-3155
15	-3156
▁dispose	-3157
▁soirée	-3158
▁marche	-3159
▁complet	-3160
▁faisant	-3161
▁sud	-3162
▁prot	-3163
ènes	-3164
▁disponibles	-3165
âteau	-3166
atrice	-3167
▁Min	-3168
▁exist	-3169
▁Entre	-3170
▁idée	-3171
oss	-3172
pro	-3173
ars	-3174
▁résultat	-3175
urant	-3176
▁salari	-3177
▁Pri	-3178
▁sil	-3179
▁aide	-3180
ides	-3181
espace	-3182
▁soutien	-3183
onces	-3184
▁connu	-3185
fe	-3186
▁industri	-3187
▁travaill	-3188
▁cond	-3189
▁presse	-3190
▁aime	-3191
user	-3192
▁Rob	-3193
▁multip	-3194
▁bel	-3195
cons	-3196
▁http	-3197
▁lab	-3198
▁campagne	-3199
▁Grand	-3200
▁vendredi	-3201
charger	-3202
▁garde	-3203
▁mun	-3204
▁vas	-3205
▁connaître	-3206
▁Per	-3207
▁fabric	-3208
▁and	-3209
▁connaissance	-3210
aliser	-3211
ié	-3212
inateur	-3213
▁territoire	-3214
▁nour	-3215
istère	-3216
ogle	-3217
▁quelle	-3218
Ch	-3219
▁Soci	-3220
érie	-3221
illé	-3222
."	-3223
▁At	-3224
▁pil	-3225
▁Ma	-3226
état	-3227
▁Québec	-3228
▁accueil	-3229
▁tal	-3230
▁essenti	-3231
▁LE	-3232
▁concep	-3233
▁mission	-3234
▁immob	-3235
io	-3236
▁connais	-3237
▁sport	-3238
▁Fin	-3239
▁Puis	-3240
▁class	-3241
ares	-3242
▁mic	-3243
ctu	-3244
alu	-3245
La	-3246
▁actions	-3247
tru	-3248
ximité	-3249
▁pou	-3250
▁Peu	-3251
servation	-3252
of	-3253
zz	-3254
expl	-3255
▁Nord	-3256
▁couple	-3257
▁arrê	-3258
issance	-3259
▁plac	-3260
ôme	-3261
anim	-3262
▁Mo	-3263
▁promo	-3264
estival	-3265
▁François	-3266
liers	-3267
▁publié	-3268
server	-3269
▁livres	-3270
▁souhaitez	-3271
estre	-3272
▁solutions	-3273
▁propriét	-3274
udg	-3275
▁Cré	-3276
▁pratiques	-3277
avantage	-3278
▁environnement	-3279
▁communauté	-3280
▁espace	-3281
ano	-3282
▁écri	-3283
raison	-3284
▁administra	-3285
▁accès	-3286
▁changement	-3287
▁uniquement	-3288
rasse	-3289
itant	-3290
▁Non	-3291
enez	-3292
emploi	-3293
▁dessus	-3294
urr	-3295
▁tellement	-3296
▁caractéris	-3297
mée	-3298
▁renfor	-3299
sur	-3300
▁New	-3301
Europe	-3302
mail	-3303
▁Cour	-3304
▁liberté	-3305
ologiques	-3306
▁perman	-3307
▁Sud	-3308
▁Maison	-3309
appr	-3310
▁arrive	-3311
▁consac	-3312
▁lesqu	-3313
éder	-3314
oque	-3315
▁supplément	-3316
▁vir	-3317
▁Selon	-3318
▁proximité	-3319
iteur	-3320
ony	-3321
▁professionnelle	-3322
apit	-3323
▁hé	-3324
▁papier	-3325
▁vites	-3326
▁Est	-3327
▁graph	-3328
▁quotidien	-3329
▁ouvert	-3330
▁filles	-3331
heur	-3332
cles	-3333
▁telle	-3334
endra	-3335
▁manifest	-3336
ational	-3337
▁stock	-3338
tition	-3339
.,	-3340
▁retrouv	-3341
mblée	-3342
▁tels	-3343
▁études	-3344
▁Lire	-3345
bres	-3346
▁famili	-3347
▁vin	-3348
▁derrière	-3349
ouis	-3350
▁Gra	-3351
chement	-3352
▁accue	-3353
otte	-3354
del	-3355
▁sent	-3356
▁pouvait	-3357
AU	-3358
▁actuellement	-3359
▁lois	-3360
▁ment	-3361
tié	-3362
credi	-3363
anne	-3364
▁présid	-3365
▁red	-3366
▁groupes	-3367
▁sout	-3368
▁bras	-3369
▁Aujourd	-3370
▁Nos	-3371
▁action	-3372
ani	-3373
CE	-3374
▁Beau	-3375
IE	-3376
▁Mer	-3377
▁adul	-3378
ls	-3379
Je	-3380
▁règles	-3381
▁parcours	-3382
▁thème	-3383
ilités	-3384
▁soins	-3385
▁mur	-3386
çons	-3387
tionnel	-3388
▁employ	-3389
▁lanc	-3390
▁Toute	-3391
uration	-3392
▁immédi	-3393
▁litté	-3394
4.	-3395
▁proposer	-3396
▁ressources	-3397
▁cab	-3398
▁cheveux	-3399
80	-3400
▁partage	-3401
▁tempéra	-3402
▁Centre	-3403
ama	-3404
mage	-3405
ork	-3406
▁quartier	-3407
▁agréable	-3408
association	-3409
▁post	-3410
ost	-3411
9.	-3412
▁matériel	-3413
ibli	-3414
▁efficace	-3415
▁bons	-3416
cipe	-3417
▁dix	-3418
▁puissance	-3419
▁(3	-3420
alle	-3421
oulez	-3422
▁suc	-3423
▁prochain	-3424
da	-3425
▁parties	-3426
▁institu	-3427
▁suffit	-3428
▁entraî	-3429
hô	-3430
ENT	-3431
▁80	-3432
▁dossier	-3433
▁membre	-3434
5.	-3435
ège	-3436
▁tari	-3437
▁Ben	-3438
▁connec	-3439
▁Sans	-3440
▁annonce	-3441
▁Face	-3442
▁poste	-3443
▁porter	-3444
▁éviter	-3445
▁chauss	-3446
▁excep	-3447
▁penser	-3448
▁caractère	-3449
▁manger	-3450
dent	-3451
ilos	-3452
▁Jus	-3453
pren	-3454
ailles	-3455
ira	-3456
land	-3457
ressi	-3458
▁capacité	-3459
▁Sy	-3460
▁Europe	-3461
▁communi	-3462
▁choc	-3463
▁constat	-3464
atta	-3465
▁seconde	-3466
bl	-3467
▁ap	-3468
less	-3469
▁repas	-3470
▁européenne	-3471
issements	-3472
▁total	-3473
▁mêmes	-3474
▁rense	-3475
▁vide	-3476
▁magnifique	-3477
▁citoy	-3478
▁mètres	-3479
▁six	-3480
▁totalement	-3481
▁souhaite	-3482
▁laiss	-3483
▁Cert	-3484
▁hôtel	-3485
SE	-3486
▁Elles	-3487
▁gaz	-3488
▁!!	-3489
3.	-3490
reux	-3491
▁réseaux	-3492
▁bonnes	-3493
▁Stu	-3494
▁suffis	-3495
▁République	-3496
▁modèles	-3497
▁mesures	-3498
▁imag	-3499
??	-3500
▁dipl	-3501
ince	-3502
▁piscine	-3503
toire	-3504
▁budg	-3505
▁moteur	-3506
▁posi	-3507
▁Dire	-3508
▁parfaitement	-3509
▁prochaine	-3510
▁Ret	-3511
▁partout	-3512
trême	-3513
▁voie	-3514
olé	-3515
▁court	-3516
▁continue	-3517
▁Bou	-3518
▁concerne	-3519
▁Très	-3520
irs	-3521
moine	-3522
▁Sac	-3523
▁déta	-3524
▁2011	-3525
chent	-3526
▁Prof	-3527
▁mm	-3528
lég	-3529
ouleur	-3530
▁arch	-3531
▁forte	-3532
uil	-3533
▁iss	-3534
▁glob	-3535
▁perdre	-3536
▁somme	-3537
▁calcul	-3538
▁dirige	-3539
▁lundi	-3540
▁relations	-3541
ara	-3542
▁week	-3543
18	-3544
▁pose	-3545
riture	-3546
▁belles	-3547
▁reç	-3548
▁top	-3549
Les	-3550
▁films	-3551
▁ul	-3552
ciences	-3553
▁péd	-3554
appel	-3555
▁États	-3556
99	-3557
duite	-3558
uff	-3559
importe	-3560
»,	-3561
▁troisième	-3562
▁devez	-3563
dessus	-3564
▁2,	-3565
▁repro	-3566
▁numérique	-3567
resser	-3568
fié	-3569
▁calme	-3570
▁bru	-3571
▁présenter	-3572
▁célè	-3573
▁collè	-3574
forme	-3575
▁directeur	-3576
▁voi	-3577
▁tendance	-3578
▁étrang	-3579
ctures	-3580
▁Chaque	-3581
▁cependant	-3582
▁envoy	-3583
ocation	-3584
expérience	-3585
▁régime	-3586
▁autoris	-3587
alisme	-3588
▁amoure	-3589
▁tomb	-3590
▁Qui	-3591
▁Lib	-3592
veille	-3593
▁desc	-3594
▁cade	-3595
▁Ag	-3596
▁gagner	-3597
▁US	-3598
▁commencer	-3599
ouer	-3600
Mar	-3601
▁Cependant	-3602
charge	-3603
cieux	-3604
▁exclus	-3605
▁réalisé	-3606
▁dynam	-3607
nous	-3608
▁permettra	-3609
▁Rés	-3610
▁habitants	-3611
tellig	-3612
▁forc	-3613
NE	-3614
▁Etats	-3615
▁hor	-3616
▁pieds	-3617
accueil	-3618
ariat	-3619
ed	-3620
▁transp	-3621
onge	-3622
appar	-3623
▁transport	-3624
▁Nic	-3625
novation	-3626
▁outils	-3627
▁concours	-3628
▁196	-3629
▁reçu	-3630
▁course	-3631
▁trouverez	-3632
▁voulez	-3633
ka	-3634
▁Por	-3635
▁mécan	-3636
OL	-3637
sieur	-3638
▁affir	-3639
ministration	-3640
▁rele	-3641
▁paris	-3642
▁oeu	-3643
vage	-3644
▁premières	-3645
andis	-3646
▁contraire	-3647
▁fant	-3648
▁bran	-3649
▁acces	-3650
tte	-3651
élibat	-3652
enfant	-3653
tivités	-3654
▁deme	-3655
icip	-3656
▁domicile	-3657
▁propres	-3658
▁nord	-3659
itude	-3660
▁go	-3661
▁coû	-3662
▁importante	-3663
chat	-3664
onné	-3665
érap	-3666
époque	-3667
▁autor	-3668
▁familles	-3669
▁instru	-3670
▁vo	-3671
▁faisait	-3672
▁développer	-3673
▁visage	-3674
▁prêt	-3675
sh	-3676
▁poursui	-3677
▁adop	-3678
▁dû	-3679
ologies	-3680
▁Même	-3681
dessous	-3682
▁vitesse	-3683
ières	-3684
▁structure	-3685
roit	-3686
êtres	-3687
▁compagnie	-3688
▁stu	-3689
mpor	-3690
▁Deux	-3691
▁finalement	-3692
itée	-3693
▁div	-3694
âge	-3695
adresse	-3696
▁circul	-3697
king	-3698
▁Mad	-3699
tiste	-3700
fric	-3701
▁mémoire	-3702
tences	-3703
▁Sp	-3704
▁édition	-3705
ME	-3706
▁moderne	-3707
Or	-3708
çant	-3709
chir	-3710
23	-3711
iche	-3712
▁vidéos	-3713
▁partenaires	-3714
▁consommation	-3715
▁béb	-3716
▁Marie	-3717
▁fonctionnement	-3718
▁personnages	-3719
gr	-3720
▁soup	-3721
▁Cal	-3722
14	-3723
▁Découv	-3724
▁ha	-3725
▁plage	-3726
mon	-3727
gée	-3728
▁Servi	-3729
▁risques	-3730
▁Pers	-3731
▁Ver	-3732
umes	-3733
90	-3734
AG	-3735
▁fera	-3736
anges	-3737
▁démocra	-3738
érences	-3739
ity	-3740
▁effets	-3741
RO	-3742
onnées	-3743
▁tiss	-3744
ino	-3745
▁participer	-3746
▁vert	-3747
tionnelle	-3748
▁mauvais	-3749
▁joue	-3750
8.	-3751
▁dédi	-3752
pérer	-3753
▁35	-3754
▁ate	-3755
▁électrique	-3756
6.	-3757
usé	-3758
▁fich	-3759
▁commerce	-3760
▁souvenir	-3761
▁défense	-3762
▁Gar	-3763
énagement	-3764
▁attention	-3765
▁nett	-3766
▁publics	-3767
▁Ob	-3768
riques	-3769
▁Rég	-3770
▁volonté	-3771
▁allez	-3772
▁montant	-3773
▁caf	-3774
▁choisi	-3775
▁support	-3776
▁stand	-3777
avec	-3778
illon	-3779
▁chans	-3780
▁Mac	-3781
achat	-3782
▁Gén	-3783
▁catégorie	-3784
alogue	-3785
▁acheter	-3786
▁fen	-3787
▁obten	-3788
▁location	-3789
▁demi	-3790
▁principe	-3791
▁peuple	-3792
▁maladie	-3793
CI	-3794
▁répar	-3795
▁Donc	-3796
▁Canada	-3797
environnement	-3798
▁Lorsque	-3799
CH	-3800
▁hauteur	-3801
tière	-3802
▁Pub	-3803
èce	-3804
▁LA	-3805
▁utilise	-3806
Es	-3807
▁créé	-3808
▁Jac	-3809
organisation	-3810
▁maximum	-3811
▁perdu	-3812
▁bient	-3813
▁Web	-3814
étique	-3815
▁classique	-3816
13	-3817
▁Mag	-3818
▁chaî	-3819
liqué	-3820
▁faite	-3821
▁riches	-3822
▁contacter	-3823
parer	-3824
▁certif	-3825
▁Comp	-3826
▁Paul	-3827
▁jeudi	-3828
▁valeurs	-3829
▁Toutes	-3830
US	-3831
▁voici	-3832
▁réflex	-3833
▁logiciel	-3834
édi	-3835
▁internationale	-3836
▁généralement	-3837
▁automatique	-3838
▁ryth	-3839
▁verre	-3840
oindre	-3841
▁(...)	-3842
▁chercher	-3843
▁compter	-3844
uels	-3845
▁villes	-3846
alistes	-3847
asi	-3848
cr	-3849
alisé	-3850
to	-3851
▁clair	-3852
airement	-3853
▁anglais	-3854
cis	-3855
▁bra	-3856
▁entièrement	-3857
▁Li	-3858
▁trou	-3859
▁coord	-3860
ingt	-3861
▁micro	-3862
▁peinture	-3863
application	-3864
▁voilà	-3865
adap	-3866
▁faible	-3867
▁chaud	-3868
▁Ca	-3869
▁mercredi	-3870
▁défini	-3871
7.	-3872
▁album	-3873
jectif	-3874
▁cinéma	-3875
▁identif	-3876
île	-3877
▁continuer	-3878
▁acteurs	-3879
▁Ge	-3880
uisse	-3881
îte	-3882
▁croissance	-3883
▁format	-3884
intérêt	-3885
▁formes	-3886
▁réuss	-3887
▁application	-3888
▁équipes	-3889
▁appro	-3890
nies	-3891
nom	-3892
▁célibat	-3893
org	-3894
▁500	-3895
▁majorité	-3896
ends	-3897
▁machine	-3898
▁compétences	-3899
▁documents	-3900
▁poser	-3901
▁animaux	-3902
▁Cas	-3903
▁remer	-3904
oncer	-3905
pour	-3906
▁bleu	-3907
▁satisf	-3908
▁nécessaires	-3909
▁recevoir	-3910
▁complément	-3911
25	-3912
▁puisse	-3913
étude	-3914
dis	-3915
évolution	-3916
▁disposi	-3917
▁pa	-3918
▁bonheur	-3919
▁70	-3920
▁surface	-3921
▁Gen	-3922
▁crise	-3923
gés	-3924
ura	-3925
▁Femme	-3926
▁locaux	-3927
hôtel	-3928
▁regarder	-3929
ata	-3930
▁cartes	-3931
▁possède	-3932
▁textes	-3933
▁découverte	-3934
État	-3935
▁naissance	-3936
▁Pourquoi	-3937
▁beauté	-3938
▁perd	-3939
▁bour	-3940
▁organ	-3941
import	-3942
▁goût	-3943
cal	-3944
▁mass	-3945
exc	-3946
▁gratuite	-3947
gner	-3948
gies	-3949
▁relative	-3950
▁Michel	-3951
▁www	-3952
▁travaille	-3953
mation	-3954
▁juri	-3955
▁perte	-3956
▁remb	-3957
ustrie	-3958
▁régulièrement	-3959
▁types	-3960
▁vent	-3961
mont	-3962
impression	-3963
▁inspi	-3964
orté	-3965
▁récu	-3966
▁conception	-3967
rois	-3968
indi	-3969
▁Ni	-3970
▁prati	-3971
tenant	-3972
▁réalisation	-3973
▁music	-3974
▁enseign	-3975
▁étudiants	-3976
▁responsabilité	-3977
issez	-3978
▁fre	-3979
▁command	-3980
▁Phili	-3981
och	-3982
ague	-3983
AD	-3984
▁explique	-3985
▁objectif	-3986
▁historique	-3987
▁ait	-3988
▁194	-3989
cessoires	-3990
▁rob	-3991
▁lour	-3992
▁abord	-3993
▁décl	-3994
▁livraison	-3995
ader	-3996
-0	-3997
▁médias	-3998
**	-3999
▁Ber	-4000
ercice	-4001
itent	-4002
IR	-4003
cule	-4004
▁truc	-4005
ows	-4006
identi	-4007
▁personnage	-4008
▁Ter	-4009
▁CH	-4010
▁international	-4011
▁Che	-4012
▁évent	-4013
▁Ju	-4014
▁endroit	-4015
▁Roy	-4016
▁cru	-4017
▁raisons	-4018
rs	-4019
enture	-4020
▁réel	-4021
ainte	-4022
▁san	-4023
▁garder	-4024
▁sor	-4025
vés	-4026
▁termes	-4027
▁faute	-4028
agog	-4029
▁défaut	-4030
▁fichier	-4031
▁différence	-4032
▁entendu	-4033
ood	-4034
▁cre	-4035
▁appréci	-4036
▁mondiale	-4037
▁Plan	-4038
▁Conc	-4039
▁compt	-4040
▁immédiate	-4041
▁vieux	-4042
▁étab	-4043
▁liens	-4044
actions	-4045
angé	-4046
▁photograph	-4047
▁présentation	-4048
▁lutte	-4049
ilosoph	-4050
▁fonds	-4051
▁quanti	-4052
rages	-4053
▁Rou	-4054
▁mardi	-4055
▁utilisateurs	-4056
▁gross	-4057
70	-4058
crire	-4059
▁courant	-4060
▁conscience	-4061
▁fémin	-4062
▁inte	-4063
autes	-4064
▁bless	-4065
▁distance	-4066
▁soulig	-4067
oto	-4068
▁fini	-4069
▁complète	-4070
chée	-4071
oiles	-4072
magne	-4073
▁Alle	-4074
▁dimen	-4075
▁idéal	-4076
mentation	-4077
▁symb	-4078
urée	-4079
Am	-4080
▁voire	-4081
▁contempor	-4082
hors	-4083
iblioth	-4084
▁bientôt	-4085
▁Vi	-4086
▁police	-4087
inet	-4088
verse	-4089
hésitez	-4090
▁fid	-4091
▁Tour	-4092
▁équip	-4093
▁pois	-4094
▁fête	-4095
▁prépar	-4096
▁with	-4097
omp	-4098
ibilité	-4099
ky	-4100
ives	-4101
16	-4102
▁statut	-4103
▁II	-4104
▁outre	-4105
mart	-4106
gén	-4107
▁Découvrez	-4108
▁municip	-4109
▁dépend	-4110
▁incl	-4111
24	-4112
▁bus	-4113
▁justice	-4114
▁Lyon	-4115
▁Mes	-4116
▁orient	-4117
▁écr	-4118
▁systèmes	-4119
ung	-4120
▁reti	-4121
égét	-4122
▁3.	-4123
▁90	-4124
▁adresse	-4125
▁dessin	-4126
▁décor	-4127
▁Mari	-4128
times	-4129
▁lic	-4130
▁commencé	-4131
espère	-4132
▁sauf	-4133
19	-4134
ren	-4135
▁passionn	-4136
▁touche	-4137
install	-4138
▁banc	-4139
va	-4140
▁2000	-4141
▁fruits	-4142
▁to	-4143
uler	-4144
▁facil	-4145
ball	-4146
▁Ville	-4147
actu	-4148
DF	-4149
▁Sch	-4150
▁Ses	-4151
enses	-4152
ropri	-4153
▁objets	-4154
▁portes	-4155
▁Accueil	-4156
▁montrer	-4157
▁contrô	-4158
▁station	-4159
▁Nouv	-4160
▁Cap	-4161
▁conj	-4162
bon	-4163
▁véhicule	-4164
▁profond	-4165
▁mér	-4166
▁fisc	-4167
▁tandis	-4168
▁favoris	-4169
tures	-4170
▁Dom	-4171
imm	-4172
▁exig	-4173
▁poly	-4174
ilisation	-4175
▁renouv	-4176
▁technologie	-4177
▁do	-4178
▁maîtr	-4179
▁tap	-4180
▁Mi	-4181
▁émo	-4182
▁Google	-4183
▁Christ	-4184
▁eau	-4185
▁vision	-4186
▁complètement	-4187
liquez	-4188
avez	-4189
▁urb	-4190
▁principal	-4191
▁lux	-4192
run	-4193
^^	-4194
▁Cat	-4195
▁tâ	-4196
▁détails	-4197
▁profonde	-4198
▁han	-4199
isl	-4200
aler	-4201
▁conform	-4202
▁méthode	-4203
asser	-4204
tements	-4205
▁kil	-4206
▁payer	-4207
▁logement	-4208
▁preuve	-4209
▁marques	-4210
▁étude	-4211
êtements	-4212
alise	-4213
▁concurr	-4214
▁justif	-4215
uté	-4216
▁annonces	-4217
gar	-4218
▁syndic	-4219
▁retourn	-4220
▁Ste	-4221
▁représente	-4222
▁absolu	-4223
▁devenu	-4224
▁restaurant	-4225
▁dol	-4226
aw	-4227
▁soin	-4228
▁rendu	-4229
▁100%	-4230
▁spectacle	-4231
▁bande	-4232
▁appartement	-4233
▁céré	-4234
▁trib	-4235
▁mam	-4236
▁lignes	-4237
▁Bra	-4238
▁nouvel	-4239
ores	-4240
ilan	-4241
▁lettre	-4242
▁sociétés	-4243
▁mén	-4244
----	-4245
▁quant	-4246
▁paiement	-4247
rog	-4248
▁vra	-4249
▁arriver	-4250
▁erre	-4251
▁riche	-4252
▁médecin	-4253
dia	-4254
▁pouvons	-4255
▁utilisation	-4256
OT	-4257
▁pression	-4258
▁Avant	-4259
▁tre	-4260
▁foot	-4261
▁sérieux	-4262
RA	-4263
▁note	-4264
▁constr	-4265
▁indisp	-4266
heureusement	-4267
▁guide	-4268
▁assure	-4269
▁cos	-4270
opération	-4271
vel	-4272
▁analy	-4273
▁privil	-4274
exist	-4275
▁condition	-4276
▁célèbre	-4277
▁intég	-4278
▁devait	-4279
▁Trans	-4280
▁45	-4281
élo	-4282
▁Commun	-4283
▁patrimoine	-4284
▁TV	-4285
▁Joh	-4286
▁gratuitement	-4287
▁terr	-4288
▁moments	-4289
euse	-4290
▁féd	-4291
hér	-4292
▁faits	-4293
▁carrière	-4294
▁croire	-4295
▁milliards	-4296
▁privé	-4297
moins	-4298
entrer	-4299
▁forces	-4300
quées	-4301
▁lac	-4302
▁objectifs	-4303
rand	-4304
chet	-4305
▁affaires	-4306
oitation	-4307
▁nul	-4308
▁zones	-4309
▁atti	-4310
▁illus	-4311
isode	-4312
idité	-4313
oe	-4314
▁offrir	-4315
utiliser	-4316
deur	-4317
tiles	-4318
ram	-4319
ark	-4320
▁mobile	-4321
▁maisons	-4322
OUR	-4323
éducation	-4324
▁vill	-4325
▁Conf	-4326
onnée	-4327
▁devoir	-4328
▁philosoph	-4329
▁vend	-4330
▁neuf	-4331
▁demandé	-4332
▁fonctions	-4333
▁milliers	-4334
▁Gal	-4335
acte	-4336
énom	-4337
▁végét	-4338
▁Bas	-4339
▁limite	-4340
▁fabri	-4341
▁viens	-4342
▁pierre	-4343
▁évolu	-4344
▁resse	-4345
▁voud	-4346
▁vingt	-4347
22	-4348
▁march	-4349
▁Form	-4350
▁consult	-4351
▁davantage	-4352
▁dimin	-4353
▁froid	-4354
rel	-4355
▁ferme	-4356
▁réserve	-4357
PS	-4358
onneur	-4359
▁2009	-4360
▁bébé	-4361
rét	-4362
.)	-4363
▁Sec	-4364
▁tenu	-4365
▁Cam	-4366
leur	-4367
▁veulent	-4368
▁(€	-4369
▁capable	-4370
▁dois	-4371
▁paix	-4372
▁Grâce	-4373
euros	-4374
▁qual	-4375
ablissement	-4376
▁Voir	-4377
▁Noël	-4378
▁panne	-4379
oue	-4380
més	-4381
▁tient	-4382
vité	-4383
▁contexte	-4384
▁tenir	-4385
ames	-4386
Union	-4387
▁chaleur	-4388
▁Sé	-4389
▁pron	-4390
▁rub	-4391
▁tenue	-4392
iversaire	-4393
▁rasse	-4394
DI	-4395
▁appare	-4396
▁protéger	-4397
▁commentaires	-4398
▁démont	-4399
▁minimum	-4400
▁complé	-4401
▁Facebook	-4402
administration	-4403
inves	-4404
▁débat	-4405
▁américain	-4406
».	-4407
▁croy	-4408
cienne	-4409
▁Télé	-4410
ker	-4411
delà	-4412
▁signe	-4413
crip	-4414
éan	-4415
RI	-4416
▁end	-4417
uner	-4418
▁café	-4419
▁final	-4420
améli	-4421
▁réd	-4422
réal	-4423
pel	-4424
▁tor	-4425
ètes	-4426
dans	-4427
▁cook	-4428
▁intérieur	-4429
▁aspect	-4430
keting	-4431
▁terrasse	-4432
▁0,	-4433
érable	-4434
▁ant	-4435
▁apprendre	-4436
arn	-4437
▁dollar	-4438
▁air	-4439
▁Mat	-4440
ateau	-4441
itter	-4442
▁Page	-4443
▁prises	-4444
▁meilleures	-4445
▁altern	-4446
▁cuir	-4447
▁visiter	-4448
▁Prix	-4449
▁Chine	-4450
▁apporter	-4451
▁revenir	-4452
▁prévu	-4453
▁Inter	-4454
▁servir	-4455
unis	-4456
▁IN	-4457
mn	-4458
▁métal	-4459
cipl	-4460
▁durable	-4461
▁tableau	-4462
▁hom	-4463
économie	-4464
entiss	-4465
17	-4466
jou	-4467
▁Cer	-4468
▁Imp	-4469
isée	-4470
▁finale	-4471
▁amp	-4472
▁recru	-4473
▁roy	-4474
▁participation	-4475
▁Fer	-4476
we	-4477
▁Main	-4478
▁rêve	-4479
▁métier	-4480
ignements	-4481
▁vaut	-4482
veaux	-4483
▁exer	-4484
▁solid	-4485
ôte	-4486
▁indispens	-4487
▁compren	-4488
▁diverses	-4489
étro	-4490
▁quasi	-4491
▁magasin	-4492
uelles	-4493
▁Suisse	-4494
▁coût	-4495
▁exam	-4496
pital	-4497
ial	-4498
rêts	-4499
▁PS	-4500
▁Dav	-4501
▁bouche	-4502
arc	-4503
▁Louis	-4504
▁passant	-4505
▁pau	-4506
▁dér	-4507
▁coin	-4508
▁Sam	-4509
▁culturel	-4510
gues	-4511
▁heureux	-4512
old	-4513
▁préparation	-4514
▁stratégie	-4515
▁inten	-4516
▁recherches	-4517
Il	-4518
glise	-4519
▁ja	-4520
oubli	-4521
▁moitié	-4522
▁joueur	-4523
▁communes	-4524
▁Bi	-4525
olesc	-4526
asc	-4527
▁Président	-4528
▁coupe	-4529
ésus	-4530
▁située	-4531
▁Pays	-4532
▁sinon	-4533
réh	-4534
tiens	-4535
huile	-4536
aimer	-4537
▁Fond	-4538
▁concert	-4539
▁Pos	-4540
▁boul	-4541
raine	-4542
▁amour	-4543
▁Port	-4544
▁siège	-4545
▁entier	-4546
oz	-4547
timis	-4548
ick	-4549
ustra	-4550
▁beaux	-4551
▁fit	-4552
▁Société	-4553
▁contribu	-4554
ube	-4555
▁garantie	-4556
mais	-4557
lan	-4558
ATION	-4559
▁artistes	-4560
▁évidemment	-4561
-201	-4562
ctionn	-4563
tisme	-4564
▁prê	-4565
▁ciel	-4566
▁300	-4567
ranger	-4568
cemment	-4569
▁viennent	-4570
▁pous	-4571
▁indépend	-4572
▁annoncé	-4573
quette	-4574
▁liés	-4575
▁mand	-4576
cha	-4577
▁mu	-4578
▁diz	-4579
▁mélange	-4580
▁bac	-4581
umé	-4582
offre	-4583
range	-4584
▁scén	-4585
olas	-4586
▁rac	-4587
ancien	-4588
▁morce	-4589
aude	-4590
▁réduire	-4591
▁assurer	-4592
reur	-4593
▁chin	-4594
ataire	-4595
▁privée	-4596
▁température	-4597
▁humaine	-4598
45	-4599
ET	-4600
ortement	-4601
▁ouverte	-4602
enseignement	-4603
oyage	-4604
▁boutique	-4605
▁crit	-4606
Ph	-4607
▁chant	-4608
▁bio	-4609
▁futur	-4610
▁Super	-4611
seille	-4612
sons	-4613
▁accompagn	-4614
accomp	-4615
▁passion	-4616
▁ang	-4617
▁commentaire	-4618
▁interven	-4619
dicap	-4620
▁sociales	-4621
oquer	-4622
univers	-4623
▁conver	-4624
▁sujets	-4625
▁cath	-4626
▁plat	-4627
assin	-4628
▁proches	-4629
▁Dis	-4630
tro	-4631
▁tiers	-4632
▁scolaire	-4633
▁XV	-4634
orie	-4635
lexe	-4636
xion	-4637
▁dig	-4638
▁pédagog	-4639
▁supérieur	-4640
▁précise	-4641
ourir	-4642
▁bre	-4643
▁forcément	-4644
dom	-4645
▁faudra	-4646
où	-4647
▁local	-4648
▁certainement	-4649
▁discours	-4650
▁frère	-4651
tible	-4652
▁intéressant	-4653
érant	-4654
▁kilom	-4655
olique	-4656
▁doig	-4657
unité	-4658
▁patients	-4659
▁âge	-4660
▁reb	-4661
▁journal	-4662
▁essayer	-4663
▁programmes	-4664
▁bâtiment	-4665
▁extrême	-4666
▁Mor	-4667
ilibre	-4668
▁Jésus	-4669
▁fleurs	-4670
objectif	-4671
▁Rec	-4672
▁délai	-4673
▁Seu	-4674
outes	-4675
▁législ	-4676
▁consulter	-4677
élect	-4678
▁décid	-4679
PE	-4680
piration	-4681
▁musul	-4682
▁motiv	-4683
informations	-4684
▁prim	-4685
▁victoire	-4686
rat	-4687
▁coqu	-4688
▁vérité	-4689
▁témoign	-4690
▁budget	-4691
▁connaissances	-4692
▁fron	-4693
▁convain	-4694
▁lancer	-4695
▁ministère	-4696
▁195	-4697
OC	-4698
▁he	-4699
aign	-4700
▁lait	-4701
dir	-4702
▁Esp	-4703
▁som	-4704
▁phénom	-4705
ley	-4706
lise	-4707
agée	-4708
▁puisqu	-4709
▁salariés	-4710
illi	-4711
▁concept	-4712
▁serr	-4713
ômes	-4714
imag	-4715
▁ET	-4716
ouche	-4717
▁allait	-4718
▁grosse	-4719
ca	-4720
arrivée	-4721
▁ray	-4722
▁ital	-4723
▁sourire	-4724
▁principalement	-4725
▁confl	-4726
▁mens	-4727
▁tranqu	-4728
▁discussi	-4729
▁Pal	-4730
rets	-4731
▁roi	-4732
▁3,	-4733
orisation	-4734
bi	-4735
onf	-4736
▁recette	-4737
aluation	-4738
yp	-4739
▁condam	-4740
▁arrière	-4741
▁hier	-4742
▁soumis	-4743
▁crédit	-4744
▁offres	-4745
▁Chris	-4746
▁plans	-4747
▁Moi	-4748
▁tôt	-4749
▁humain	-4750
▁2008	-4751
▁dehors	-4752
▁scientifique	-4753
analyse	-4754
▁information	-4755
▁partenaire	-4756
▁merveille	-4757
AF	-4758
▁critique	-4759
onte	-4760
▁rap	-4761
/2	-4762
▁préparer	-4763
▁géné	-4764
▁Cha	-4765
▁EN	-4766
▁pom	-4767
aitre	-4768
▁attra	-4769
▁Stuks	-4770
▁oublier	-4771
▁juge	-4772
▁domin	-4773
▁Cuis	-4774
▁rig	-4775
igneur	-4776
▁Aff	-4777
rès	-4778
▁européen	-4779
avenir	-4780
▁déclaré	-4781
▁particuliers	-4782
olat	-4783
èche	-4784
mine	-4785
SS	-4786
▁démarche	-4787
▁événements	-4788
till	-4789
tienne	-4790
▁regr	-4791
▁théâtre	-4792
▁discu	-4793
▁Del	-4794
sif	-4795
agnes	-4796
▁propriétaire	-4797
▁^^	-4798
▁améliorer	-4799
▁favor	-4800
▁And	-4801
bourg	-4802
▁Fre	-4803
▁Certains	-4804
▁emploi	-4805
▁enregist	-4806
▁lyc	-4807
rid	-4808
▁construire	-4809
▁Belgique	-4810
▁spécifique	-4811
▁japon	-4812
▁fabrication	-4813
▁mises	-4814
▁difficultés	-4815
▁chré	-4816
onique	-4817
▁chim	-4818
osph	-4819
▁décis	-4820
émie	-4821
▁fréqu	-4822
▁mini	-4823
pris	-4824
▁fournir	-4825
▁occasion	-4826
ographique	-4827
▁Journ	-4828
▁attendre	-4829
indows	-4830
▁impossible	-4831
▁Sc	-4832
▁lance	-4833
▁sentiment	-4834
▁Philippe	-4835
iennes	-4836
olume	-4837
▁sépar	-4838
▁revient	-4839
▁He	-4840
▁extéri	-4841
▁Ban	-4842
▁présenté	-4843
▁Wi	-4844
▁Champ	-4845
ario	-4846
▁profil	-4847
::	-4848
▁fonctionne	-4849
▁véhicules	-4850
by	-4851
▁surprise	-4852
esti	-4853
▁lar	-4854
4)	-4855
▁influ	-4856
autant	-4857
lée	-4858
▁radio	-4859
▁pensée	-4860
▁section	-4861
▁coul	-4862
▁chev	-4863
▁entour	-4864
▁toutefois	-4865
▁performance	-4866
▁réflé	-4867
▁réduction	-4868
▁instant	-4869
▁Vis	-4870
sive	-4871
œuvre	-4872
▁voulu	-4873
ault	-4874
▁telles	-4875
auff	-4876
▁Monsieur	-4877
▁anciens	-4878
▁pourront	-4879
▁éd	-4880
▁célé	-4881
▁niveaux	-4882
▁rejoindre	-4883
entissage	-4884
▁maître	-4885
▁rent	-4886
▁constitue	-4887
▁largement	-4888
▁Voilà	-4889
▁PC	-4890
▁signifie	-4891
▁tar	-4892
▁er	-4893
▁chaîne	-4894
▁biens	-4895
emple	-4896
entielle	-4897
-3	-4898
▁basse	-4899
èces	-4900
▁festival	-4901
▁gérer	-4902
▁écoles	-4903
▁contient	-4904
▁alli	-4905
vo	-4906
▁décoration	-4907
▁foi	-4908
▁étape	-4909
▁absolument	-4910
rimé	-4911
▁électronique	-4912
▁bénéficier	-4913
▁Mod	-4914
!!!	-4915
▁pouvant	-4916
▁enj	-4917
▁36	-4918
Université	-4919
▁cookies	-4920
▁ordinateur	-4921
ourse	-4922
▁Ins	-4923
licité	-4924
Ass	-4925
▁bro	-4926
▁organisation	-4927
▁pouss	-4928
▁esprit	-4929
occup	-4930
▁dollars	-4931
▁ara	-4932
▁fallait	-4933
▁As	-4934
▁mani	-4935
▁domaines	-4936
▁lis	-4937
ordeaux	-4938
▁John	-4939
▁rythme	-4940
meub	-4941
go	-4942
agers	-4943
▁sucre	-4944
her	-4945
aises	-4946
▁chien	-4947
anie	-4948
▁adress	-4949
▁immédiatement	-4950
▁sept	-4951
orge	-4952
▁Terre	-4953
▁téléph	-4954
ws	-4955
lève	-4956
▁Montréal	-4957
▁Rom	-4958
▁pâ	-4959
▁Har	-4960
llectu	-4961
▁75	-4962
▁résidence	-4963
▁aurez	-4964
arer	-4965
▁Ang	-4966
illez	-4967
▁Tech	-4968
dex	-4969
,...	-4970
stru	-4971
▁probablement	-4972
IM	-4973
▁ball	-4974
▁clé	-4975
▁by	-4976
▁modifier	-4977
installation	-4978
agent	-4979
▁présents	-4980
▁Off	-4981
▁Petit	-4982
istique	-4983
ection	-4984
▁dispositions	-4985
▁surv	-4986
enter	-4987
▁art	-4988
▁4.	-4989
▁économiques	-4990
tise	-4991
▁mondial	-4992
▁proposé	-4993
▁places	-4994
oriz	-4995
bit	-4996
▁..	-4997
▁concent	-4998
▁Grande	-4999
otel	-5000
▁école	-5001
▁conseiller	-5002
avons	-5003
assurance	-5004
▁conférence	-5005
gi	-5006
obile	-5007
▁susp	-5008
atin	-5009
▁Commission	-5010
▁capitale	-5011
▁chasse	-5012
▁....	-5013
▁littéra	-5014
▁Fab	-5015
▁Parti	-5016
▁collabor	-5017
▁circu	-5018
▁Ro	-5019
▁autorités	-5020
roph	-5021
▁ru	-5022
▁convient	-5023
ilis	-5024
▁finir	-5025
▁Juli	-5026
EC	-5027
onses	-5028
▁associations	-5029
▁réglement	-5030
▁récemment	-5031
▁fu	-5032
▁élevé	-5033
urgence	-5034
▁totale	-5035
▁distin	-5036
▁régions	-5037
intes	-5038
▁blanche	-5039
▁Chambre	-5040
▁|--	-5041
écran	-5042
▁rang	-5043
▁afric	-5044
▁gri	-5045
▁Lu	-5046
ification	-5047
rine	-5048
ray	-5049
▁publication	-5050
▁capital	-5051
▁don	-5052
75	-5053
▁Res	-5054
▁handicap	-5055
▁Fait	-5056
▁indic	-5057
▁Pendant	-5058
▁jolie	-5059
bert	-5060
roir	-5061
fic	-5062
▁dispos	-5063
▁Actu	-5064
rén	-5065
▁principaux	-5066
▁Mme	-5067
▁matériaux	-5068
▁professeur	-5069
▁remont	-5070
▁noter	-5071
▁affec	-5072
cte	-5073
▁adultes	-5074
▁avanc	-5075
talie	-5076
pin	-5077
ricité	-5078
inique	-5079
▁ém	-5080
net	-5081
oile	-5082
▁Pi	-5083
▁réunion	-5084
▁pêche	-5085
▁parole	-5086
▁espaces	-5087
▁technologies	-5088
dra	-5089
▁fournisse	-5090
Is	-5091
▁militaire	-5092
▁sert	-5093
▁occu	-5094
▁portée	-5095
▁circons	-5096
▁logique	-5097
▁fondament	-5098
▁dynamique	-5099
▁réflexion	-5100
▁franco	-5101
▁privilég	-5102
yst	-5103
▁tomber	-5104
▁porno	-5105
ms	-5106
▁impres	-5107
▁moindre	-5108
▁<	-5109
illant	-5110
▁coups	-5111
EM	-5112
ocu	-5113
▁partis	-5114
SI	-5115
veillance	-5116
aye	-5117
auf	-5118
▁utile	-5119
▁applications	-5120
▁Dès	-5121
▁collaboration	-5122
adore	-5123
laire	-5124
▁comportement	-5125
▁réception	-5126
▁ajou	-5127
▁archite	-5128
aissent	-5129
oly	-5130
▁boule	-5131
▁établissements	-5132
industrie	-5133
▁côtés	-5134
▁comporte	-5135
▁personnelles	-5136
▁rappelle	-5137
UN	-5138
▁pourraient	-5139
▁époque	-5140
▁phase	-5141
pit	-5142
établissement	-5143
▁rand	-5144
ommage	-5145
tream	-5146
▁exac	-5147
▁Cli	-5148
matiques	-5149
▁bloc	-5150
▁association	-5151
ival	-5152
chiers	-5153
Lire	-5154
▁diver	-5155
▁écran	-5156
érale	-5157
ester	-5158
▁Peut	-5159
▁Jacques	-5160
▁règle	-5161
▁lende	-5162
▁tenter	-5163
▁accessoires	-5164
▁comptes	-5165
apé	-5166
▁intellig	-5167
▁entrée	-5168
▁organisé	-5169
▁messages	-5170
▁32	-5171
▁mail	-5172
▁demain	-5173
▁décide	-5174
▁financement	-5175
▁suivante	-5176
▁vêtements	-5177
▁Lun	-5178
pas	-5179
▁pen	-5180
gées	-5181
▁composé	-5182
▁Cro	-5183
▁titres	-5184
▁multiples	-5185
▁Toul	-5186
▁Gl	-5187
▁arm	-5188
▁robe	-5189
iés	-5190
▁reten	-5191
▁déch	-5192
▁humains	-5193
▁déje	-5194
aurais	-5195
▁joie	-5196
▁devis	-5197
▁massi	-5198
▁rose	-5199
▁diab	-5200
▁Japon	-5201
▁ceci	-5202
▁musée	-5203
▁fame	-5204
▁répé	-5205
▁cadeau	-5206
▁séance	-5207
▁(5	-5208
▁atten	-5209
▁figure	-5210
ériques	-5211
osité	-5212
▁vérifier	-5213
ologue	-5214
▁gentil	-5215
ider	-5216
▁élément	-5217
▁dispositif	-5218
irl	-5219
▁plantes	-5220
▁racont	-5221
▁vraie	-5222
▁principale	-5223
ussie	-5224
▁entend	-5225
uellement	-5226
▁candidat	-5227
han	-5228
▁jeunesse	-5229
▁longueur	-5230
▁mou	-5231
▁fichiers	-5232
▁violence	-5233
▁utilisant	-5234
▁Bern	-5235
▁approche	-5236
▁dange	-5237
▁énergé	-5238
▁Av	-5239
▁pharm	-5240
attend	-5241
▁règlement	-5242
ave	-5243
▁victimes	-5244
▁pont	-5245
retagne	-5246
▁Art	-5247
▁(19	-5248
▁complexe	-5249
igu	-5250
istant	-5251
▁vouloir	-5252
▁Ah	-5253
ju	-5254
▁populaire	-5255
▁remise	-5256
▁envis	-5257
▁rapports	-5258
▁Stra	-5259
▁mine	-5260
▁Alex	-5261
▁sources	-5262
AB	-5263
iale	-5264
▁agric	-5265
ull	-5266
contre	-5267
cm	-5268
▁portant	-5269
▁conseill	-5270
duits	-5271
▁intro	-5272
▁ral	-5273
▁amen	-5274
▁allemand	-5275
ami	-5276
▁Nicolas	-5277
▁vivant	-5278
▁cheval	-5279
veurs	-5280
▁spir	-5281
▁volume	-5282
ouvrir	-5283
oirs	-5284
▁trés	-5285
▁changements	-5286
▁quantité	-5287
▁inféri	-5288
▁Parce	-5289
▁cité	-5290
▁appelé	-5291
ope	-5292
▁lesquels	-5293
▁lendemain	-5294
▁montagne	-5295
▁refus	-5296
▁mig	-5297
▁meuble	-5298
Afrique	-5299
rich	-5300
▁excellent	-5301
extérieur	-5302
diction	-5303
▁Forum	-5304
▁opérations	-5305
▁pros	-5306
▁atteint	-5307
.000	-5308
▁param	-5309
isez	-5310
▁David	-5311
▁génération	-5312
▁élections	-5313
▁traite	-5314
▁Mic	-5315
yez	-5316
érir	-5317
▁innov	-5318
cé	-5319
▁sug	-5320
can	-5321
▁responsables	-5322
▁pla	-5323
▁élég	-5324
▁voulait	-5325
ieur	-5326
▁tab	-5327
oton	-5328
apitre	-5329
▁Monde	-5330
▁os	-5331
▁célibataires	-5332
▁2007	-5333
umer	-5334
▁baisse	-5335
▁naturelle	-5336
▁expériment	-5337
▁lettres	-5338
▁simples	-5339
▁roul	-5340
▁déco	-5341
▁conserv	-5342
▁masse	-5343
▁partenariat	-5344
▁pur	-5345
ibliothèque	-5346
anité	-5347
▁aband	-5348
êcher	-5349
▁atteindre	-5350
eth	-5351
utilisateur	-5352
▁intérêt	-5353
▁150	-5354
▁Fil	-5355
apes	-5356
mbler	-5357
▁procédure	-5358
agnos	-5359
occu	-5360
oiff	-5361
▁repos	-5362
▁conven	-5363
▁informatique	-5364
▁incont	-5365
▁Ensuite	-5366
affaires	-5367
ycl	-5368
chez	-5369
▁kilomètres	-5370
arr	-5371
▁ajouter	-5372
▁quali	-5373
▁bais	-5374
ive	-5375
▁virtu	-5376
▁encour	-5377
▁confortable	-5378
▁nat	-5379
▁Peti	-5380
▁centrale	-5381
dement	-5382
▁VI	-5383
▁câ	-5384
▁revanche	-5385
▁obligatoire	-5386
▁Cuisine	-5387
▁auteurs	-5388
▁pé	-5389
gements	-5390
▁utilisés	-5391
▁marchand	-5392
▁DU	-5393
▁pire	-5394
▁has	-5395
▁vote	-5396
inaires	-5397
▁secret	-5398
▁Martin	-5399
▁retraite	-5400
▁Vol	-5401
▁occup	-5402
ii	-5403
▁radi	-5404
▁fus	-5405
▁réponses	-5406
26	-5407
2)	-5408
▁seuls	-5409
▁Em	-5410
▁observ	-5411
utri	-5412
▁salles	-5413
▁fan	-5414
tionnaire	-5415
▁clairement	-5416
▁mauvaise	-5417
▁plateforme	-5418
▁Pat	-5419
▁charme	-5420
▁appareil	-5421
▁vélo	-5422
▁exécu	-5423
OP	-5424
▁identi	-5425
stitut	-5426
▁Pourtant	-5427
allé	-5428
▁gris	-5429
▁noire	-5430
▁saint	-5431
siers	-5432
▁Bref	-5433
▁bu	-5434
▁intellectu	-5435
▁sympa	-5436
▁souten	-5437
fice	-5438
aments	-5439
orn	-5440
▁Lond	-5441
▁lancé	-5442
ositions	-5443
▁allons	-5444
truction	-5445
▁prestations	-5446
▁analyse	-5447
midi	-5448
▁espé	-5449
tons	-5450
mière	-5451
ty	-5452
▁destination	-5453
▁monter	-5454
▁Situ	-5455
gy	-5456
gence	-5457
▁chaussures	-5458
▁demeure	-5459
▁conséquences	-5460
▁judi	-5461
▁énergie	-5462
▁préal	-5463
aris	-5464
▁perspec	-5465
▁consiste	-5466
▁Cher	-5467
▁visiteurs	-5468
AI	-5469
▁arrivé	-5470
▁Sex	-5471
▁2018,	-5472
▁profit	-5473
▁participants	-5474
▁dr	-5475
inée	-5476
▁rare	-5477
▁veille	-5478
▁télévision	-5479
assé	-5480
▁Service	-5481
▁faux	-5482
absence	-5483
▁prol	-5484
▁parfaite	-5485
accep	-5486
▁far	-5487
▁aimé	-5488
exploitation	-5489
▁légèrement	-5490
▁rond	-5491
▁américaine	-5492
▁méthodes	-5493
ribuer	-5494
],	-5495
▁grave	-5496
▁Dr	-5497
▁méd	-5498
ires	-5499
▁pauvre	-5500
▁sciences	-5501
▁remettre	-5502
▁ps	-5503
▁cellu	-5504
▁distribution	-5505
▁transpar	-5506
▁classement	-5507
ourt	-5508
▁hyp	-5509
▁ventes	-5510
ieuse	-5511
▁config	-5512
avis	-5513
▁Ali	-5514
▁smart	-5515
▁marchés	-5516
▁château	-5517
ja	-5518
▁sympath	-5519
▁Nouvelle	-5520
exposition	-5521
▁33	-5522
▁légère	-5523
▁Sous	-5524
▁Table	-5525
allée	-5526
lige	-5527
▁intégra	-5528
égal	-5529
▁contrain	-5530
▁réserv	-5531
▁succes	-5532
instant	-5533
▁résistance	-5534
nis	-5535
▁négoci	-5536
Ou	-5537
ulle	-5538
▁Recher	-5539
ete	-5540
uves	-5541
▁plastique	-5542
ssemblée	-5543
appro	-5544
xes	-5545
cou	-5546
▁gay	-5547
intégra	-5548
tig	-5549
rairement	-5550
▁supérieure	-5551
▁normal	-5552
▁net	-5553
▁réellement	-5554
▁correc	-5555
▁venu	-5556
▁fati	-5557
▁notes	-5558
▁Maroc	-5559
▁arrivée	-5560
▁compét	-5561
▁proven	-5562
▁Ed	-5563
▁Gre	-5564
▁spiritu	-5565
atoires	-5566
▁accessible	-5567
environ	-5568
▁superbe	-5569
sé	-5570
▁meme	-5571
▁planète	-5572
▁citoyens	-5573
▁auto	-5574
onction	-5575
▁renouvel	-5576
oft	-5577
▁Mas	-5578
don	-5579
▁conç	-5580
▁recettes	-5581
▁savez	-5582
bo	-5583
oqué	-5584
uide	-5585
▁commission	-5586
hiver	-5587
clam	-5588
ogne	-5589
▁Air	-5590
▁therm	-5591
▁télécharger	-5592
lec	-5593
sc	-5594
▁débar	-5595
▁dure	-5596
▁morts	-5597
initi	-5598
▁enregistre	-5599
▁deven	-5600
▁avions	-5601
autom	-5602
▁doux	-5603
▁argent	-5604
écri	-5605
▁central	-5606
entretien	-5607
▁chargé	-5608
honneur	-5609
▁forêt	-5610
▁publiques	-5611
▁https	-5612
agnement	-5613
▁Auc	-5614
▁voitures	-5615
▁proposons	-5616
▁CD	-5617
igueur	-5618
mêmes	-5619
▁crème	-5620
▁ancienne	-5621
br	-5622
rac	-5623
▁chocolat	-5624
ga	-5625
▁inqui	-5626
▁reprendre	-5627
tiver	-5628
▁interpré	-5629
olf	-5630
▁Vidé	-5631
▁frapp	-5632
andre	-5633
dy	-5634
QUE	-5635
armée	-5636
▁devra	-5637
▁critères	-5638
ola	-5639
▁All	-5640
▁Russie	-5641
duis	-5642
ationale	-5643
▁eaux	-5644
▁sentir	-5645
▁secondes	-5646
▁Thé	-5647
▁Windows	-5648
fiée	-5649
rétaire	-5650
annonce	-5651
ectu	-5652
▁Groupe	-5653
▁faveur	-5654
▁fleur	-5655
▁précédent	-5656
acé	-5657
▁effectivement	-5658
opéra	-5659
▁respecter	-5660
▁éli	-5661
▁anniversaire	-5662
rime	-5663
quettes	-5664
...).	-5665
azine	-5666
pre	-5667
▁Bal	-5668
▁Dim	-5669
▁Salle	-5670
▁recours	-5671
▁vigueur	-5672
▁Afin	-5673
▁modes	-5674
▁fins	-5675
▁banque	-5676
avance	-5677
▁2018.	-5678
▁colon	-5679
▁retard	-5680
▁Tou	-5681
chées	-5682
▁Quelques	-5683
France	-5684
▁danse	-5685
▁Dem	-5686
▁marketing	-5687
arrê	-5688
ayer	-5689
▁scientifiques	-5690
▁bén	-5691
▁restent	-5692
▁réussite	-5693
▁délic	-5694
▁adapté	-5695
witter	-5696
▁incroy	-5697
▁hi	-5698
▁(1)	-5699
▁compati	-5700
▁quotidienne	-5701
▁découvert	-5702
aider	-5703
21	-5704
▁Charles	-5705
orth	-5706
▁connexion	-5707
mpe	-5708
oriques	-5709
usage	-5710
▁Marseille	-5711
▁options	-5712
▁ast	-5713
ouveau	-5714
IV	-5715
▁régl	-5716
▁noms	-5717
▁Afrique	-5718
▁Cou	-5719
▁financière	-5720
▁tombe	-5721
▁suit	-5722
▁from	-5723
▁principales	-5724
▁jet	-5725
28	-5726
▁goû	-5727
▁synth	-5728
vait	-5729
uxelles	-5730
▁achet	-5731
▁Code	-5732
▁front	-5733
▁brû	-5734
▁envers	-5735
▁Description	-5736
faire	-5737
▁voulais	-5738
▁tarifs	-5739
▁statis	-5740
▁chiffres	-5741
▁peint	-5742
iteurs	-5743
▁suivantes	-5744
▁apporte	-5745
entraî	-5746
▁douche	-5747
▁2017,	-5748
▁Bo	-5749
▁candidats	-5750
▁promotion	-5751
existence	-5752
▁performances	-5753
éroport	-5754
▁tente	-5755
▁simil	-5756
▁DES	-5757
▁bis	-5758
iz	-5759
▁formations	-5760
ott	-5761
écriture	-5762
▁achat	-5763
jus	-5764
▁revenus	-5765
▁193	-5766
▁fortement	-5767
▁indiqué	-5768
▁enne	-5769
▁avantages	-5770
▁équipements	-5771
importance	-5772
assurer	-5773
▁serez	-5774
▁meur	-5775
entique	-5776
▁pure	-5777
unal	-5778
▁chauffage	-5779
utation	-5780
registre	-5781
▁actuelle	-5782
riez	-5783
▁ultra	-5784
▁intérêts	-5785
▁jui	-5786
▁assi	-5787
▁lecteur	-5788
▁Vill	-5789
▁Club	-5790
▁défi	-5791
▁situations	-5792
Ad	-5793
▁Malgré	-5794
▁difficulté	-5795
▁spécialiste	-5796
▁locale	-5797
▁conduite	-5798
6)	-5799
▁dérou	-5800
▁couverture	-5801
▁printemps	-5802
cieuse	-5803
▁sommet	-5804
itées	-5805
▁commercial	-5806
▁Noir	-5807
▁douleur	-5808
▁Op	-5809
27	-5810
cool	-5811
▁revenu	-5812
tian	-5813
▁regret	-5814
▁tabl	-5815
▁interne	-5816
moi	-5817
▁établissement	-5818
▁progressi	-5819
▁Comm	-5820
▁normes	-5821
▁importants	-5822
ings	-5823
▁chiffre	-5824
▁bouton	-5825
dier	-5826
▁mentionn	-5827
▁demandes	-5828
auc	-5829
▁curi	-5830
▁mouvements	-5831
▁indispensable	-5832
▁ber	-5833
▁sold	-5834
▁poign	-5835
▁frag	-5836
▁appelle	-5837
▁exactement	-5838
oeu	-5839
▁écrire	-5840
▁rat	-5841
▁centres	-5842
▁combien	-5843
évé	-5844
affaire	-5845
▁tissu	-5846
trait	-5847
issait	-5848
▁événement	-5849
▁Tur	-5850
▁Mé	-5851
▁Her	-5852
▁pel	-5853
nés	-5854
▁porté	-5855
▁étoiles	-5856
▁spécifiques	-5857
vain	-5858
▁danger	-5859
▁discipl	-5860
ignon	-5861
line	-5862
▁boîte	-5863
▁bilan	-5864
own	-5865
effet	-5866
IG	-5867
▁usage	-5868
▁parfum	-5869
▁disque	-5870
▁York	-5871
▁chanson	-5872
ight	-5873
riers	-5874
meture	-5875
▁carb	-5876
▁affaire	-5877
▁laissé	-5878
▁Retr	-5879
▁crée	-5880
▁renv	-5881
▁Marc	-5882
▁corre	-5883
▁Util	-5884
▁rire	-5885
▁rass	-5886
▁déjeuner	-5887
▁effectuer	-5888
▁batterie	-5889
▁enquête	-5890
sibilités	-5891
TS	-5892
▁visible	-5893
▁Quant	-5894
▁connaît	-5895
▁vain	-5896
1)	-5897
▁inscription	-5898
▁Premier	-5899
▁plong	-5900
▁complex	-5901
▁meubles	-5902
otes	-5903
▁Sén	-5904
▁indique	-5905
agir	-5906
▁pointe	-5907
▁original	-5908
▁tres	-5909
▁Présent	-5910
▁48	-5911
▁faciliter	-5912
▁fournit	-5913
▁Parmi	-5914
▁luxe	-5915
▁Cong	-5916
▁prét	-5917
▁Toutefois	-5918
▁sing	-5919
▁4,	-5920
▁remarqu	-5921
vet	-5922
▁Bordeaux	-5923
▁toit	-5924
▁range	-5925
▁officiel	-5926
▁produire	-5927
▁artistique	-5928
▁héber	-5929
inscription	-5930
▁Long	-5931
▁XX	-5932
tur	-5933
▁déclaration	-5934
▁Bois	-5935
expression	-5936
▁extérieur	-5937
attention	-5938
▁appareils	-5939
▁aimer	-5940
▁diagnos	-5941
▁Im	-5942
alisée	-5943
▁requ	-5944
abri	-5945
étaient	-5946
▁Sim	-5947
▁france	-5948
▁prénom	-5949
esses	-5950
▁longues	-5951
issante	-5952
▁dat	-5953
inv	-5954
ora	-5955
▁Vic	-5956
▁distribu	-5957
▁Coupe	-5958
▁feuilles	-5959
▁œuvres	-5960
▁Lo	-5961
▁subst	-5962
▁trouvent	-5963
ataires	-5964
cevoir	-5965
▁fenêtre	-5966
èvres	-5967
▁mille	-5968
▁représentant	-5969
▁hos	-5970
Est	-5971
ématiques	-5972
▁optim	-5973
▁auteur	-5974
▁locales	-5975
lever	-5976
▁Haute	-5977
▁parking	-5978
▁suscep	-5979
▁graphique	-5980
▁bateau	-5981
lim	-5982
ory	-5983
▁400	-5984
▁mété	-5985
titution	-5986
▁chanti	-5987
▁seraient	-5988
▁plaf	-5989
▁lesquelles	-5990
▁sys	-5991
ource	-5992
▁39	-5993
▁faibles	-5994
▁particulière	-5995
▁38	-5996
▁Inst	-5997
▁courage	-5998
▁matern	-5999
▁extrêmement	-6000
rations	-6001
habitude	-6002
▁émis	-6003
▁brut	-6004
▁ouvrage	-6005
oxy	-6006
▁quin	-6007
▁agence	-6008
ésie	-6009
▁Bro	-6010
cent	-6011
uclé	-6012
▁personnalité	-6013
archite	-6014
rase	-6015
▁murs	-6016
▁chaude	-6017
ué	-6018
gon	-6019
▁Anne	-6020
▁34	-6021
neur	-6022
▁suivants	-6023
▁clés	-6024
airage	-6025
▁amoureux	-6026
▁civile	-6027
▁Robert	-6028
▁revue	-6029
▁Trois	-6030
▁gour	-6031
▁Ec	-6032
▁actes	-6033
▁bruit	-6034
35	-6035
▁machines	-6036
▁Dou	-6037
▁invite	-6038
▁investisse	-6039
formes	-6040
▁color	-6041
▁matières	-6042
▁traiter	-6043
On	-6044
▁juridique	-6045
dence	-6046
▁barre	-6047
▁maire	-6048
eue	-6049
▁formulaire	-6050
▁immobilier	-6051
▁collectif	-6052
▁trom	-6053
▁diam	-6054
isses	-6055
écl	-6056
résil	-6057
Ex	-6058
▁tradition	-6059
▁Hen	-6060
▁mention	-6061
▁Rencontres	-6062
▁gagn	-6063
ket	-6064
▁formule	-6065
67	-6066
ld	-6067
▁inscrit	-6068
▁acquis	-6069
œil	-6070
ône	-6071
gérie	-6072
▁renseignements	-6073
▁myth	-6074
▁militaires	-6075
orges	-6076
ft	-6077
▁armes	-6078
▁bains	-6079
IF	-6080
▁justement	-6081
iant	-6082
▁science	-6083
alon	-6084
▁centaines	-6085
▁impressionn	-6086
▁bag	-6087
▁Liv	-6088
▁arr	-6089
adis	-6090
▁utilisée	-6091
▁(4	-6092
ji	-6093
▁changé	-6094
▁hausse	-6095
▁confront	-6096
▁cycle	-6097
lais	-6098
▁jaune	-6099
▁oeuvre	-6100
▁chaleure	-6101
▁franc	-6102
▁acqu	-6103
ondu	-6104
▁ordre	-6105
ham	-6106
étranger	-6107
Au	-6108
▁Ici	-6109
▁sch	-6110
ispon	-6111
▁neige	-6112
▁amén	-6113
fort	-6114
▁possibles	-6115
▁Tri	-6116
▁San	-6117
view	-6118
▁vaste	-6119
estation	-6120
III	-6121
▁rejet	-6122
▁comité	-6123
▁cesse	-6124
▁cherchez	-6125
▁Maur	-6126
▁talent	-6127
▁chinois	-6128
▁combin	-6129
▁pér	-6130
osse	-6131
▁Mai	-6132
''	-6133
▁isol	-6134
▁joué	-6135
agnol	-6136
arre	-6137
▁accueillir	-6138
▁présentes	-6139
▁Haut	-6140
▁Inform	-6141
entin	-6142
8)	-6143
appelle	-6144
conte	-6145
▁hasard	-6146
▁sel	-6147
ottes	-6148
▁léger	-6149
▁Lé	-6150
▁médicaments	-6151
éth	-6152
▁Met	-6153
▁différent	-6154
édération	-6155
rible	-6156
Esp	-6157
▁bref	-6158
tail	-6159
▁diffusion	-6160
▁auront	-6161
▁Tru	-6162
igh	-6163
▁chacune	-6164
ya	-6165
onal	-6166
29	-6167
▁épre	-6168
▁lâ	-6169
ôts	-6170
▁ateliers	-6171
érapie	-6172
usses	-6173
▁Trav	-6174
▁stress	-6175
▁conçu	-6176
arrive	-6177
arme	-6178
▁navigation	-6179
▁parent	-6180
atte	-6181
obtenir	-6182
tiennent	-6183
▁efforts	-6184
▁quitter	-6185
tibles	-6186
▁circulation	-6187
▁appris	-6188
▁sit	-6189
▁Aj	-6190
▁CE	-6191
▁Londres	-6192
▁stage	-6193
seurs	-6194
umeur	-6195
▁attendant	-6196
ionnat	-6197
▁préfé	-6198
RAN	-6199
agence	-6200
▁Celui	-6201
▁agents	-6202
MP	-6203
▁tourner	-6204
▁limites	-6205
▁maintenir	-6206
▁acte	-6207
▁remis	-6208
ita	-6209
▁fiche	-6210
dits	-6211
▁vécu	-6212
ensité	-6213
▁capac	-6214
▁HD	-6215
▁donnent	-6216
▁tests	-6217
▁saur	-6218
▁menu	-6219
ulté	-6220
▁Sol	-6221
▁inconn	-6222
▁compréh	-6223
▁légumes	-6224
chon	-6225
▁supplémentaire	-6226
intern	-6227
▁sexy	-6228
▁possibilités	-6229
▁étapes	-6230
▁2016,	-6231
▁recueil	-6232
raël	-6233
▁rivi	-6234
estes	-6235
▁dessous	-6236
exercice	-6237
▁entendre	-6238
aug	-6239
▁variété	-6240
▁Cent	-6241
▁°	-6242
▁CON	-6243
▁jur	-6244
▁signal	-6245
▁actuel	-6246
▁Bruxelles	-6247
crits	-6248
▁conduit	-6249
▁anne	-6250
▁conclus	-6251
▁CN	-6252
azz	-6253
▁Lux	-6254
▁caméra	-6255
▁labor	-6256
▁obtenu	-6257
vin	-6258
▁asse	-6259
▁définition	-6260
▁prennent	-6261
ll	-6262
▁Luc	-6263
▁tester	-6264
▁affich	-6265
option	-6266
▁Norm	-6267
▁ressenti	-6268
▁proposition	-6269
fer	-6270
▁maladies	-6271
actualité	-6272
▁religion	-6273
▁regarde	-6274
▁stade	-6275
▁originale	-6276
▁compétition	-6277
▁déliv	-6278
▁assur	-6279
▁construit	-6280
▁charges	-6281
iliser	-6282
▁dirigeants	-6283
IX	-6284
▁installation	-6285
▁irré	-6286
▁Santé	-6287
▁mâ	-6288
écoute	-6289
▁manipul	-6290
▁pertin	-6291
▁désir	-6292
▁héros	-6293
▁aper	-6294
mosph	-6295
▁expériences	-6296
▁révél	-6297
hor	-6298
cité	-6299
▁RE	-6300
▁Ceci	-6301
rick	-6302
ordinaire	-6303
▁Quelle	-6304
33	-6305
olie	-6306
▁canadi	-6307
▁nez	-6308
▁maman	-6309
▁tirer	-6310
▁huit	-6311
▁coff	-6312
▁Leur	-6313
icher	-6314
▁potentiel	-6315
ardins	-6316
dus	-6317
▁Aussi	-6318
▁fraî	-6319
illée	-6320
▁faudrait	-6321
▁principes	-6322
▁190	-6323
uni	-6324
icat	-6325
____	-6326
▁Faites	-6327
▁2006	-6328
▁tourisme	-6329
▁accompagner	-6330
▁envoyer	-6331
avier	-6332
▁garçon	-6333
xi	-6334
▁2015,	-6335
55	-6336
▁désign	-6337
lande	-6338
▁pluie	-6339
▁Parc	-6340
mise	-6341
▁attentes	-6342
▁fréquent	-6343
▁Trouver	-6344
▁préféré	-6345
▁rentrée	-6346
▁métro	-6347
▁énergétique	-6348
oudre	-6349
▁ench	-6350
ias	-6351
▁Retrouvez	-6352
ye	-6353
!!!!	-6354
▁furent	-6355
▁expos	-6356
rient	-6357
▁boute	-6358
▁Phot	-6359
▁Région	-6360
église	-6361
▁accro	-6362
IP	-6363
▁Autre	-6364
▁réalisée	-6365
aliers	-6366
ulte	-6367
▁missions	-6368
▁Id	-6369
▁langage	-6370
onnés	-6371
▁ski	-6372
itations	-6373
enis	-6374
treaming	-6375
▁échanges	-6376
▁football	-6377
▁Rien	-6378
enser	-6379
omas	-6380
▁Tag	-6381
▁adolesc	-6382
nez	-6383
▁explo	-6384
pri	-6385
▁ajoute	-6386
ouvoir	-6387
▁recons	-6388
▁malheureusement	-6389
tières	-6390
êtement	-6391
▁alimentaire	-6392
▁vise	-6393
onnant	-6394
études	-6395
▁mec	-6396
▁Vie	-6397
▁soutenir	-6398
ouvre	-6399
anes	-6400
▁modu	-6401
▁personnelle	-6402
CO	-6403
▁lin	-6404
augment	-6405
agés	-6406
▁signes	-6407
hier	-6408
édition	-6409
yle	-6410
artiste	-6411
▁hui	-6412
▁métiers	-6413
▁sable	-6414
........	-6415
▁promen	-6416
▁patron	-6417
née	-6418
mans	-6419
oué	-6420
▁supplémentaires	-6421
AV	-6422
TT	-6423
▁Bur	-6424
▁climat	-6425
▁Kar	-6426
▁mys	-6427
riculture	-6428
▁Design	-6429
▁invités	-6430
roniques	-6431
pertise	-6432
amen	-6433
▁Ble	-6434
▁récit	-6435
MENT	-6436
unn	-6437
▁décisions	-6438
diques	-6439
▁logiciels	-6440
▁monu	-6441
ricole	-6442
▁courte	-6443
:00	-6444
df	-6445
▁apport	-6446
▁option	-6447
▁ign	-6448
▁auxqu	-6449
ulé	-6450
▁pâte	-6451
▁rares	-6452
▁capacités	-6453
▁chercheurs	-6454
▁cav	-6455
▁typ	-6456
▁nécessité	-6457
▁concurrence	-6458
▁Syn	-6459
▁experts	-6460
▁logements	-6461
▁françaises	-6462
▁transfert	-6463
ellent	-6464
▁silence	-6465
▁histoires	-6466
▁ambiance	-6467
▁automatiquement	-6468
78	-6469
▁allant	-6470
▁scul	-6471
▁serveur	-6472
▁signé	-6473
ayant	-6474
▁raconte	-6475
ID	-6476
▁portable	-6477
▁télécharge	-6478
▁langues	-6479
▁territori	-6480
▁judici	-6481
▁Poli	-6482
▁Belle	-6483
yr	-6484
ducteur	-6485
-19	-6486
oyen	-6487
▁devraient	-6488
rome	-6489
tré	-6490
▁commen	-6491
▁plateau	-6492
▁enjeux	-6493
quin	-6494
▁aéri	-6495
▁conserver	-6496
▁expliquer	-6497
▁victime	-6498
▁Rel	-6499
▁tranquille	-6500
▁voyages	-6501
▁III	-6502
ulaires	-6503
▁donnée	-6504
▁dent	-6505
vées	-6506
▁restaurants	-6507
▁5.	-6508
▁coiff	-6509
▁appli	-6510
▁russe	-6511
▁liées	-6512
ene	-6513
▁commandes	-6514
fications	-6515
▁découvre	-6516
▁brit	-6517
▁titu	-6518
▁travailleurs	-6519
▁gout	-6520
▁Der	-6521
▁littérature	-6522
▁Dra	-6523
▁Lab	-6524
identité	-6525
ocat	-6526
appareil	-6527
▁midi	-6528
▁Toulouse	-6529
onyme	-6530
▁rappeler	-6531
▁élab	-6532
▁National	-6533
▁Camp	-6534
▁Laurent	-6535
commun	-6536
▁Porte	-6537
▁rubrique	-6538
▁entrer	-6539
▁pouvoirs	-6540
ercices	-6541
▁classes	-6542
ublic	-6543
ondes	-6544
▁Faire	-6545
rante	-6546
▁etre	-6547
▁souci	-6548
▁Blanc	-6549
tration	-6550
▁ouvrir	-6551
▁toucher	-6552
▁cur	-6553
apprentissage	-6554
pos	-6555
MA	-6556
oigne	-6557
▁dommage	-6558
▁personnels	-6559
▁dialogue	-6560
▁certes	-6561
▁exposition	-6562
▁phénomène	-6563
▁reconnaissance	-6564
▁paroles	-6565
ineux	-6566
▁opération	-6567
▁coté	-6568
berg	-6569
IER	-6570
▁paysage	-6571
exécu	-6572
iness	-6573
▁arrêté	-6574
CC	-6575
▁atelier	-6576
▁parlé	-6577
▁donnant	-6578
▁fixe	-6579
▁musici	-6580
▁Attention	-6581
effic	-6582
▁prison	-6583
▁énorme	-6584
lesse	-6585
▁inclus	-6586
▁Oli	-6587
▁Loire	-6588
▁organisations	-6589
▁PL	-6590
▁Chauss	-6591
▁Comité	-6592
▁Plusieurs	-6593
urier	-6594
uant	-6595
▁var	-6596
▁dédié	-6597
▁nuclé	-6598
▁puissant	-6599
pare	-6600
▁amateurs	-6601
▁Black	-6602
▁55	-6603
aa	-6604
▁Sinon	-6605
▁financiers	-6606
▁déte	-6607
▁Là	-6608
▁piste	-6609
hétique	-6610
▁billet	-6611
▁soud	-6612
▁Van	-6613
édé	-6614
Alle	-6615
▁sensible	-6616
▁propriétaires	-6617
bec	-6618
gué	-6619
rolog	-6620
▁uns	-6621
oï	-6622
▁souvenirs	-6623
▁description	-6624
▁invent	-6625
▁discuter	-6626
▁dorm	-6627
▁rencontré	-6628
▁erreur	-6629
▁audio	-6630
▁maîtrise	-6631
▁rues	-6632
▁toil	-6633
3)	-6634
▁Publié	-6635
▁conviv	-6636
▁proposés	-6637
▁cant	-6638
▁ore	-6639
▁spécial	-6640
vence	-6641
▁applic	-6642
▁Vers	-6643
fiant	-6644
asses	-6645
▁récomp	-6646
▁auquel	-6647
▁échapp	-6648
joux	-6649
▁accéder	-6650
▁Angl	-6651
âme	-6652
▁réparation	-6653
▁You	-6654
MS	-6655
FR	-6656
serve	-6657
▁circuit	-6658
▁Festival	-6659
Assemblée	-6660
▁occident	-6661
▁Catégor	-6662
▁sorties	-6663
las	-6664
▁qualités	-6665
▁participe	-6666
▁envoyé	-6667
▁entretien	-6668
▁réelle	-6669
▁prévention	-6670
▁Bonne	-6671
▁fol	-6672
▁communiquer	-6673
▁préfère	-6674
▁cliquez	-6675
▁acheté	-6676
-4	-6677
ôles	-6678
ouest	-6679
▁moul	-6680
▁prostitu	-6681
▁reprise	-6682
nant	-6683
▁importantes	-6684
▁reli	-6685
▁Dév	-6686
▁catégories	-6687
▁Culture	-6688
▁permanent	-6689
▁Maintenant	-6690
▁contenus	-6691
▁nommé	-6692
▁éduc	-6693
▁Sainte	-6694
▁devenue	-6695
▁espèces	-6696
▁leader	-6697
conque	-6698
▁amie	-6699
dients	-6700
▁Femmes	-6701
▁surveillance	-6702
.»	-6703
▁Salon	-6704
dien	-6705
criptions	-6706
ilib	-6707
65	-6708
▁2014,	-6709
▁humaines	-6710
union	-6711
▁Po	-6712
▁réforme	-6713
▁renforcer	-6714
▁décès	-6715
▁secteurs	-6716
▁actif	-6717
▁q	-6718
uter	-6719
▁aventure	-6720
olue	-6721
▁Max	-6722
▁math	-6723
▁énorm	-6724
mant	-6725
outil	-6726
monie	-6727
écurité	-6728
▁dimension	-6729
▁auth	-6730
▁Rem	-6731
▁contrats	-6732
nique	-6733
▁Vos	-6734
7)	-6735
Ac	-6736
ernes	-6737
fl	-6738
▁accueille	-6739
▁structures	-6740
université	-6741
olis	-6742
▁tac	-6743
tension	-6744
km	-6745
▁artisan	-6746
▁CO	-6747
85	-6748
▁Bretagne	-6749
▁plafond	-6750
▁her	-6751
▁boite	-6752
visions	-6753
▁restauration	-6754
▁spécialement	-6755
▁Ti	-6756
▁mener	-6757
▁coc	-6758
▁chir	-6759
▁tarif	-6760
▁chute	-6761
ater	-6762
▁sauve	-6763
lière	-6764
▁pain	-6765
▁emprun	-6766
chauff	-6767
▁Eff	-6768
prendre	-6769
ena	-6770
▁financier	-6771
▁Seigneur	-6772
▁élus	-6773
éle	-6774
▁65	-6775
▁conséquence	-6776
identif	-6777
anmoins	-6778
orient	-6779
▁:)	-6780
▁retourner	-6781
▁côte	-6782
▁étrangers	-6783
iée	-6784
▁satisfait	-6785
enci	-6786
▁diversité	-6787
▁légiti	-6788
▁stim	-6789
▁email	-6790
▁Article	-6791
▁rembourse	-6792
▁suffisamment	-6793
▁cabinet	-6794
▁Pra	-6795
▁SE	-6796
▁guit	-6797
▁marqué	-6798
▁relatives	-6799
▁bâtiments	-6800
▁bases	-6801
▁adulte	-6802
enfants	-6803
▁Math	-6804
▁admi	-6805
▁exter	-6806
▁mutu	-6807
▁hés	-6808
▁Prin	-6809
▁toile	-6810
▁chante	-6811
▁disent	-6812
▁gare	-6813
▁remplacer	-6814
▁modification	-6815
onor	-6816
▁pétro	-6817
▁consommateurs	-6818
▁établi	-6819
▁réduit	-6820
▁évolution	-6821
hib	-6822
itants	-6823
▁frères	-6824
▁nourriture	-6825
tins	-6826
▁assis	-6827
▁déchets	-6828
▁bataille	-6829
▁dévoil	-6830
▁visites	-6831
▁content	-6832
▁PRO	-6833
▁intitu	-6834
fiés	-6835
eterre	-6836
igner	-6837
▁ST	-6838
annique	-6839
arition	-6840
aies	-6841
▁montage	-6842
iterran	-6843
aujourd	-6844
rastru	-6845
▁reconnu	-6846
▁Recherche	-6847
intervention	-6848
▁Dani	-6849
ney	-6850
fique	-6851
enregistre	-6852
▁intégré	-6853
▁transformation	-6854
▁PDF	-6855
▁employés	-6856
▁plant	-6857
▁Dispon	-6858
▁coucher	-6859
ban	-6860
▁Gratu	-6861
▁révolution	-6862
▁éti	-6863
▁chapitre	-6864
▁terra	-6865
▁PAR	-6866
aph	-6867
endrier	-6868
▁exigences	-6869
▁opport	-6870
▁proposent	-6871
▁néanmoins	-6872
agements	-6873
▁circonst	-6874
▁doigts	-6875
▁5,	-6876
▁douceur	-6877
▁vins	-6878
ST	-6879
▁diffus	-6880
▁engagement	-6881
▁réalise	-6882
▁mac	-6883
▁2005	-6884
▁pensez	-6885
▁consultation	-6886
▁développé	-6887
▁camping	-6888
▁kg	-6889
mie	-6890
▁profondeur	-6891
▁standard	-6892
za	-6893
▁mol	-6894
▁estim	-6895
▁journaliste	-6896
▁coton	-6897
ties	-6898
▁37	-6899
▁plages	-6900
▁convi	-6901
▁entière	-6902
▁voc	-6903
▁intérieure	-6904
▁visant	-6905
érapeu	-6906
ml	-6907
feu	-6908
▁Dés	-6909
mique	-6910
▁ride	-6911
▁destiné	-6912
▁familiale	-6913
▁Ve	-6914
gre	-6915
asseur	-6916
▁conflit	-6917
▁Pic	-6918
oleil	-6919
▁publicité	-6920
▁Sar	-6921
▁Arch	-6922
▁patient	-6923
èques	-6924
▁échange	-6925
▁discussion	-6926
▁nettoyage	-6927
▁beur	-6928
▁déplace	-6929
▁problé	-6930
aimerais	-6931
▁Europé	-6932
▁vul	-6933
▁endroits	-6934
▁magasins	-6935
meuble	-6936
activités	-6937
▁prévue	-6938
▁Ke	-6939
▁solaire	-6940
bilité	-6941
▁Jardin	-6942
▁décrit	-6943
plus	-6944
quait	-6945
tionnels	-6946
▁considéré	-6947
▁mang	-6948
▁vieille	-6949
▁équipée	-6950
lis	-6951
▁appropri	-6952
▁compli	-6953
▁Jeux	-6954
▁fine	-6955
na	-6956
Phone	-6957
▁fans	-6958
▁advers	-6959
▁Chez	-6960
cy	-6961
iler	-6962
▁blan	-6963
ctes	-6964
▁coopération	-6965
▁pic	-6966
▁séd	-6967
▁We	-6968
▁récupérer	-6969
bas	-6970
▁accompagné	-6971
▁lycée	-6972
ake	-6973
▁sentiments	-6974
▁hô	-6975
95	-6976
ouff	-6977
▁émer	-6978
▁Bernard	-6979
SA	-6980
▁naturels	-6981
▁prés	-6982
▁compéti	-6983
col	-6984
évaluation	-6985
comme	-6986
▁optimis	-6987
▁Ligue	-6988
IA	-6989
pers	-6990
▁44	-6991
▁référ	-6992
rants	-6993
veiller	-6994
▁AR	-6995
aurait	-6996
▁coordonnées	-6997
arrêt	-6998
étaire	-6999
▁naturellement	-7000
▁Mc	-7001
▁réussir	-7002
▁réservation	-7003
▁savent	-7004
▁autrement	-7005
▁enseignants	-7006
▁fermeture	-7007
▁transports	-7008
▁diabète	-7009
dou	-7010
▁voil	-7011
positions	-7012
Com	-7013
▁visiteur	-7014
▁récol	-7015
▁électriques	-7016
▁apparaît	-7017
▁hu	-7018
▁gratuits	-7019
▁hyper	-7020
alisés	-7021
espoir	-7022
manuel	-7023
▁développe	-7024
ype	-7025
tification	-7026
▁surf	-7027
essionn	-7028
▁morceaux	-7029
100	-7030
sa	-7031
▁médicament	-7032
▁étage	-7033
▁(0	-7034
▁essentiellement	-7035
▁mit	-7036
▁représentation	-7037
TC	-7038
▁120	-7039
humanité	-7040
▁chefs	-7041
▁incontourn	-7042
▁baign	-7043
tug	-7044
▁européens	-7045
▁Cath	-7046
▁déri	-7047
aventure	-7048
▁cache	-7049
▁ram	-7050
▁précisément	-7051
▁Rich	-7052
▁augmenter	-7053
▁cancer	-7054
▁Meu	-7055
▁Men	-7056
èvre	-7057
▁aspects	-7058
▁conséquent	-7059
▁soyez	-7060
▁déterminer	-7061
ala	-7062
atrième	-7063
fa	-7064
▁Venez	-7065
▁magie	-7066
▁installé	-7067
▁crain	-7068
▁dépenses	-7069
Institut	-7070
▁Jo	-7071
▁pensé	-7072
▁lecteurs	-7073
▁Lin	-7074
▁précision	-7075
▁signature	-7076
endroit	-7077
▁exige	-7078
▁accident	-7079
▁idéale	-7080
▁coûts	-7081
▁remplir	-7082
▁auraient	-7083
▁Allemagne	-7084
▁licence	-7085
▁élimin	-7086
▁portrait	-7087
▁islam	-7088
trer	-7089
▁fasc	-7090
▁exploit	-7091
▁médecine	-7092
▁populations	-7093
uster	-7094
▁reconnaître	-7095
rin	-7096
▁el	-7097
▁phrase	-7098
ômage	-7099
▁médecins	-7100
rob	-7101
▁250	-7102
▁plats	-7103
▁postes	-7104
▁gre	-7105
orée	-7106
UL	-7107
itch	-7108
.....	-7109
▁systé	-7110
▁élector	-7111
%.	-7112
▁prolong	-7113
▁fonctionnalités	-7114
alimentation	-7115
ettez	-7116
▁Développ	-7117
▁allé	-7118
assade	-7119
▁2012,	-7120
▁semblent	-7121
▁appartient	-7122
▁mettant	-7123
▁placé	-7124
▁procès	-7125
▁Encore	-7126
▁courrier	-7127
▁mandat	-7128
RES	-7129
▁escort	-7130
▁tension	-7131
ènement	-7132
▁offert	-7133
▁défendre	-7134
orld	-7135
truire	-7136
▁1000	-7137
▁Mul	-7138
▁arbres	-7139
rég	-7140
▁tourne	-7141
▁cart	-7142
▁institutions	-7143
tue	-7144
émission	-7145
▁indépendant	-7146
tige	-7147
▁prenant	-7148
tell	-7149
▁argu	-7150
▁fêtes	-7151
▁garantir	-7152
▁maroc	-7153
▁Hôtel	-7154
ural	-7155
▁philosophie	-7156
quide	-7157
▁disait	-7158
▁Royaume	-7159
PA	-7160
▁sauver	-7161
▁parall	-7162
▁notion	-7163
▁lancement	-7164
▁classiques	-7165
▁délais	-7166
effectu	-7167
▁champs	-7168
▁connue	-7169
▁Meille	-7170
ciers	-7171
▁tapis	-7172
▁secrétaire	-7173
▁commerciale	-7174
▁poursuivre	-7175
ny	-7176
▁démocratie	-7177
▁situe	-7178
▁Homme	-7179
itions	-7180
▁2017.	-7181
▁propositions	-7182
ica	-7183
34	-7184
▁minute	-7185
éni	-7186
▁Cu	-7187
▁couche	-7188
angle	-7189
▁band	-7190
▁pollu	-7191
chons	-7192
App	-7193
▁collectivités	-7194
années	-7195
▁cerveau	-7196
▁siècles	-7197
▁biais	-7198
▁ence	-7199
illets	-7200
▁représentants	-7201
uste	-7202
▁mettent	-7203
▁studio	-7204
▁rouges	-7205
▁rentrer	-7206
Pierre	-7207
▁pier	-7208
▁semblait	-7209
▁vérit	-7210
▁Reg	-7211
▁installations	-7212
paravant	-7213
▁loisirs	-7214
▁arts	-7215
▁entrepren	-7216
▁facteurs	-7217
▁Rome	-7218
▁troubles	-7219
▁anc	-7220
▁Carte	-7221
▁occas	-7222
▁oise	-7223
▁racc	-7224
demn	-7225
▁relativement	-7226
▁ling	-7227
▁organisée	-7228
▁savait	-7229
▁deb	-7230
▁mê	-7231
inion	-7232
▁Exp	-7233
▁Radi	-7234
▁reçoit	-7235
ries	-7236
▁Côte	-7237
▁conduire	-7238
▁lié	-7239
▁Pol	-7240
▁Vidéo	-7241
lité	-7242
▁harm	-7243
▁look	-7244
▁MA	-7245
chette	-7246
▁Guerre	-7247
▁réaction	-7248
▁ouvre	-7249
rateur	-7250
▁mons	-7251
ressé	-7252
inium	-7253
▁magazine	-7254
▁accepter	-7255
▁soucis	-7256
VD	-7257
▁COM	-7258
▁oppos	-7259
Pro	-7260
erv	-7261
▁Aux	-7262
▁Nouveau	-7263
▁thèmes	-7264
▁2013,	-7265
▁peup	-7266
▁Réf	-7267
▁assurance	-7268
ouleurs	-7269
▁japonais	-7270
▁coûte	-7271
▁préalable	-7272
atures	-7273
agi	-7274
TM	-7275
inage	-7276
▁Bre	-7277
▁fact	-7278
▁franch	-7279
▁intervention	-7280
▁paysages	-7281
Association	-7282
htt	-7283
▁ingén	-7284
▁morte	-7285
▁Macron	-7286
▁effectué	-7287
enquête	-7288
▁dessins	-7289
bien	-7290
▁alg	-7291
jection	-7292
▁International	-7293
▁AU	-7294
▁importe	-7295
▁collège	-7296
rise	-7297
▁Vinc	-7298
▁Log	-7299
▁Beaucoup	-7300
▁essentiel	-7301
▁terres	-7302
▁gê	-7303
▁guer	-7304
tionnelles	-7305
ouette	-7306
▁radic	-7307
uaire	-7308
▁fun	-7309
▁active	-7310
▁venait	-7311
▁spéciale	-7312
ko	-7313
▁venue	-7314
▁convers	-7315
▁Personn	-7316
tait	-7317
▁mérite	-7318
▁revoir	-7319
▁flux	-7320
oyez	-7321
▁déclen	-7322
quisition	-7323
▁Bat	-7324
phones	-7325
istres	-7326
▁lèvres	-7327
▁répert	-7328
▁participé	-7329
▁sympt	-7330
matis	-7331
▁Suite	-7332
▁installer	-7333
▁Note	-7334
▁ur	-7335
▁imprim	-7336
efficacité	-7337
▁->	-7338
ution	-7339
▁dossiers	-7340
tistes	-7341
▁Thomas	-7342
▁sinc	-7343
▁rédi	-7344
▁chansons	-7345
▁astu	-7346
▁rénovation	-7347
endi	-7348
ams	-7349
▁spécialisé	-7350
équilibre	-7351
▁carré	-7352
endue	-7353
▁ben	-7354
▁Hy	-7355
▁pistes	-7356
gin	-7357
▁régional	-7358
▁courses	-7359
▁solidarité	-7360
▁définir	-7361
alie	-7362
▁Fré	-7363
▁offrant	-7364
▁ouverture	-7365
▁Alain	-7366
▁communiqué	-7367
▁maîtres	-7368
▁00	-7369
▁Bri	-7370
▁épisode	-7371
▁massage	-7372
▁cadeaux	-7373
▁perfe	-7374
▁animal	-7375
▁potenti	-7376
▁disting	-7377
▁attribu	-7378
IB	-7379
aisons	-7380
lez	-7381
▁banques	-7382
acie	-7383
▁former	-7384
▁accueill	-7385
ueur	-7386
▁trim	-7387
omét	-7388
▁quête	-7389
▁pleinement	-7390
▁gas	-7391
▁blancs	-7392
▁bancaire	-7393
▁inu	-7394
▁théorie	-7395
▁colère	-7396
▁résolution	-7397
sière	-7398
▁plomb	-7399
▁tuer	-7400
acheter	-7401
Nous	-7402
▁solide	-7403
▁rêves	-7404
vit	-7405
ressions	-7406
▁transformer	-7407
▁fasse	-7408
▁techni	-7409
▁ya	-7410
onnaie	-7411
▁diagnostic	-7412
▁estime	-7413
▁excellente	-7414
▁officielle	-7415
▁rivière	-7416
vue	-7417
▁prestation	-7418
▁Méd	-7419
ITE	-7420
-5	-7421
▁Jeu	-7422
▁Musée	-7423
▁repar	-7424
▁Lim	-7425
▁respi	-7426
mois	-7427
▁prête	-7428
çait	-7429
▁inéd	-7430
▁sportif	-7431
▁mange	-7432
▁religieux	-7433
obilier	-7434
▁nette	-7435
éviter	-7436
▁progrès	-7437
▁bap	-7438
▁associé	-7439
arrière	-7440
▁01	-7441
QU	-7442
ush	-7443
▁Sté	-7444
rices	-7445
▁forfait	-7446
▁avantage	-7447
▁Inf	-7448
▁avent	-7449
cient	-7450
▁internationales	-7451
▁née	-7452
▁nar	-7453
▁viande	-7454
▁rémun	-7455
At	-7456
merce	-7457
uie	-7458
▁séqu	-7459
inés	-7460
▁augmentation	-7461
fices	-7462
▁modalités	-7463
ym	-7464
▁montré	-7465
▁recev	-7466
▁dépos	-7467
▁modern	-7468
▁épis	-7469
▁générales	-7470
▁coach	-7471
échange	-7472
▁incroyable	-7473
rite	-7474
investissement	-7475
▁Heure	-7476
▁équipé	-7477
rète	-7478
.-	-7479
uminium	-7480
▁recommande	-7481
▁déplacement	-7482
pir	-7483
▁cens	-7484
▁bénév	-7485
▁aqu	-7486
▁utilisées	-7487
orb	-7488
oble	-7489
▁composition	-7490
▁spécialistes	-7491
▁scolaires	-7492
▁Lang	-7493
▁ill	-7494
ancienne	-7495
Cl	-7496
▁Star	-7497
annage	-7498
▁détente	-7499
▁tur	-7500
▁Lit	-7501
ruption	-7502
▁dégra	-7503
▁cuisson	-7504
▁émotions	-7505
rables	-7506
▁Ess	-7507
▁écoute	-7508
umul	-7509
hône	-7510
élection	-7511
▁travaillé	-7512
▁rembours	-7513
▁cass	-7514
▁séries	-7515
Et	-7516
inqui	-7517
▁organise	-7518
▁favoriser	-7519
deurs	-7520
▁Program	-7521
▁sensation	-7522
200	-7523
▁statistiques	-7524
électricité	-7525
▁lot	-7526
aule	-7527
vies	-7528
▁AN	-7529
▁nutri	-7530
aper	-7531
▁cellules	-7532
otique	-7533
▁montée	-7534
9)	-7535
▁disant	-7536
CF	-7537
grédients	-7538
▁diss	-7539
médiaire	-7540
istan	-7541
ish	-7542
▁!)	-7543
apport	-7544
ambiance	-7545
▁quartiers	-7546
▁tome	-7547
▁dates	-7548
▁différente	-7549
▁compréhension	-7550
▁pein	-7551
▁séances	-7552
oseph	-7553
▁dangereux	-7554
▁physiques	-7555
▁gratuites	-7556
▁garage	-7557
▁Mos	-7558
droid	-7559
▁modé	-7560
ling	-7561
▁passée	-7562
▁serrure	-7563
autorité	-7564
▁présidentielle	-7565
▁rock	-7566
mpire	-7567
▁essayé	-7568
▁star	-7569
Allemagne	-7570
▁oublié	-7571
▁concl	-7572
▁esti	-7573
orce	-7574
▁SA	-7575
▁clientèle	-7576
▁Madame	-7577
œurs	-7578
▁souffle	-7579
attaque	-7580
▁bibliothèque	-7581
▁considérable	-7582
ismes	-7583
▁600	-7584
▁Ev	-7585
▁Tunis	-7586
exemple	-7587
▁collective	-7588
ureaux	-7589
▁maintien	-7590
euf	-7591
Ouest	-7592
opposition	-7593
▁associés	-7594
kin	-7595
▁rédaction	-7596
▁vivent	-7597
▁spécialisée	-7598
▁bri	-7599
▁révèle	-7600
tines	-7601
oureux	-7602
▁chiens	-7603
▁chômage	-7604
▁Top	-7605
installer	-7606
▁organismes	-7607
▁championnat	-7608
▁laissant	-7609
hésion	-7610
▁gel	-7611
▁Sui	-7612
▁Jack	-7613
▁couvert	-7614
▁parlement	-7615
▁suisse	-7616
▁culturelle	-7617
▁poche	-7618
▁mix	-7619
▁Brun	-7620
▁musulman	-7621
▁jambes	-7622
▁offrent	-7623
quo	-7624
adémie	-7625
▁dimensions	-7626
▁mobilité	-7627
ît	-7628
▁fier	-7629
ael	-7630
▁créée	-7631
▁profite	-7632
ttes	-7633
▁vice	-7634
▁tâche	-7635
▁ventre	-7636
▁GR	-7637
▁Tele	-7638
▁actifs	-7639
▁prêts	-7640
▁ressemble	-7641
▁sombre	-7642
▁fruit	-7643
ifier	-7644
idation	-7645
rales	-7646
assage	-7647
▁menace	-7648
▁Sand	-7649
guer	-7650
▁ros	-7651
oter	-7652
hous	-7653
▁DQ	-7654
rien	-7655
▁fameux	-7656
▁signific	-7657
▁fantas	-7658
▁CR	-7659
innovation	-7660
▁convention	-7661
▁utiles	-7662
pellier	-7663
▁avance	-7664
▁transmission	-7665
▁sûre	-7666
▁traité	-7667
▁rangement	-7668
▁pompe	-7669
ativité	-7670
éti	-7671
chage	-7672
▁territoires	-7673
▁traditionnelle	-7674
▁Porno	-7675
▁tâches	-7676
▁apprécié	-7677
chec	-7678
▁mécanique	-7679
/10	-7680
ualité	-7681
▁propor	-7682
▁LES	-7683
▁tribunal	-7684
▁Wh	-7685
ivement	-7686
fon	-7687
▁chan	-7688
▁fourni	-7689
▁pul	-7690
▁My	-7691
▁dizaines	-7692
44	-7693
▁Er	-7694
▁reprises	-7695
▁raisonn	-7696
▁déroul	-7697
▁Dép	-7698
▁correspondant	-7699
▁Nature	-7700
▁amoureuse	-7701
▁Claude	-7702
instru	-7703
▁richesse	-7704
▁correctement	-7705
ouvertes	-7706
▁jardins	-7707
,5	-7708
▁province	-7709
▁laissez	-7710
▁Couleur	-7711
▁report	-7712
▁Sil	-7713
▁06	-7714
agram	-7715
▁coute	-7716
▁gagne	-7717
▁remboursement	-7718
▁libres	-7719
▁cycl	-7720
▁devons	-7721
▁Lorsqu	-7722
▁Lac	-7723
miques	-7724
▁180	-7725
▁mg	-7726
▁Guy	-7727
▁descend	-7728
▁Mél	-7729
▁majeur	-7730
▁asi	-7731
▁démons	-7732
▁évident	-7733
fie	-7734
▁journées	-7735
olid	-7736
▁Ros	-7737
▁Pan	-7738
eld	-7739
▁smartphone	-7740
▁plas	-7741
▁sérieuse	-7742
acteur	-7743
▁réclam	-7744
CA	-7745
▁quatrième	-7746
▁moto	-7747
▁2004	-7748
▁Soleil	-7749
▁décret	-7750
opath	-7751
▁poudre	-7752
▁mairie	-7753
▁repris	-7754
▁adaptée	-7755
▁trafic	-7756
▁motifs	-7757
ophe	-7758
▁soul	-7759
▁rarement	-7760
appré	-7761
▁sacri	-7762
▁constater	-7763
▁issus	-7764
▁tchat	-7765
cides	-7766
aéroport	-7767
my	-7768
▁journalistes	-7769
▁chances	-7770
▁Disponible	-7771
▁clic	-7772
▁composée	-7773
▁Sav	-7774
aure	-7775
èdent	-7776
▁horaires	-7777
▁terrible	-7778
▁hommage	-7779
▁cérémonie	-7780
peau	-7781
èlement	-7782
viend	-7783
excell	-7784
▁traduction	-7785
utés	-7786
▁Père	-7787
cop	-7788
orent	-7789
▁aliments	-7790
▁Cre	-7791
▁quels	-7792
▁collections	-7793
▁conseille	-7794
quie	-7795
▁stockage	-7796
▁limiter	-7797
améliorer	-7798
▁CP	-7799
rè	-7800
▁impression	-7801
▁Bour	-7802
▁Spéci	-7803
▁confidenti	-7804
▁(6	-7805
mosphère	-7806
▁poursuit	-7807
▁finit	-7808
▁dizaine	-7809
▁scénario	-7810
îtes	-7811
▁étrangères	-7812
mal	-7813
astroph	-7814
ae	-7815
▁(2)	-7816
▁Fédération	-7817
▁42	-7818
▁95	-7819
ribue	-7820
▁Loc	-7821
▁parl	-7822
▁communaut	-7823
▁terminé	-7824
exception	-7825
▁Twitter	-7826
▁pierres	-7827
▁paraît	-7828
▁historiques	-7829
▁venus	-7830
aménagement	-7831
▁rési	-7832
▁Genève	-7833
ao	-7834
TER	-7835
▁tut	-7836
▁souhaitent	-7837
▁dents	-7838
▁dites	-7839
▁interdit	-7840
▁difficiles	-7841
▁Sw	-7842
▁Chois	-7843
▁grossesse	-7844
intégration	-7845
▁ajouté	-7846
▁relève	-7847
▁Dém	-7848
▁remplacement	-7849
luence	-7850
▁acier	-7851
dium	-7852
▁2016.	-7853
▁CG	-7854
▁villages	-7855
▁Taille	-7856
▁pes	-7857
autés	-7858
ondissement	-7859
▁geste	-7860
cide	-7861
▁portail	-7862
▁soldats	-7863
▁sauveg	-7864
▁sûrement	-7865
istiques	-7866
▁conformément	-7867
▁dose	-7868
▁loup	-7869
▁commis	-7870
▁cous	-7871
▁perspective	-7872
▁gro	-7873
▁tempor	-7874
▁CL	-7875
▁Ministère	-7876
▁dépar	-7877
▁tours	-7878
▁beurre	-7879
existe	-7880
ary	-7881
▁critiques	-7882
▁ly	-7883
▁répondu	-7884
▁Dan	-7885
ect	-7886
▁chap	-7887
▁constituent	-7888
ennent	-7889
▁magique	-7890
▁contenant	-7891
outs	-7892
▁nécessite	-7893
▁voies	-7894
uffis	-7895
▁réfug	-7896
▁hiver	-7897
▁raf	-7898
▁pensées	-7899
▁supprimer	-7900
▁pant	-7901
▁Apple	-7902
▁résoudre	-7903
▁pilote	-7904
32	-7905
▁vag	-7906
espé	-7907
ébéc	-7908
hyp	-7909
éros	-7910
▁Ense	-7911
lerie	-7912
▁simpli	-7913
▁rup	-7914
▁mascul	-7915
fini	-7916
laires	-7917
▁cible	-7918
the	-7919
▁américains	-7920
agon	-7921
icale	-7922
▁raff	-7923
▁tiens	-7924
▁Banque	-7925
hôpital	-7926
▁Nantes	-7927
▁Sou	-7928
▁sports	-7929
▁artiste	-7930
▁propriétés	-7931
engage	-7932
▁scand	-7933
▁gars	-7934
▁plante	-7935
▁références	-7936
▁record	-7937
▁couples	-7938
▁élu	-7939
▁Net	-7940
mann	-7941
nam	-7942
▁préoccup	-7943
▁plaque	-7944
▁Directeur	-7945
bri	-7946
▁glace	-7947
▁médical	-7948
▁réfléchir	-7949
▁Loi	-7950
▁âme	-7951
▁you	-7952
▁Services	-7953
étant	-7954
compl	-7955
▁collègues	-7956
agré	-7957
▁globale	-7958
▁fur	-7959
▁rét	-7960
▁liquide	-7961
▁Consul	-7962
▁remarque	-7963
▁AV	-7964
▁consacré	-7965
tront	-7966
▁boulot	-7967
mil	-7968
▁regroupe	-7969
▁Nationale	-7970
▁fournisseurs	-7971
▁Contin	-7972
▁bét	-7973
▁décri	-7974
▁satisfaction	-7975
▁video	-7976
▁créations	-7977
oritaire	-7978
MI	-7979
impact	-7980
▁Direction	-7981
urgie	-7982
▁reprend	-7983
▁Let	-7984
ére	-7985
▁Histoire	-7986
▁sommeil	-7987
allen	-7988
▁André	-7989
▁quelles	-7990
pole	-7991
▁lutter	-7992
▁lunettes	-7993
▁Tit	-7994
▁hôtels	-7995
DS	-7996
▁Lum	-7997
▁Bourg	-7998
▁Général	-7999
▁van	-8000
▁placer	-8001
▁affiche	-8002
▁vallée	-8003
.0	-8004
animation	-8005
▁chantier	-8006
▁motif	-8007
▁Tor	-8008
dépend	-8009
agerie	-8010
▁rejoint	-8011
▁eut	-8012
▁comprends	-8013
▁crimin	-8014
▁proposées	-8015
agriculture	-8016
▁vacc	-8017
88	-8018
GE	-8019
▁sensib	-8020
▁Ham	-8021
▁représentent	-8022
▁).	-8023
▁remet	-8024
▁constitué	-8025
ount	-8026
▁artif	-8027
><	-8028
▁mets	-8029
▁Seine	-8030
▁exercices	-8031
▁rappro	-8032
▁manquer	-8033
▁réserver	-8034
ding	-8035
▁Stéph	-8036
▁prends	-8037
▁avais	-8038
▁réalisés	-8039
▁calendrier	-8040
36	-8041
▁copie	-8042
▁numériques	-8043
▁utilisateur	-8044
▁Lais	-8045
▁ronde	-8046
▁SN	-8047
tume	-8048
▁contemporain	-8049
▁Enf	-8050
album	-8051
▁Gren	-8052
▁lente	-8053
Ab	-8054
▁plaît	-8055
▁aver	-8056
31	-8057
▁Cin	-8058
▁Tex	-8059
▁cool	-8060
rasser	-8061
▁venez	-8062
▁Holl	-8063
▁galerie	-8064
Qu	-8065
▁Petite	-8066
housias	-8067
▁trente	-8068
▁éditions	-8069
▁cord	-8070
sbourg	-8071
▁contrôler	-8072
▁2011,	-8073
▁session	-8074
▁om	-8075
▁Home	-8076
▁couper	-8077
crimin	-8078
▁bris	-8079
▁abou	-8080
▁feuille	-8081
▁programmation	-8082
illy	-8083
ories	-8084
ench	-8085
INE	-8086
▁Nice	-8087
▁manifestation	-8088
▁transmis	-8089
▁anciennes	-8090
▁dec	-8091
amme	-8092
hist	-8093
auvres	-8094
▁exemples	-8095
▁voudrais	-8096
iliation	-8097
CP	-8098
▁météo	-8099
▁gagné	-8100
▁cib	-8101
▁Ci	-8102
onnier	-8103
▁ner	-8104
▁déplacer	-8105
irt	-8106
▁immense	-8107
▁Jusqu	-8108
oriser	-8109
▁bijoux	-8110
▁réservé	-8111
▁paramètres	-8112
architecture	-8113
ject	-8114
cia	-8115
37	-8116
ical	-8117
▁Trump	-8118
▁Moyen	-8119
journ	-8120
▁chevaux	-8121
▁continent	-8122
▁black	-8123
▁jugement	-8124
égalité	-8125
▁Bay	-8126
▁flu	-8127
▁Parlement	-8128
▁apprend	-8129
atrices	-8130
▁sté	-8131
▁adaptés	-8132
▁Italie	-8133
▁USB	-8134
▁May	-8135
▁fraîche	-8136
▁photographie	-8137
▁tournée	-8138
▁étrange	-8139
anément	-8140
▁sympathique	-8141
▁salaire	-8142
▁muscul	-8143
▁alimentaires	-8144
▁seins	-8145
▁grec	-8146
▁populaires	-8147
▁équival	-8148
▁deg	-8149
▁Toujours	-8150
▁biz	-8151
▁comprenant	-8152
doc	-8153
Pour	-8154
▁primaire	-8155
▁vertu	-8156
▁46	-8157
▁gras	-8158
▁stric	-8159
rité	-8160
▁Jér	-8161
▁Gi	-8162
▁Ceux	-8163
toine	-8164
▁recul	-8165
▁Situé	-8166
CT	-8167
▁modifications	-8168
▁achats	-8169
▁pare	-8170
table	-8171
▁parois	-8172
▁vues	-8173
iliers	-8174
vages	-8175
▁erreurs	-8176
▁laboratoire	-8177
▁positif	-8178
▁Celle	-8179
▁dépôt	-8180
▁manifestations	-8181
▁bulle	-8182
por	-8183
▁RD	-8184
▁retirer	-8185
▁Daniel	-8186
▁exceptionnel	-8187
▁directe	-8188
▁sin	-8189
▁Sciences	-8190
nie	-8191
▁Tom	-8192
auto	-8193
aro	-8194
▁musulmans	-8195
▁louer	-8196
▁régler	-8197
▁boire	-8198
▁chronique	-8199
cial	-8200
▁clubs	-8201
▁retrouvé	-8202
▁regroup	-8203
▁exclusivement	-8204
▁organiser	-8205
▁compléter	-8206
uation	-8207
▁relatif	-8208
▁rupture	-8209
▁Mars	-8210
▁judiciaire	-8211
▁modernes	-8212
ffe	-8213
approche	-8214
amin	-8215
arrêter	-8216
▁navigateur	-8217
▁agricole	-8218
▁aigu	-8219
▁Cab	-8220
arg	-8221
VE	-8222
▁bénéficie	-8223
engagement	-8224
▁arrêt	-8225
▁prenez	-8226
▁bureaux	-8227
FF	-8228
▁joy	-8229
▁volet	-8230
▁Contac	-8231
alcool	-8232
▁versions	-8233
▁britannique	-8234
▁grosses	-8235
▁tire	-8236
▁naturelles	-8237
▁scènes	-8238
ématique	-8239
ablir	-8240
▁brill	-8241
▁catastroph	-8242
▁Fi	-8243
veil	-8244
▁chaise	-8245
▁800	-8246
▁passent	-8247
▁kit	-8248
▁Bienvenue	-8249
erte	-8250
▁fortes	-8251
▁individus	-8252
issage	-8253
▁Commentaires	-8254
▁attaque	-8255
▁Patrick	-8256
▁quasiment	-8257
▁auparavant	-8258
▁fe	-8259
▁amateur	-8260
inscrire	-8261
▁extraordinaire	-8262
oui	-8263
▁battre	-8264
échelle	-8265
Amérique	-8266
▁privés	-8267
▁moteurs	-8268
▁roule	-8269
adapter	-8270
oeuvre	-8271
uns	-8272
ator	-8273
▁prote	-8274
▁routes	-8275
▁cultures	-8276
andie	-8277
▁lou	-8278
▁morale	-8279
▁priorité	-8280
▁buts	-8281
▁recrutement	-8282
▁écouter	-8283
OG	-8284
▁noirs	-8285
embourg	-8286
acle	-8287
▁autonom	-8288
issue	-8289
aga	-8290
▁défait	-8291
▁économie	-8292
▁pourrais	-8293
▁Cos	-8294
érations	-8295
▁agir	-8296
▁maintenance	-8297
▁saisir	-8298
▁renforce	-8299
▁européennes	-8300
▁fir	-8301
▁claire	-8302
▁Syst	-8303
ographe	-8304
rup	-8305
▁éché	-8306
▁oubli	-8307
▁mourir	-8308
▁dette	-8309
▁pav	-8310
aisseur	-8311
▁sortes	-8312
lantique	-8313
viendra	-8314
▁repose	-8315
▁lever	-8316
▁Angel	-8317
▁Android	-8318
38	-8319
▁énormément	-8320
▁Département	-8321
hommes	-8322
ANT	-8323
▁Nombre	-8324
39	-8325
mages	-8326
▁ramen	-8327
▁invité	-8328
issons	-8329
▁Blog	-8330
▁remercie	-8331
▁expliqué	-8332
▁alimentation	-8333
▁DVD	-8334
▁traces	-8335
▁trajet	-8336
▁pauvres	-8337
▁tox	-8338
▁basé	-8339
entreprises	-8340
▁2010,	-8341
▁encad	-8342
ado	-8343
▁exceptionnelle	-8344
▁magnifiques	-8345
▁facture	-8346
▁AL	-8347
▁ajout	-8348
▁dépasse	-8349
▁Nom	-8350
entend	-8351
▁profession	-8352
▁êtres	-8353
van	-8354
▁prévues	-8355
▁émissions	-8356
▁Place	-8357
▁soeur	-8358
▁accessibles	-8359
▁IV	-8360
éraux	-8361
▁î	-8362
▁considère	-8363
▁Rep	-8364
▁--	-8365
▁Première	-8366
▁Pop	-8367
▁bassin	-8368
▁Anim	-8369
▁Syl	-8370
▁circonstances	-8371
▁transition	-8372
▁Chaussures	-8373
ache	-8374
CS	-8375
▁Henri	-8376
▁Ven	-8377
▁peuples	-8378
▁Appar	-8379
▁poissons	-8380
77	-8381
▁arabe	-8382
▁Bu	-8383
▁diplom	-8384
▁consom	-8385
▁assuré	-8386
OI	-8387
▁pseu	-8388
▁traitements	-8389
▁adj	-8390
▁raj	-8391
▁puissent	-8392
équi	-8393
▁subli	-8394
▁trouvez	-8395
avaient	-8396
▁Hab	-8397
▁avenir	-8398
▁logo	-8399
liques	-8400
▁XIX	-8401
▁posé	-8402
▁IP	-8403
http	-8404
ouc	-8405
▁har	-8406
▁précip	-8407
▁Christian	-8408
associ	-8409
▁promouvoir	-8410
▁Univers	-8411
îner	-8412
▁sond	-8413
encer	-8414
▁contribuer	-8415
▁connaissent	-8416
exécution	-8417
kea	-8418
▁annuel	-8419
▁prévenir	-8420
lot	-8421
▁connus	-8422
▁Pap	-8423
ington	-8424
▁sœur	-8425
otion	-8426
▁1/	-8427
ographiques	-8428
orama	-8429
itaine	-8430
▁frontière	-8431
▁vendeur	-8432
anisme	-8433
▁croit	-8434
▁satisfaire	-8435
▁divis	-8436
aluer	-8437
servé	-8438
amélioration	-8439
▁traditionnel	-8440
▁décider	-8441
▁précieux	-8442
bé	-8443
▁rétro	-8444
▁terror	-8445
▁secrets	-8446
Re	-8447
▁corri	-8448
▁compétence	-8449
▁UN	-8450
▁céléb	-8451
▁écologique	-8452
ingue	-8453
anglais	-8454
arder	-8455
▁quart	-8456
onomique	-8457
▁enfance	-8458
▁Photo	-8459
▁vague	-8460
▁Gouver	-8461
▁froide	-8462
▁secours	-8463
▁médicale	-8464
▁broy	-8465
ènements	-8466
treet	-8467
▁catalogue	-8468
play	-8469
▁boutons	-8470
▁Lille	-8471
▁queue	-8472
De	-8473
▁prochaines	-8474
▁Hum	-8475
▁mobiles	-8476
▁compliqué	-8477
▁épouse	-8478
▁Présentation	-8479
▁bron	-8480
arque	-8481
▁Vincent	-8482
▁profils	-8483
▁forts	-8484
▁Provence	-8485
▁extérieure	-8486
▁impli	-8487
▁tablette	-8488
AGE	-8489
▁Guill	-8490
▁identité	-8491
▁fonctionner	-8492
▁collaborateurs	-8493
▁billets	-8494
▁pédagogique	-8495
▁sexuelle	-8496
▁trait	-8497
▁Formation	-8498
▁internationaux	-8499
▁lourd	-8500
dite	-8501
▁soign	-8502
zy	-8503
▁paire	-8504
ouvrage	-8505
▁Georges	-8506
48	-8507
rak	-8508
▁progressivement	-8509
▁degré	-8510
▁conférences	-8511
appartement	-8512
den	-8513
▁efficaces	-8514
▁6,	-8515
▁Doc	-8516
▁''	-8517
▁commerces	-8518
▁Diff	-8519
indivi	-8520
▁nucléaire	-8521
▁audi	-8522
offrir	-8523
▁SU	-8524
..."	-8525
▁régi	-8526
▁normalement	-8527
-)	-8528
...),	-8529
telligence	-8530
affir	-8531
▁sculp	-8532
oblig	-8533
rosoft	-8534
non	-8535
nière	-8536
▁Sau	-8537
tinéra	-8538
▁Tags	-8539
liance	-8540
▁diplôme	-8541
▁pack	-8542
▁norme	-8543
info	-8544
▁exercice	-8545
▁obligations	-8546
▁parvenir	-8547
▁cardi	-8548
--------	-8549
▁streaming	-8550
▁totalité	-8551
▁producteurs	-8552
▁Déb	-8553
▁prime	-8554
▁Mode	-8555
ductions	-8556
:0	-8557
▁85	-8558
▁accepté	-8559
▁marcher	-8560
▁incap	-8561
▁Brésil	-8562
▁terminer	-8563
olo	-8564
onnais	-8565
▁ouvrages	-8566
Église	-8567
▁étro	-8568
▁civil	-8569
▁AP	-8570
▁champion	-8571
initiative	-8572
ower	-8573
émique	-8574
▁Rouge	-8575
hom	-8576
texte	-8577
▁morceau	-8578
▁contribution	-8579
▁sugg	-8580
▁Montpellier	-8581
▁artifici	-8582
▁Strasbourg	-8583
allage	-8584
▁(200	-8585
▁Gestion	-8586
▁dedans	-8587
▁destinée	-8588
▁malade	-8589
▁éventuellement	-8590
▁voile	-8591
▁montagnes	-8592
▁poisson	-8593
▁Certaines	-8594
▁impact	-8595
▁communautés	-8596
jà	-8597
▁score	-8598
oler	-8599
envie	-8600
▁quitte	-8601
▁présentent	-8602
▁procédé	-8603
▁Ray	-8604
▁publiée	-8605
▁étions	-8606
▁Château	-8607
▁Joseph	-8608
▁confirme	-8609
ho	-8610
▁cle	-8611
▁arrêter	-8612
▁proposant	-8613
peur	-8614
▁poit	-8615
▁IS	-8616
▁accompagne	-8617
▁voyageurs	-8618
▁préciser	-8619
uyer	-8620
▁posses	-8621
▁Part	-8622
▁expli	-8623
▁AS	-8624
▁détru	-8625
box	-8626
bie	-8627
▁souver	-8628
▁Rose	-8629
eut	-8630
Ag	-8631
▁news	-8632
Fran	-8633
▁ais	-8634
▁horiz	-8635
▁vendu	-8636
▁fuite	-8637
▁Syrie	-8638
▁myst	-8639
▁girl	-8640
▁tendances	-8641
▁cliquant	-8642
▁termine	-8643
▁évalu	-8644
▁monte	-8645
▁sachant	-8646
▁CF	-8647
Se	-8648
arts	-8649
▁liée	-8650
▁Ri	-8651
erse	-8652
▁découvrez	-8653
▁résist	-8654
▁Outre	-8655
▁emplois	-8656
▁pun	-8657
▁Olivier	-8658
visible	-8659
aura	-8660
▁connecter	-8661
▁Moh	-8662
▁souris	-8663
▁précédente	-8664
▁49	-8665
apprendre	-8666
▁limitée	-8667
▁Nations	-8668
-10	-8669
étaires	-8670
▁fum	-8671
geois	-8672
▁salut	-8673
▁pause	-8674
▁2015.	-8675
occuper	-8676
▁virus	-8677
El	-8678
▁évidence	-8679
▁sollic	-8680
fiées	-8681
▁serais	-8682
ba	-8683
▁poul	-8684
▁feront	-8685
▁intense	-8686
▁procéder	-8687
▁conservation	-8688
▁trucs	-8689
▁pousse	-8690
▁interro	-8691
▁sportifs	-8692
▁musicale	-8693
automne	-8694
ombe	-8695
▁Bureau	-8696
attente	-8697
▁codes	-8698
▁importance	-8699
▁hypoth	-8700
▁devront	-8701
ics	-8702
serie	-8703
événement	-8704
xx	-8705
▁cong	-8706
▁nuits	-8707
▁poésie	-8708
▁em	-8709
▁den	-8710
▁contrairement	-8711
bal	-8712
▁délég	-8713
▁préserver	-8714
▁vint	-8715
eries	-8716
▁(«	-8717
▁47	-8718
▁Patri	-8719
▁transmettre	-8720
▁contraintes	-8721
obe	-8722
▁bonus	-8723
▁box	-8724
rières	-8725
▁ménage	-8726
▁longs	-8727
▁évo	-8728
acquisition	-8729
▁publier	-8730
▁amus	-8731
cts	-8732
▁esthétique	-8733
roid	-8734
onnance	-8735
▁définitivement	-8736
▁Ly	-8737
sace	-8738
▁Cy	-8739
ologues	-8740
èses	-8741
▁Red	-8742
titudes	-8743
89	-8744
lera	-8745
▁caus	-8746
▁matchs	-8747
ancé	-8748
▁systématique	-8749
▁Fort	-8750
érateur	-8751
▁collecte	-8752
Ce	-8753
▁mira	-8754
Intern	-8755
▁gourmand	-8756
ison	-8757
▁09	-8758
▁unités	-8759
▁deviennent	-8760
abilités	-8761
anda	-8762
▁progression	-8763
oints	-8764
▁meurt	-8765
▁Durant	-8766
▁produis	-8767
▁extrait	-8768
cidents	-8769
azon	-8770
ating	-8771
onctu	-8772
▁équilib	-8773
atch	-8774
atine	-8775
essentiel	-8776
▁heureuse	-8777
tisation	-8778
▁canapé	-8779
▁contacts	-8780
▁drôle	-8781
-6	-8782
▁path	-8783
▁Master	-8784
▁lol	-8785
▁dommages	-8786
▁procure	-8787
armes	-8788
oche	-8789
▁Luxembourg	-8790
▁prévoit	-8791
enue	-8792
▁révolu	-8793
▁Bus	-8794
▁honn	-8795
▁maqu	-8796
giques	-8797
▁procédures	-8798
▁serv	-8799
▁adhér	-8800
▁vitam	-8801
mentaire	-8802
▁industriel	-8803
iger	-8804
▁6.	-8805
▁flex	-8806
▁voisins	-8807
▁récente	-8808
▁Fam	-8809
▁facebook	-8810
▁palais	-8811
▁châ	-8812
▁frontières	-8813
▁Française	-8814
page	-8815
▁déten	-8816
▁Emmanuel	-8817
▁cadres	-8818
▁augmente	-8819
▁Chac	-8820
▁traduit	-8821
avion	-8822
▁causes	-8823
▁financières	-8824
dies	-8825
orités	-8826
▁configuration	-8827
▁Py	-8828
▁AD	-8829
▁générations	-8830
voire	-8831
▁Université	-8832
▁jusque	-8833
▁Jam	-8834
▁bomb	-8835
▁tables	-8836
▁épar	-8837
▁stratégique	-8838
▁64	-8839
▁retrait	-8840
eme	-8841
Espagne	-8842
▁huile	-8843
▁concerts	-8844
ouvent	-8845
bus	-8846
any	-8847
▁basée	-8848
opé	-8849
HE	-8850
▁intéressante	-8851
▁Aucun	-8852
▁expé	-8853
▁mystéri	-8854
▁Chat	-8855
▁rempli	-8856
mond	-8857
und	-8858
▁affirme	-8859
▁triste	-8860
▁Sport	-8861
▁abus	-8862
▁Rest	-8863
cière	-8864
onniers	-8865
▁USA	-8866
Art	-8867
▁vig	-8868
▁massif	-8869
▁Sexe	-8870
clav	-8871
▁nov	-8872
▁(201	-8873
▁salarié	-8874
agées	-8875
minaire	-8876
▁Wal	-8877
▁ressembl	-8878
▁vesti	-8879
▁contente	-8880
▁tournoi	-8881
▁intellectuelle	-8882
▁recommandé	-8883
jon	-8884
▁MAR	-8885
▁caisse	-8886
lés	-8887
ool	-8888
▁normale	-8889
▁évoluer	-8890
oubliez	-8891
▁inscrits	-8892
Orient	-8893
▁casser	-8894
▁liqu	-8895
chait	-8896
▁Déf	-8897
oyant	-8898
▁SP	-8899
▁hér	-8900
▁pousser	-8901
▁nationales	-8902
Italie	-8903
audi	-8904
▁Radio	-8905
▁clin	-8906
▁chers	-8907
alestin	-8908
▁automobile	-8909
▁verte	-8910
▁Vir	-8911
dial	-8912
sifs	-8913
gh	-8914
▁délé	-8915
▁Sark	-8916
▁déménagement	-8917
▁belge	-8918
ONT	-8919
▁surpren	-8920
▁vocation	-8921
atelier	-8922
▁constate	-8923
▁visu	-8924
▁Profitez	-8925
zer	-8926
▁finance	-8927
▁Sécurité	-8928
▁susc	-8929
▁accus	-8930
▁Lien	-8931
▁Malheureusement	-8932
▁alent	-8933
▁colis	-8934
▁franchement	-8935
▁reproduction	-8936
élève	-8937
▁symptômes	-8938
▁Mel	-8939
▁saisons	-8940
aqu	-8941
raéli	-8942
humour	-8943
▁recouv	-8944
▁musiciens	-8945
aby	-8946
▁efficacité	-8947
élab	-8948
▁connait	-8949
rol	-8950
otage	-8951
▁LED	-8952
quante	-8953
▁candidature	-8954
intro	-8955
▁instrument	-8956
ître	-8957
▁pareil	-8958
▁gla	-8959
OB	-8960
▁sén	-8961
▁commerciales	-8962
acée	-8963
▁raconter	-8964
ender	-8965
▁Gros	-8966
▁environs	-8967
▁Fondation	-8968
acés	-8969
▁del	-8970
heim	-8971
▁villa	-8972
▁sportive	-8973
enda	-8974
▁présentant	-8975
rénées	-8976
▁défis	-8977
▁mobilier	-8978
▁Sélection	-8979
riel	-8980
▁souligne	-8981
▁documentaire	-8982
▁culturelles	-8983
▁Annonce	-8984
▁motivation	-8985
▁dormir	-8986
▁écrite	-8987
▁asc	-8988
▁composants	-8989
▁complexes	-8990
agu	-8991
▁prépare	-8992
▁remerci	-8993
▁Pont	-8994
▁doucement	-8995
▁put	-8996
inez	-8997
▁perfection	-8998
DA	-8999
▁connaitre	-9000
échapp	-9001
▁étern	-9002
▁royaume	-9003
▁souhaiter	-9004
▁Espagne	-9005
ozy	-9006
▁paie	-9007
Fi	-9008
▁baise	-9009
écrire	-9010
▁prud	-9011
organisme	-9012
▁sacs	-9013
▁constituer	-9014
▁concernés	-9015
ouvé	-9016
▁merveilleux	-9017
▁Livre	-9018
ajouter	-9019
ulier	-9020
impos	-9021
▁Cô	-9022
▁tentative	-9023
▁industrielle	-9024
▁foule	-9025
▁ingrédients	-9026
▁Lég	-9027
▁Projet	-9028
/2018	-9029
▁rentre	-9030
▁Organis	-9031
▁câble	-9032
uge	-9033
▁rect	-9034
▁78	-9035
▁lé	-9036
cam	-9037
▁adresses	-9038
▁Idé	-9039
▁Font	-9040
▁dite	-9041
▁Rap	-9042
Eglise	-9043
▁Kh	-9044
▁célibataire	-9045
▁Éc	-9046
▁live	-9047
▁débats	-9048
▁fixé	-9049
gen	-9050
reuse	-9051
Saint	-9052
▁Tre	-9053
enregistrement	-9054
▁Prom	-9055
▁disparu	-9056
▁tenté	-9057
▁garçons	-9058
▁tube	-9059
▁43	-9060
▁module	-9061
igration	-9062
acute	-9063
▁espagnol	-9064
▁oiseaux	-9065
Uni	-9066
ilde	-9067
▁Développement	-9068
▁prit	-9069
▁Ul	-9070
atie	-9071
▁soirées	-9072
▁Bleu	-9073
▁Wall	-9074
▁titulaire	-9075
bergement	-9076
▁Mex	-9077
▁commiss	-9078
rsquo	-9079
▁million	-9080
▁épr	-9081
▁adéqu	-9082
▁réchauff	-9083
▁acteur	-9084
▁cercle	-9085
▁réalisées	-9086
▁ballon	-9087
illés	-9088
▁prévoir	-9089
▁fréquence	-9090
▁équilibre	-9091
way	-9092
▁conces	-9093
impôt	-9094
▁étudiant	-9095
▁familial	-9096
▁gueu	-9097
',	-9098
▁Fig	-9099
▁comédi	-9100
▁démarches	-9101
▁fidèle	-9102
▁futurs	-9103
tube	-9104
aid	-9105
aders	-9106
▁secondaire	-9107
▁Lunettes	-9108
▁incontournable	-9109
anou	-9110
ico	-9111
▁protoc	-9112
▁Christophe	-9113
▁personnalisé	-9114
▁venant	-9115
ssant	-9116
orable	-9117
▁poil	-9118
▁quelconque	-9119
▁infos	-9120
▁conforme	-9121
cir	-9122
▁Ara	-9123
▁Journal	-9124
ILLE	-9125
avre	-9126
ink	-9127
landais	-9128
envoi	-9129
▁flor	-9130
▁fermé	-9131
▁considérer	-9132
▁états	-9133
▁donnera	-9134
▁lave	-9135
ello	-9136
Histoire	-9137
▁faisons	-9138
▁tissus	-9139
▁chron	-9140
▁compose	-9141
abil	-9142
▁04	-9143
▁54	-9144
▁muscles	-9145
▁enn	-9146
▁utilisent	-9147
accompagnement	-9148
aspect	-9149
▁internautes	-9150
▁sèche	-9151
▁panneaux	-9152
ARD	-9153
▁vieill	-9154
dd	-9155
/11	-9156
▁jal	-9157
▁Résult	-9158
UM	-9159
▁05	-9160
sol	-9161
▁Théâtre	-9162
▁compatible	-9163
oyé	-9164
▁infir	-9165
▁08	-9166
▁ressorti	-9167
▁panier	-9168
▁décro	-9169
▁PR	-9170
▁bonjour	-9171
▁Ministre	-9172
oga	-9173
▁vertic	-9174
▁Lou	-9175
▁Soph	-9176
intéresse	-9177
▁éb	-9178
▁Marine	-9179
idées	-9180
▁sages	-9181
▁commander	-9182
Si	-9183
▁human	-9184
aya	-9185
▁rapides	-9186
▁poitrine	-9187
agra	-9188
▁Poi	-9189
▁James	-9190
▁réputation	-9191
▁régionale	-9192
▁Né	-9193
antill	-9194
▁digne	-9195
trice	-9196
ota	-9197
▁majeure	-9198
oeil	-9199
▁seni	-9200
▁Mil	-9201
▁Mu	-9202
actif	-9203
▁envies	-9204
▁fédéral	-9205
interest	-9206
▁sév	-9207
▁crist	-9208
▁industriels	-9209
▁enregistré	-9210
▁Pen	-9211
▁économies	-9212
ressent	-9213
▁foyer	-9214
▁Willi	-9215
▁fri	-9216
amedi	-9217
▁poster	-9218
▁salope	-9219
▁ponctu	-9220
▁éclat	-9221
▁voyant	-9222
▁touristique	-9223
eroun	-9224
rairie	-9225
▁élevée	-9226
▁Coup	-9227
encontre	-9228
OUS	-9229
oncée	-9230
▁Inc	-9231
ouille	-9232
aco	-9233
▁Hollande	-9234
▁dispositifs	-9235
▁randonnée	-9236
▁températures	-9237
cée	-9238
▁semi	-9239
▁hauts	-9240
▁comparaison	-9241
seau	-9242
illées	-9243
▁monsieur	-9244
▁expert	-9245
etre	-9246
erine	-9247
▁Esc	-9248
▁Ach	-9249
▁espèce	-9250
▁commerciaux	-9251
▁iPhone	-9252
▁Dos	-9253
ègre	-9254
éanmoins	-9255
gypte	-9256
giène	-9257
sous	-9258
▁suivent	-9259
cessoire	-9260
▁ressort	-9261
fond	-9262
adé	-9263
▁unité	-9264
▁remarquable	-9265
▁disponibilité	-9266
▁Quoi	-9267
▁Exc	-9268
teries	-9269
▁thérapeu	-9270
▁Date	-9271
▁trimestre	-9272
▁empêcher	-9273
▁Affaires	-9274
▁Certes	-9275
▁affront	-9276
▁Guide	-9277
▁tableaux	-9278
▁Mun	-9279
▁féminin	-9280
Plus	-9281
inement	-9282
▁ado	-9283
▁organisme	-9284
wa	-9285
▁fidél	-9286
▁division	-9287
▁recherchez	-9288
▁diplô	-9289
arrête	-9290
▁psychologique	-9291
affich	-9292
▁dépasser	-9293
ip	-9294
itage	-9295
ilière	-9296
▁accélé	-9297
influence	-9298
▁Israël	-9299
▁susceptibles	-9300
▁clinique	-9301
▁superfici	-9302
▁Photos	-9303
ILL	-9304
▁chal	-9305
▁démocratique	-9306
▁investissement	-9307
▁Microsoft	-9308
▁Mur	-9309
▁complémentaires	-9310
▁Droit	-9311
agraph	-9312
▁surpris	-9313
ctrice	-9314
▁Lui	-9315
avoue	-9316
▁courir	-9317
Aut	-9318
▁cla	-9319
▁Oh	-9320
▁attendu	-9321
▁sauvage	-9322
▁2009,	-9323
ombres	-9324
▁canal	-9325
cter	-9326
▁2019	-9327
86	-9328
76	-9329
Vous	-9330
▁tonnes	-9331
ceau	-9332
▁particul	-9333
▁Salut	-9334
▁refuse	-9335
isés	-9336
▁essai	-9337
.).	-9338
▁sk	-9339
▁plonge	-9340
ulée	-9341
▁positions	-9342
▁proph	-9343
▁supports	-9344
inspiration	-9345
▁thermique	-9346
▁bouteille	-9347
SP	-9348
▁ide	-9349
▁Néanmoins	-9350
tille	-9351
▁périodes	-9352
▁trouvait	-9353
▁magné	-9354
▁artisans	-9355
assemblée	-9356
édie	-9357
▁Client	-9358
▁discussions	-9359
▁ressent	-9360
envoyer	-9361
▁conclusion	-9362
sans	-9363
▁facilité	-9364
▁fournisseur	-9365
▁tendre	-9366
▁tub	-9367
étiques	-9368
▁aiment	-9369
▁montrent	-9370
ctive	-9371
▁Vér	-9372
▁gren	-9373
▁élève	-9374
/200	-9375
▁profondément	-9376
▁portent	-9377
▁191	-9378
raction	-9379
rastructures	-9380
mas	-9381
▁taxe	-9382
utes	-9383
▁fauteuil	-9384
▁Sénégal	-9385
êter	-9386
▁Open	-9387
▁présentés	-9388
▁astrolog	-9389
▁Nor	-9390
▁italien	-9391
▁Oct	-9392
xy	-9393
▁établir	-9394
▁essentielle	-9395
TA	-9396
▁mène	-9397
als	-9398
▁fenêtres	-9399
▁contemporaine	-9400
▁gonf	-9401
uisant	-9402
▁vib	-9403
▁graves	-9404
▁permanence	-9405
rètement	-9406
▁littéraire	-9407
raires	-9408
▁bite	-9409
▁56	-9410
▁perç	-9411
▁Richard	-9412
▁intitulé	-9413
▁Nath	-9414
aisselle	-9415
▁touristiques	-9416
EU	-9417
▁ache	-9418
▁Rhône	-9419
▁Meuble	-9420
olet	-9421
▁arbre	-9422
▁recommandations	-9423
▁concentration	-9424
▁québéc	-9425
▁aventures	-9426
▁Maurice	-9427
▁coquine	-9428
▁déroule	-9429
itons	-9430
tech	-9431
▁comprom	-9432
▁téléchargement	-9433
▁41	-9434
fre	-9435
▁catholique	-9436
▁plain	-9437
▁alternative	-9438
appui	-9439
▁jeter	-9440
alier	-9441
▁présentée	-9442
▁agences	-9443
▁parallèle	-9444
▁max	-9445
▁trace	-9446
▁Palais	-9447
Par	-9448
▁Programme	-9449
CD	-9450
▁nouveautés	-9451
▁Liber	-9452
Algérie	-9453
▁annuelle	-9454
Marie	-9455
uise	-9456
▁travaillent	-9457
url	-9458
mité	-9459
ineuse	-9460
0.	-9461
▁Mr	-9462
▁utilisez	-9463
▁miroir	-9464
▁chauffe	-9465
▁refaire	-9466
noc	-9467
▁Gé	-9468
sim	-9469
▁2003	-9470
estres	-9471
▁comparer	-9472
▁lumineux	-9473
▁One	-9474
▁camar	-9475
▁stabilité	-9476
AY	-9477
▁terrains	-9478
▁privées	-9479
▁Pok	-9480
▁Film	-9481
▁conclu	-9482
▁disposer	-9483
▁spectacles	-9484
bar	-9485
▁limité	-9486
▁pommes	-9487
▁appelée	-9488
▁conflits	-9489
▁Retour	-9490
▁Politique	-9491
▁hydra	-9492
▁obligé	-9493
▁paraître	-9494
▁officiellement	-9495
ieuses	-9496
▁dédiée	-9497
▁producteur	-9498
ava	-9499
▁Eric	-9500
▁Fra	-9501
▁symbole	-9502
EP	-9503
▁7,	-9504
▁cig	-9505
▁indépendante	-9506
▁consent	-9507
▁constante	-9508
▁Techn	-9509
phe	-9510
▁Bert	-9511
▁2014.	-9512
▁guid	-9513
▁EUR	-9514
▁récep	-9515
▁Supp	-9516
▁sons	-9517
::::	-9518
▁Dub	-9519
égard	-9520
▁inspiré	-9521
▁périph	-9522
neu	-9523
▁connecté	-9524
▁capables	-9525
▁choisissez	-9526
▁interventions	-9527
▁convaincre	-9528
▁tort	-9529
▁7.	-9530
▁menée	-9531
▁future	-9532
▁explic	-9533
oline	-9534
42	-9535
▁duo	-9536
lor	-9537
aband	-9538
▁déposer	-9539
▁curieux	-9540
ernant	-9541
▁dor	-9542
▁World	-9543
▁disparition	-9544
▁animations	-9545
▁remercier	-9546
ensions	-9547
▁douleurs	-9548
▁finances	-9549
dépendance	-9550
▁parcour	-9551
▁agricoles	-9552
▁prière	-9553
illons	-9554
upp	-9555
ensé	-9556
ella	-9557
ouf	-9558
▁Gir	-9559
▁épisodes	-9560
▁cacher	-9561
▁discipline	-9562
▁honte	-9563
▁effort	-9564
enant	-9565
▁restera	-9566
▁roues	-9567
▁peintre	-9568
▁pouvais	-9569
▁Avis	-9570
▁Bain	-9571
▁ferait	-9572
▁global	-9573
▁lits	-9574
▁Elect	-9575
mblement	-9576
prits	-9577
illa	-9578
▁voter	-9579
ilé	-9580
▁équipement	-9581
invent	-9582
▁différences	-9583
iki	-9584
▁savais	-9585
▁oreilles	-9586
▁souffrance	-9587
▁dépannage	-9588
Homme	-9589
ologne	-9590
▁suppression	-9591
▁témoignage	-9592
▁Alpes	-9593
▁chemins	-9594
%,	-9595
▁google	-9596
▁Gratuit	-9597
miers	-9598
▁perpé	-9599
▁représenter	-9600
lets	-9601
images	-9602
▁seules	-9603
mét	-9604
▁fiable	-9605
▁2008,	-9606
▁Conne	-9607
ointe	-9608
▁stratégies	-9609
▁provenant	-9610
▁adopté	-9611
▁diamètre	-9612
▁CA	-9613
▁0.	-9614
olation	-9615
▁savons	-9616
▁guitare	-9617
▁Fréd	-9618
▁manches	-9619
tueux	-9620
▁îles	-9621
▁influence	-9622
▁chic	-9623
mper	-9624
▁monnaie	-9625
glom	-9626
▁manuel	-9627
▁Ap	-9628
ignant	-9629
extrême	-9630
uk	-9631
ageux	-9632
▁opportun	-9633
▁évaluation	-9634
▁simplicité	-9635
vise	-9636
30,	-9637
▁Mise	-9638
onald	-9639
▁balade	-9640
▁proposée	-9641
mod	-9642
quérir	-9643
▁antéri	-9644
autorisation	-9645
▁combats	-9646
▁créativité	-9647
▁Etat	-9648
▁arme	-9649
▁relever	-9650
▁rendent	-9651
siez	-9652
▁brun	-9653
▁vrais	-9654
▁essentielles	-9655
▁photographe	-9656
▁alentours	-9657
rable	-9658
cf	-9659
ateaux	-9660
▁City	-9661
▁sensibilité	-9662
haus	-9663
▁aimez	-9664
ep	-9665
▁éloign	-9666
▁AM	-9667
▁branche	-9668
▁fiches	-9669
▁pratiquer	-9670
▁bol	-9671
49	-9672
▁individuelle	-9673
47	-9674
▁AC	-9675
▁Tar	-9676
vu	-9677
elli	-9678
▁attaques	-9679
ctionnaire	-9680
▁envah	-9681
▁remarquer	-9682
▁Dj	-9683
▁professeurs	-9684
ordinateur	-9685
▁confirmer	-9686
▁ennemis	-9687
▁conversation	-9688
▁biologique	-9689
▁dress	-9690
rimés	-9691
▁honor	-9692
▁provoquer	-9693
▁ave	-9694
▁supporter	-9695
▁relax	-9696
▁Dét	-9697
▁admis	-9698
endie	-9699
ierge	-9700
▁âgées	-9701
▁Anti	-9702
lon	-9703
▁positive	-9704
▁confidentialité	-9705
▁veuillez	-9706
▁croix	-9707
ondre	-9708
exprimer	-9709
ortés	-9710
▁quitté	-9711
▁évènements	-9712
▁certificat	-9713
▁dégâ	-9714
▁recon	-9715
êts	-9716
▁Guillaume	-9717
BC	-9718
▁sain	-9719
dict	-9720
▁Empl	-9721
ste	-9722
ports	-9723
46	-9724
▁mous	-9725
aman	-9726
enfance	-9727
▁talents	-9728
ints	-9729
▁rayon	-9730
▁fondateur	-9731
▁destinés	-9732
▁52	-9733
mère	-9734
▁porn	-9735
intention	-9736
▁origines	-9737
▁obst	-9738
▁sélectionner	-9739
épre	-9740
▁serai	-9741
▁authentique	-9742
▁conjug	-9743
▁témoignages	-9744
▁Sarkozy	-9745
jan	-9746
▁vols	-9747
▁promet	-9748
▁gain	-9749
oulière	-9750
▁02	-9751
▁Mach	-9752
▁Trib	-9753
▁examen	-9754
▁chaleureux	-9755
▁engagé	-9756
nd	-9757
▁189	-9758
▁Bes	-9759
aus	-9760
rigue	-9761
▁66	-9762
ago	-9763
▁légend	-9764
▁Mess	-9765
▁Samedi	-9766
▁déclin	-9767
érés	-9768
agissait	-9769
▁astuces	-9770
opping	-9771
▁Dam	-9772
▁complémentaire	-9773
▁restant	-9774
▁57	-9775
▁Rue	-9776
▁conseillers	-9777
▁Prenez	-9778
▁Cad	-9779
▁électroniques	-9780
key	-9781
▁permanente	-9782
▁press	-9783
▁Dominique	-9784
▁fallu	-9785
▁investissements	-9786
▁algéri	-9787
▁styles	-9788
▁climatique	-9789
▁illég	-9790
RS	-9791
▁cultiv	-9792
▁détour	-9793
▁Cop	-9794
▁fatigue	-9795
▁émission	-9796
islam	-9797
érard	-9798
▁citer	-9799
▁domes	-9800
blé	-9801
▁Cé	-9802
activ	-9803
▁formid	-9804
Jean	-9805
-8	-9806
▁grève	-9807
▁marge	-9808
▁grille	-9809
▁réactions	-9810
lèvement	-9811
▁indemn	-9812
anth	-9813
ussit	-9814
▁sensibles	-9815
▁lav	-9816
▁piano	-9817
▁baiser	-9818
euve	-9819
ierry	-9820
ôtre	-9821
▁provo	-9822
▁label	-9823
▁(7	-9824
▁identifier	-9825
▁instruments	-9826
▁municipal	-9827
▁guère	-9828
▁Liste	-9829
▁enceinte	-9830
▁eth	-9831
▁Cuir	-9832
MT	-9833
itié	-9834
▁fib	-9835
érales	-9836
etnam	-9837
▁ges	-9838
aste	-9839
▁sat	-9840
▁typique	-9841
▁haine	-9842
▁externe	-9843
Angl	-9844
oom	-9845
cade	-9846
▁Jeunes	-9847
▁Communauté	-9848
change	-9849
▁(3)	-9850
▁arrivent	-9851
▁Grèce	-9852
▁Michael	-9853
▁troupes	-9854
▁implique	-9855
analy	-9856
alisées	-9857
trations	-9858
▁paragraph	-9859
▁doigt	-9860
▁mousse	-9861
▁vingtaine	-9862
▁Sauf	-9863
▁débit	-9864
affiche	-9865
quets	-9866
▁bandes	-9867
▁appliquer	-9868
▁habitudes	-9869
ricol	-9870
oni	-9871
▁écrits	-9872
▁Fe	-9873
▁pop	-9874
▁Sem	-9875
▁discrimin	-9876
▁Julien	-9877
ouch	-9878
!)	-9879
oct	-9880
▁2002	-9881
▁aient	-9882
▁bénéfice	-9883
▁appeler	-9884
▁(10	-9885
▁auxquels	-9886
▁sauce	-9887
mber	-9888
entraînement	-9889
▁découvertes	-9890
▁résumé	-9891
▁inscrire	-9892
▁universitaire	-9893
▁urbaine	-9894
▁sab	-9895
ato	-9896
▁Rennes	-9897
optimis	-9898
▁essais	-9899
▁Eh	-9900
onnements	-9901
▁casse	-9902
▁filtre	-9903
▁87	-9904
bonne	-9905
▁Gouvernement	-9906
vard	-9907
▁69	-9908
▁Flor	-9909
▁graisse	-9910
▁ouvertes	-9911
étéo	-9912
▁Autres	-9913
etteur	-9914
UB	-9915
▁apparaître	-9916
▁constructeur	-9917
▁flash	-9918
▁décal	-9919
▁fabricant	-9920
▁légende	-9921
▁paradis	-9922
ustralie	-9923
▁suici	-9924
▁Mot	-9925
▁voient	-9926
5)	-9927
▁interview	-9928
▁pensais	-9929
St	-9930
▁dil	-9931
oient	-9932
ody	-9933
gène	-9934
▁doté	-9935
▁répartition	-9936
▁Lor	-9937
▁allemande	-9938
▁avion	-9939
▁chair	-9940
▁bénévoles	-9941
▁apprécier	-9942
érées	-9943
▁remonter	-9944
▁chrétiens	-9945
▁partagé	-9946
▁comportements	-9947
▁Travail	-9948
antis	-9949
▁Pascal	-9950
▁euro	-9951
dont	-9952
▁rêver	-9953
▁casque	-9954
▁62	-9955
illard	-9956
urité	-9957
brer	-9958
zaine	-9959
mit	-9960
adaptation	-9961
▁réglementation	-9962
fran	-9963
tionnaires	-9964
▁consultez	-9965
oliques	-9966
▁mariti	-9967
quants	-9968
▁voyager	-9969
▁rede	-9970
▁68	-9971
▁boutiques	-9972
ôture	-9973
▁riz	-9974
▁verra	-9975
▁Heureusement	-9976
din	-9977
▁07	-9978
▁my	-9979
▁Ouv	-9980
examen	-9981
▁assister	-9982
assistance	-9983
▁destruction	-9984
▁conducteur	-9985
▁relie	-9986
ané	-9987
▁Création	-9988
celet	-9989
hop	-9990
▁île	-9991
▁climatis	-9992
▁voyez	-9993
▁Ent	-9994
▁confirmé	-9995
ellation	-9996
cin	-9997
▁maximale	-9998
▁moral	-9999
oyeur	-10000
ativement	-10001
▁ordinaire	-10002
▁Poste	-10003
▁conseillé	-10004
interpré	-10005
▁Amérique	-10006
équipement	-10007
▁Hug	-10008
▁passés	-10009
▁éclai	-10010
▁informatiques	-10011
▁spa	-10012
▁félic	-10013
intelligence	-10014
▁spécialisés	-10015
▁prochains	-10016
▁Aucune	-10017
▁républic	-10018
▁existence	-10019
▁Nav	-10020
▁spati	-10021
▁uniques	-10022
▁député	-10023
▁Maître	-10024
▁contras	-10025
▁folie	-10026
▁Hotel	-10027
▁doul	-10028
▁testé	-10029
▁So	-10030
▁capitaine	-10031
AIRE	-10032
▁gestes	-10033
▁vel	-10034
▁valable	-10035
▁fondée	-10036
omber	-10037
▁posséd	-10038
▁urbain	-10039
▁tué	-10040
▁connaissez	-10041
▁03	-10042
sses	-10043
▁Big	-10044
▁saut	-10045
ortant	-10046
▁Francis	-10047
▁59	-10048
▁touristes	-10049
▁ME	-10050
▁vies	-10051
oyers	-10052
▁Envir	-10053
▁mate	-10054
▁larmes	-10055
▁informer	-10056
▁graphiques	-10057
ueux	-10058
▁manche	-10059
▁médiév	-10060
ases	-10061
applique	-10062
▁épreuves	-10063
▁Gh	-10064
Off	-10065
ingén	-10066
▁aspi	-10067
▁réunions	-10068
ussitôt	-10069
▁refuser	-10070
▁Où	-10071
venus	-10072
▁carton	-10073
▁Lis	-10074
▁avancer	-10075
▁dirig	-10076
▁secondaires	-10077
▁largeur	-10078
▁pétrole	-10079
▁Mis	-10080
▁embar	-10081
▁Arm	-10082
▁fixer	-10083
▁Antoine	-10084
▁laté	-10085
etic	-10086
▁Déjà	-10087
▁culte	-10088
êque	-10089
▁160	-10090
▁Tunisie	-10091
▁entraîne	-10092
▁casino	-10093
▁gouvern	-10094
▁ger	-10095
grès	-10096
oxyd	-10097
▁librement	-10098
inscrit	-10099
▁bienvenue	-10100
relle	-10101
▁cherchent	-10102
ulations	-10103
▁finition	-10104
▁favorable	-10105
▁hau	-10106
▁ventil	-10107
faits	-10108
▁réalisateur	-10109
ignons	-10110
âteaux	-10111
▁adaptées	-10112
▁guér	-10113
▁chats	-10114
▁Arts	-10115
▁PME	-10116
▁elect	-10117
▁pouvaient	-10118
▁paru	-10119
▁chatte	-10120
▁obligation	-10121
▁façons	-10122
▁parlent	-10123
▁laine	-10124
▁Viv	-10125
achet	-10126
lip	-10127
▁Cours	-10128
▁malades	-10129
▁excl	-10130
▁agit	-10131
▁tenant	-10132
▁nationaux	-10133
péré	-10134
▁douze	-10135
▁Catégories	-10136
ero	-10137
pection	-10138
individu	-10139
▁Règ	-10140
▁RP	-10141
pent	-10142
hin	-10143
▁autorisation	-10144
▁règne	-10145
▁Surtout	-10146
▁tir	-10147
▁Hommes	-10148
▁agent	-10149
ound	-10150
▁Vide	-10151
▁tombé	-10152
▁oeuvres	-10153
tilles	-10154
▁permettront	-10155
▁citoyen	-10156
▁déplacements	-10157
▁;)	-10158
horiz	-10159
▁perso	-10160
▁verts	-10161
êle	-10162
▁combinaison	-10163
▁maill	-10164
▁intime	-10165
DU	-10166
▁goûts	-10167
▁relais	-10168
▁detail	-10169
▁facteur	-10170
▁enqu	-10171
orientation	-10172
▁synthèse	-10173
ied	-10174
▁Bru	-10175
▁impéra	-10176
▁rideaux	-10177
▁décol	-10178
▁management	-10179
▁hall	-10180
▁béton	-10181
autonomie	-10182
▁Orig	-10183
▁file	-10184
▁TVA	-10185
▁Cliquez	-10186
iff	-10187
▁francs	-10188
ulteurs	-10189
Agence	-10190
interro	-10191
▁existent	-10192
▁voisin	-10193
▁chanteur	-10194
▁prétend	-10195
▁miel	-10196
▁Sta	-10197
▁Stéphane	-10198
);	-10199
▁expositions	-10200
▁commencent	-10201
allenge	-10202
▁troupe	-10203
▁répand	-10204
▁matériels	-10205
ware	-10206
▁arbit	-10207
▁Rog	-10208
▁épau	-10209
augmentation	-10210
▁préférence	-10211
hu	-10212
▁habituellement	-10213
ords	-10214
othérapie	-10215
▁concasseur	-10216
entine	-10217
atom	-10218
▁MP	-10219
▁mesurer	-10220
acces	-10221
▁sonore	-10222
▁Wiki	-10223
▁fermer	-10224
▁console	-10225
▁pensent	-10226
ventions	-10227
▁élégant	-10228
érée	-10229
ova	-10230
▁aides	-10231
▁Num	-10232
▁géographique	-10233
▁ouverts	-10234
▁insuffis	-10235
▁libération	-10236
▁2001	-10237
▁Roi	-10238
hérence	-10239
icité	-10240
▁chaînes	-10241
uts	-10242
▁Concernant	-10243
▁présentées	-10244
▁visibilité	-10245
▁soupe	-10246
▁issu	-10247
▁croise	-10248
inant	-10249
▁Lot	-10250
▁incon	-10251
▁sportives	-10252
▁intr	-10253
▁farine	-10254
sives	-10255
▁Veu	-10256
crivez	-10257
una	-10258
41	-10259
lem	-10260
umeurs	-10261
▁humeur	-10262
▁déclare	-10263
▁milieux	-10264
Bas	-10265
▁cui	-10266
▁MO	-10267
▁bor	-10268
▁sangu	-10269
▁sacré	-10270
▁show	-10271
▁panneau	-10272
urés	-10273
▁balcon	-10274
▁nettoyer	-10275
▁souple	-10276
▁chargée	-10277
çade	-10278
▁masque	-10279
▁BD	-10280
▁classé	-10281
▁lancée	-10282
▁Don	-10283
▁(8	-10284
▁140	-10285
▁struct	-10286
▁intégrer	-10287
▁chaudi	-10288
▁génie	-10289
▁mené	-10290
▁énergies	-10291
ness	-10292
▁dys	-10293
▁mos	-10294
relage	-10295
roi	-10296
▁graines	-10297
cope	-10298
attra	-10299
▁mauvaises	-10300
▁canton	-10301
▁Quels	-10302
▁Turquie	-10303
eck	-10304
élas	-10305
▁Corse	-10306
▁satell	-10307
▁justifier	-10308
▁intervient	-10309
▁épreuve	-10310
▁députés	-10311
▁leaders	-10312
▁comprennent	-10313
gers	-10314
ipp	-10315
▁faim	-10316
▁traits	-10317
▁parlant	-10318
▁Os	-10319
▁confirmation	-10320
▁remarqué	-10321
▁Fr	-10322
▁raisonnable	-10323
▁Cr	-10324
▁emplacement	-10325
extra	-10326
▁(9	-10327
▁2013.	-10328
inverse	-10329
▁citron	-10330
▁chère	-10331
terieur	-10332
▁Dur	-10333
▁Nat	-10334
attendre	-10335
harm	-10336
▁Thierry	-10337
qua	-10338
▁cock	-10339
active	-10340
onnage	-10341
43	-10342
▁promis	-10343
▁esprits	-10344
▁évoque	-10345
▁Bé	-10346
▁provin	-10347
agnies	-10348
▁ceinture	-10349
▁Association	-10350
▁absence	-10351
▁imaginer	-10352
▁responsabilités	-10353
▁fes	-10354
▁dégâts	-10355
▁fantastique	-10356
ctif	-10357
▁rapproche	-10358
▁livré	-10359
PL	-10360
▁impré	-10361
▁2012.	-10362
isté	-10363
▁Sign	-10364
▁Sm	-10365
tan	-10366
▁sols	-10367
ild	-10368
▁EX	-10369
rict	-10370
énager	-10371
lage	-10372
▁quinze	-10373
inal	-10374
▁départements	-10375
▁Gau	-10376
▁Nap	-10377
▁chirurg	-10378
▁contactez	-10379
▁appartements	-10380
▁Do	-10381
chestre	-10382
▁dame	-10383
tex	-10384
▁ens	-10385
habit	-10386
▁info	-10387
tesse	-10388
▁exercer	-10389
▁grav	-10390
▁Cra	-10391
▁pince	-10392
▁monument	-10393
▁Denis	-10394
▁envelopp	-10395
▁Cit	-10396
aurai	-10397
▁Ball	-10398
56	-10399
uche	-10400
wood	-10401
▁caractères	-10402
crite	-10403
organiser	-10404
atti	-10405
▁parcs	-10406
▁pratiquement	-10407
▁campagnes	-10408
abs	-10409
▁Hall	-10410
uf	-10411
▁Ép	-10412
)...	-10413
back	-10414
▁implant	-10415
▁musical	-10416
▁efficacement	-10417
ocats	-10418
▁Ep	-10419
▁Chef	-10420
▁Trouvez	-10421
▁rechercher	-10422
▁inférieur	-10423
▁aperçu	-10424
▁fromage	-10425
▁bil	-10426
riment	-10427
▁légales	-10428
▁appels	-10429
amitié	-10430
▁répertoire	-10431
ortée	-10432
▁gastr	-10433
▁retenir	-10434
▁délicate	-10435
▁pauvreté	-10436
▁affi	-10437
iterranée	-10438
ennies	-10439
▁degrés	-10440
CL	-10441
ere	-10442
▁Vendre	-10443
▁dieu	-10444
occupe	-10445
épreuve	-10446
▁latin	-10447
▁laï	-10448
▁tas	-10449
▁adore	-10450
uu	-10451
▁précisé	-10452
▁West	-10453
erreur	-10454
▁stable	-10455
▁israéli	-10456
yo	-10457
ona	-10458
▁éducation	-10459
utilité	-10460
▁preuves	-10461
▁uni	-10462
▁animé	-10463
▁réfléch	-10464
▁créateur	-10465
▁Etu	-10466
piers	-10467
▁jouent	-10468
▁consécu	-10469
▁envisage	-10470
▁incom	-10471
▁fausse	-10472
▁usine	-10473
▁ministres	-10474
▁700	-10475
▁nettement	-10476
▁ath	-10477
▁origine	-10478
▁pertes	-10479
▁reine	-10480
uten	-10481
▁copi	-10482
▁(+	-10483
▁77	-10484
▁PH	-10485
not	-10486
▁Docu	-10487
▁Améric	-10488
▁golf	-10489
▁marine	-10490
anée	-10491
▁régionales	-10492
▁Frédéric	-10493
/12	-10494
▁fondé	-10495
inateurs	-10496
Une	-10497
ommée	-10498
▁lan	-10499
onnet	-10500
abelle	-10501
▁aluminium	-10502
▁Imm	-10503
▁religieuse	-10504
▁observer	-10505
usine	-10506
▁similaires	-10507
▁Telecharger	-10508
▁clôture	-10509
jac	-10510
raux	-10511
▁défend	-10512
▁lampe	-10513
▁Juste	-10514
itz	-10515
oigner	-10516
▁Tal	-10517
▁carbone	-10518
empêcher	-10519
▁décennies	-10520
▁régul	-10521
▁rattra	-10522
▁vieilles	-10523
▁législation	-10524
▁obtient	-10525
▁délib	-10526
▁administrative	-10527
▁courts	-10528
▁orth	-10529
▁Vit	-10530
queur	-10531
▁négociations	-10532
▁frau	-10533
▁Système	-10534
▁défaite	-10535
apparition	-10536
▁Conditions	-10537
▁Gérard	-10538
entendre	-10539
▁2007,	-10540
▁]	-10541
▁cliquer	-10542
obligation	-10543
pus	-10544
cile	-10545
▁pseudo	-10546
▁expression	-10547
▁Div	-10548
▁réfugiés	-10549
▁romans	-10550
MC	-10551
turb	-10552
▁gré	-10553
▁juger	-10554
feuille	-10555
habitation	-10556
▁(18	-10557
▁apparence	-10558
▁entraîner	-10559
▁cog	-10560
▁vivement	-10561
outez	-10562
▁formé	-10563
intég	-10564
agas	-10565
▁»)	-10566
térieure	-10567
acles	-10568
cesse	-10569
▁registre	-10570
▁due	-10571
▁58	-10572
▁pira	-10573
▁Conférence	-10574
▁lune	-10575
▁géant	-10576
▁consommateur	-10577
▁élevés	-10578
▁spl	-10579
▁personnalités	-10580
▁atteinte	-10581
▁financer	-10582
▁apparaissent	-10583
▁rapporte	-10584
ONU	-10585
▁recycl	-10586
▁éth	-10587
▁diminuer	-10588
Av	-10589
Internet	-10590
▁suppose	-10591
▁expertise	-10592
atou	-10593
▁faciles	-10594
▁État	-10595
▁italienne	-10596
▁hein	-10597
▁resté	-10598
altitude	-10599
▁régulière	-10600
acances	-10601
▁soutenu	-10602
▁maternelle	-10603
▁sièges	-10604
▁mecs	-10605
▁Jui	-10606
▁Professionn	-10607
▁gend	-10608
▁hautes	-10609
▁8,	-10610
▁Moul	-10611
▁race	-10612
▁sanitaire	-10613
ORT	-10614
▁Veuillez	-10615
hip	-10616
lies	-10617
tième	-10618
▁coffre	-10619
▁Journée	-10620
oristes	-10621
▁fabriquer	-10622
amer	-10623
▁crédits	-10624
▁analyses	-10625
plan	-10626
aigne	-10627
▁Test	-10628
▁Réunion	-10629
▁Cir	-10630
▁rab	-10631
formation	-10632
▁voulons	-10633
▁sembler	-10634
oises	-10635
▁pilotes	-10636
alem	-10637
père	-10638
▁policiers	-10639
▁similaire	-10640
élaboration	-10641
▁archives	-10642
▁inutile	-10643
▁Bob	-10644
▁Auteur	-10645
▁crime	-10646
▁Front	-10647
▁papa	-10648
isson	-10649
▁immeuble	-10650
▁photographies	-10651
▁99	-10652
▁réjou	-10653
▁abst	-10654
ops	-10655
arbre	-10656
oivent	-10657
▁bouger	-10658
teau	-10659
▁fidèles	-10660
orant	-10661
-18	-10662
▁condamné	-10663
ela	-10664
▁inaug	-10665
▁marquer	-10666
rr	-10667
▁artic	-10668
▁optique	-10669
▁intervenir	-10670
▁armée	-10671
▁pli	-10672
▁hect	-10673
):	-10674
▁vive	-10675
▁Franc	-10676
▁façade	-10677
▁convainc	-10678
apporter	-10679
▁passages	-10680
▁Laur	-10681
▁blanches	-10682
▁Sant	-10683
AA	-10684
▁souverain	-10685
▁Portug	-10686
entrepren	-10687
▁Mah	-10688
▁avocat	-10689
▁garantit	-10690
▁hydro	-10691
▁combattre	-10692
......	-10693
▁dict	-10694
▁dîner	-10695
▁FN	-10696
▁Gaz	-10697
▁Pou	-10698
▁foc	-10699
abe	-10700
▁acceptez	-10701
▁ec	-10702
▁chimiques	-10703
▁boucle	-10704
▁contribue	-10705
▁enthousias	-10706
uisent	-10707
▁stations	-10708
▁vaisse	-10709
eler	-10710
▁pharmacie	-10711
▁Fac	-10712
▁prince	-10713
▁trous	-10714
▁Normandie	-10715
▁gâteau	-10716
▁Rock	-10717
exer	-10718
▁sph	-10719
▁initiative	-10720
informatique	-10721
▁accepte	-10722
▁boissons	-10723
▁traditionnels	-10724
▁compagnies	-10725
▁dégrad	-10726
indépendance	-10727
▁Han	-10728
▁provis	-10729
▁tailles	-10730
oram	-10731
▁entreten	-10732
outh	-10733
océan	-10734
bis	-10735
▁doubl	-10736
▁up	-10737
domad	-10738
▁rav	-10739
leurs	-10740
▁Chem	-10741
▁vété	-10742
BA	-10743
▁Ur	-10744
▁zéro	-10745
aution	-10746
▁Mini	-10747
▁Berlin	-10748
accro	-10749
▁musiques	-10750
▁transparence	-10751
étend	-10752
▁retrouvent	-10753
▁Chacun	-10754
emplacement	-10755
▁Dec	-10756
▁pét	-10757
▁bière	-10758
▁garanties	-10759
▁fiscale	-10760
▁qualifié	-10761
VA	-10762
30.	-10763
▁py	-10764
▁trent	-10765
▁diversi	-10766
uiss	-10767
▁bur	-10768
ebdomad	-10769
▁couvre	-10770
arium	-10771
▁survie	-10772
▁case	-10773
▁bête	-10774
▁FC	-10775
▁espoir	-10776
▁book	-10777
▁édi	-10778
▁modifié	-10779
▁débuts	-10780
▁Bruno	-10781
▁explications	-10782
▁nourrir	-10783
▁accords	-10784
ciation	-10785
▁suivie	-10786
érarch	-10787
▁couches	-10788
▁bleue	-10789
▁servent	-10790
aix	-10791
Alpes	-10792
▁Tel	-10793
▁gâ	-10794
diens	-10795
▁clavier	-10796
ariste	-10797
▁FR	-10798
work	-10799
▁Sams	-10800
effectuer	-10801
▁soix	-10802
▁accompagnement	-10803
▁prouver	-10804
▁Type	-10805
▁profitez	-10806
amor	-10807
▁abond	-10808
▁Vente	-10809
▁payant	-10810
▁lentement	-10811
▁mobilisation	-10812
eto	-10813
▁cell	-10814
▁consacrée	-10815
mètre	-10816
▁Wash	-10817
▁voila	-10818
▁réduite	-10819
▁poches	-10820
▁autonome	-10821
▁monuments	-10822
▁emm	-10823
URE	-10824
▁Bos	-10825
édrale	-10826
▁Ram	-10827
▁curiosité	-10828
nel	-10829
▁CC	-10830
▁conformité	-10831
essai	-10832
▁Sl	-10833
▁mait	-10834
▁indépendants	-10835
telier	-10836
▁incar	-10837
terr	-10838
Mich	-10839
▁Play	-10840
▁personnellement	-10841
améric	-10842
▁qualif	-10843
▁paquet	-10844
ovation	-10845
▁linguis	-10846
▁autorisé	-10847
▁Catherine	-10848
toires	-10849
hébergement	-10850
PR	-10851
UI	-10852
ancy	-10853
▁hal	-10854
▁souhaité	-10855
▁ON	-10856
▁bactéri	-10857
66	-10858
▁Source	-10859
▁1)	-10860
adel	-10861
tisan	-10862
▁destinées	-10863
▁quad	-10864
▁Colomb	-10865
▁couvrir	-10866
ize	-10867
▁10.	-10868
▁enle	-10869
▁séparation	-10870
éen	-10871
▁???	-10872
▁digit	-10873
▁souviens	-10874
isées	-10875
▁édit	-10876
▁génial	-10877
arriver	-10878
▁jolies	-10879
▁généraux	-10880
▁arché	-10881
aissant	-10882
▁communs	-10883
▁échelle	-10884
▁Vu	-10885
▁empê	-10886
▁192	-10887
▁passées	-10888
tics	-10889
▁Mali	-10890
▁arb	-10891
▁Albert	-10892
▁élar	-10893
▁situés	-10894
▁cuire	-10895
▁perturb	-10896
assent	-10897
▁noy	-10898
▁papiers	-10899
▁puissante	-10900
▁violences	-10901
▁découp	-10902
▁civils	-10903
▁surfaces	-10904
▁surprises	-10905
ecture	-10906
▁Hor	-10907
▁67	-10908
▁Parfois	-10909
orations	-10910
▁::	-10911
▁mental	-10912
lymp	-10913
233	-10914
▁intéressé	-10915
▁spe	-10916
▁touché	-10917
▁ajus	-10918
▁massac	-10919
▁récent	-10920
▁balle	-10921
atar	-10922
opinion	-10923
IQUE	-10924
Paul	-10925
▁72	-10926
▁désert	-10927
▁révé	-10928
▁susceptible	-10929
▁absent	-10930
▁livrer	-10931
fil	-10932
▁jazz	-10933
▁constitution	-10934
▁préparé	-10935
▁actionn	-10936
▁libertés	-10937
▁spont	-10938
▁Boul	-10939
▁disques	-10940
▁Météo	-10941
essayer	-10942
▁alé	-10943
▁syndicats	-10944
lles	-10945
▁subir	-10946
▁directrice	-10947
▁thématiques	-10948
▁10,	-10949
▁rendement	-10950
▁remporté	-10951
▁concevoir	-10952
▁vuln	-10953
▁soigne	-10954
▁chang	-10955
▁heureusement	-10956
▁gig	-10957
▁considérée	-10958
▁Jon	-10959
▁gueule	-10960
▁sensations	-10961
▁TF	-10962
▁issue	-10963
▁linge	-10964
gnes	-10965
▁payé	-10966
▁cigare	-10967
▁psychi	-10968
▁perspectives	-10969
▁indiquer	-10970
▁apporté	-10971
▁Samsung	-10972
Cal	-10973
▁parait	-10974
président	-10975
▁Hu	-10976
****	-10977
cules	-10978
▁administratif	-10979
▁occupe	-10980
▁CM	-10981
adoption	-10982
rot	-10983
duites	-10984
sp	-10985
aki	-10986
▁crimes	-10987
▁individuel	-10988
▁perception	-10989
zo	-10990
anique	-10991
▁Kit	-10992
▁chrétien	-10993
▁inférieure	-10994
▁préju	-10995
▁ritu	-10996
▁Appartement	-10997
▁Dimanche	-10998
entir	-10999
▁figur	-11000
versité	-11001
▁pouces	-11002
▁racines	-11003
▁migrants	-11004
▁PV	-11005
▁mature	-11006
▁numéros	-11007
▁frappe	-11008
uent	-11009
▁déposé	-11010
▁DI	-11011
mées	-11012
▁Ind	-11013
▁centi	-11014
baye	-11015
rions	-11016
▁détruire	-11017
▁criti	-11018
amis	-11019
▁attendent	-11020
locu	-11021
▁inoubli	-11022
▁africaine	-11023
▁Four	-11024
▁pollution	-11025
olly	-11026
menter	-11027
▁saurait	-11028
▁écar	-11029
▁Gold	-11030
▁Royal	-11031
iforn	-11032
▁recue	-11033
▁Musique	-11034
▁colonne	-11035
▁coloris	-11036
▁variable	-11037
▁technologique	-11038
▁cyl	-11039
▁initiale	-11040
▁%.	-11041
▁assist	-11042
▁blonde	-11043
▁capture	-11044
▁perles	-11045
esseur	-11046
▁pin	-11047
▁XIXe	-11048
ccident	-11049
▁illust	-11050
▁disposent	-11051
accent	-11052
▁thèse	-11053
▁liaison	-11054
osex	-11055
▁problématique	-11056
▁informé	-11057
çants	-11058
▁_	-11059
html	-11060
▁Contactez	-11061
▁ml	-11062
▁passionnés	-11063
cieuses	-11064
cro	-11065
▁journaux	-11066
▁Contrairement	-11067
▁variés	-11068
bou	-11069
▁centaine	-11070
▁Quelles	-11071
▁hiérarch	-11072
▁53	-11073
rass	-11074
▁applicables	-11075
onnent	-11076
▁saura	-11077
▁sui	-11078
▁jouets	-11079
▁volant	-11080
▁Corée	-11081
▁libérer	-11082
▁debout	-11083
▁adoré	-11084
▁internes	-11085
▁Not	-11086
▁Simon	-11087
▁forêts	-11088
▁progresser	-11089
▁noires	-11090
▁compagnon	-11091
▁Communication	-11092
▁bret	-11093
▁réagir	-11094
▁mentale	-11095
ources	-11096
▁têtes	-11097
▁attitude	-11098
▁Meilleur	-11099
inéa	-11100
éroï	-11101
▁bénéfices	-11102
▁chor	-11103
-7	-11104
▁délégation	-11105
▁impôts	-11106
▁Amb	-11107
▁communautaire	-11108
shirt	-11109
▁Leg	-11110
celone	-11111
▁neur	-11112
reau	-11113
vice	-11114
▁ordres	-11115
▁éclair	-11116
▁révision	-11117
▁silen	-11118
affichage	-11119
▁harmonie	-11120
elin	-11121
oureuse	-11122
And	-11123
▁descente	-11124
▁communications	-11125
▁Constitution	-11126
ctivité	-11127
▁grandi	-11128
▁plainte	-11129
▁Ir	-11130
▁Bah	-11131
étudi	-11132
clusion	-11133
▁Washington	-11134
▁CS	-11135
▁wh	-11136
▁Défense	-11137
▁Personne	-11138
▁Côté	-11139
▁Aub	-11140
autor	-11141
▁docteur	-11142
▁opérateurs	-11143
▁mad	-11144
▁dons	-11145
engager	-11146
▁augmenté	-11147
▁Allez	-11148
▁Rendez	-11149
▁surement	-11150
déc	-11151
▁affirmé	-11152
▁traités	-11153
▁baie	-11154
▁serrurier	-11155
aisie	-11156
▁publie	-11157
▁indispensables	-11158
avi	-11159
▁francophone	-11160
accéder	-11161
▁intu	-11162
▁Arri	-11163
▁Made	-11164
▁adopter	-11165
mpes	-11166
▁nécessairement	-11167
▁vapeur	-11168
▁Index	-11169
▁urgence	-11170
▁faç	-11171
▁Temps	-11172
Louis	-11173
▁impati	-11174
▁culturels	-11175
▁poignée	-11176
éclairage	-11177
rad	-11178
▁oblige	-11179
/1	-11180
kg	-11181
▁horm	-11182
▁robot	-11183
▁multitude	-11184
unique	-11185
vais	-11186
▁temple	-11187
▁Vin	-11188
▁Camb	-11189
ERS	-11190
▁tiré	-11191
ainement	-11192
gueur	-11193
▁parisienne	-11194
voi	-11195
aisses	-11196
▁>>	-11197
▁Pres	-11198
▁mystère	-11199
▁ikea	-11200
▁adolescents	-11201
▁DS	-11202
▁hard	-11203
▁Sen	-11204
Ob	-11205
▁mince	-11206
▁Dro	-11207
▁Algérie	-11208
▁plaques	-11209
▁entra	-11210
▁business	-11211
▁51	-11212
▁précédentes	-11213
▁Neu	-11214
▁Médi	-11215
hh	-11216
▁8.	-11217
rose	-11218
▁bords	-11219
▁éro	-11220
Paris	-11221
lation	-11222
▁engage	-11223
▁rayons	-11224
dictions	-11225
▁pédagogiques	-11226
▁!!!!	-11227
▁tennis	-11228
▁Canal	-11229
LA	-11230
▁monté	-11231
▁concernent	-11232
▁Point	-11233
▁révol	-11234
AND	-11235
▁cann	-11236
yons	-11237
▁loint	-11238
▁joindre	-11239
▁socialiste	-11240
▁initiatives	-11241
▁choisis	-11242
▁marchandises	-11243
▁corpo	-11244
▁Produits	-11245
▁transforme	-11246
▁égal	-11247
▁civilisation	-11248
.),	-11249
aha	-11250
quemment	-11251
▁déclarations	-11252
▁constamment	-11253
▁sn	-11254
expé	-11255
▁militants	-11256
rue	-11257
▁enlever	-11258
ED	-11259
▁orange	-11260
gués	-11261
▁Intro	-11262
▁roulant	-11263
▁jury	-11264
▁Park	-11265
effort	-11266
▁angle	-11267
astien	-11268
▁protest	-11269
▁Riv	-11270
aim	-11271
▁huiles	-11272
▁législatives	-11273
▁priori	-11274
▁Az	-11275
▁étudier	-11276
00,	-11277
rection	-11278
▁attent	-11279
▁précédents	-11280
▁interrog	-11281
▁??	-11282
▁ciné	-11283
appliquer	-11284
▁Finalement	-11285
rap	-11286
▁Fonds	-11287
▁échanger	-11288
▁lesb	-11289
▁out	-11290
▁précé	-11291
rases	-11292
ols	-11293
▁War	-11294
▁fabricants	-11295
iciel	-11296
▁stages	-11297
▁féminine	-11298
écart	-11299
▁Los	-11300
▁pleins	-11301
▁possession	-11302
▁filière	-11303
▁demandent	-11304
▁juridiques	-11305
▁échéant	-11306
▁spectateurs	-11307
INT	-11308
▁distingue	-11309
▁fusion	-11310
▁optimale	-11311
UT	-11312
▁gloire	-11313
▁batt	-11314
▁gorge	-11315
▁reconnue	-11316
opport	-11317
▁Réser	-11318
▁Hong	-11319
▁pomme	-11320
hal	-11321
▁Public	-11322
▁suspension	-11323
endo	-11324
▁exclusif	-11325
▁laver	-11326
▁extension	-11327
émer	-11328
▁Bravo	-11329
▁persu	-11330
▁Data	-11331
▁plongée	-11332
ails	-11333
▁gardien	-11334
▁concepts	-11335
▁Mexique	-11336
oria	-11337
▁riv	-11338
▁signer	-11339
▁strictement	-11340
gas	-11341
arth	-11342
▁exprimer	-11343
aka	-11344
▁fibre	-11345
ury	-11346
orteur	-11347
▁Classi	-11348
▁cinqui	-11349
▁maquillage	-11350
▁FRAN	-11351
▁ny	-11352
▁polyval	-11353
▁Rab	-11354
▁formidable	-11355
▁bizarre	-11356
▁rémunération	-11357
▁immobilière	-11358
▁coordination	-11359
▁dégust	-11360
▁patience	-11361
ovi	-11362
▁légitime	-11363
had	-11364
▁rur	-11365
▁éco	-11366
▁Appr	-11367
▁salaires	-11368
▁Asi	-11369
▁aussitôt	-11370
▁résolu	-11371
▁Jou	-11372
DG	-11373
abeth	-11374
▁cheminée	-11375
▁épaules	-11376
▁passagers	-11377
▁Vall	-11378
▁Hist	-11379
refour	-11380
▁Qualité	-11381
▁encourage	-11382
iées	-11383
▁subi	-11384
▁Arn	-11385
▁propag	-11386
▁forums	-11387
ponsable	-11388
▁enrich	-11389
▁Croix	-11390
▁simult	-11391
▁Sab	-11392
icales	-11393
▁délicieux	-11394
▁vign	-11395
▁bateaux	-11396
▁More	-11397
lège	-11398
▁reconnaît	-11399
▁compens	-11400
▁soutient	-11401
▁toilette	-11402
▁biblioth	-11403
▁Autant	-11404
▁désirez	-11405
itte	-11406
▁médit	-11407
▁usages	-11408
▁enseignement	-11409
pices	-11410
▁continuent	-11411
olymp	-11412
IIIe	-11413
▁coiffure	-11414
▁désigne	-11415
▁faisaient	-11416
▁Européenne	-11417
ensive	-11418
rètes	-11419
▁divin	-11420
version	-11421
▁pc	-11422
▁exemplaires	-11423
▁solo	-11424
▁rez	-11425
▁précédemment	-11426
:5	-11427
▁flot	-11428
▁Ajouter	-11429
▁protéines	-11430
▁milliard	-11431
dication	-11432
▁ménages	-11433
▁traditions	-11434
▁protège	-11435
▁Simp	-11436
▁mû	-11437
omo	-11438
▁plait	-11439
rances	-11440
utée	-11441
▁accent	-11442
▁planification	-11443
▁dun	-11444
éditeur	-11445
▁amende	-11446
▁auxquelles	-11447
▁listes	-11448
▁occasionn	-11449
▁AG	-11450
gel	-11451
▁),	-11452
▁spéciales	-11453
lées	-11454
▁véritables	-11455
TR	-11456
▁intéresse	-11457
▁infrastructures	-11458
▁brou	-11459
▁Lar	-11460
impose	-11461
▁couss	-11462
▁témoins	-11463
▁Actualités	-11464
inos	-11465
Mais	-11466
▁forment	-11467
▁tuy	-11468
▁étonnant	-11469
▁apparemment	-11470
▁bad	-11471
▁répondent	-11472
▁CV	-11473
reurs	-11474
▁égard	-11475
▁reposer	-11476
▁Vendredi	-11477
acifique	-11478
▁contro	-11479
▁légale	-11480
▁tabac	-11481
▁laissent	-11482
▁Protection	-11483
▁Manuel	-11484
olée	-11485
▁Agence	-11486
▁Ensemble	-11487
▁Réseau	-11488
acts	-11489
aurer	-11490
▁€.	-11491
▁prendra	-11492
▁fiction	-11493
▁tue	-11494
▁résister	-11495
▁pourcent	-11496
▁consommer	-11497
ulsion	-11498
▁WC	-11499
▁incor	-11500
▁Seul	-11501
▁réside	-11502
▁recomm	-11503
▁instructions	-11504
▁réno	-11505
▁approfon	-11506
▁2006,	-11507
79	-11508
▁armées	-11509
Angleterre	-11510
▁Chap	-11511
clés	-11512
▁Soit	-11513
▁volumes	-11514
▁actuelles	-11515
▁autonomie	-11516
▁créateurs	-11517
empêche	-11518
▁profité	-11519
thur	-11520
▁130	-11521
▁Ger	-11522
▁fidélité	-11523
▁fat	-11524
▁appuy	-11525
asy	-11526
▁9,	-11527
▁Justice	-11528
▁Donald	-11529
▁ème	-11530
hôtes	-11531
▁coins	-11532
▁épous	-11533
▁Alexandre	-11534
▁symbolique	-11535
▁pape	-11536
▁duquel	-11537
'.	-11538
alors	-11539
▁devenus	-11540
▁rassemble	-11541
▁charm	-11542
▁chinoise	-11543
▁étranger	-11544
▁protocole	-11545
▁thématique	-11546
-200	-11547
geant	-11548
ancée	-11549
▁récentes	-11550
▁nob	-11551
▁vif	-11552
▁récupération	-11553
▁conjoint	-11554
expliquer	-11555
▁mout	-11556
▁Pin	-11557
▁verse	-11558
mètres	-11559
▁Restaur	-11560
▁Var	-11561
▁défic	-11562
attends	-11563
▁prévus	-11564
▁feux	-11565
▁tele	-11566
▁Congo	-11567
▁souligné	-11568
▁joint	-11569
▁Ton	-11570
ster	-11571
orial	-11572
▁mathématiques	-11573
▁adhérents	-11574
▁Bac	-11575
▁Juin	-11576
▁écrans	-11577
wan	-11578
▁bouc	-11579
▁maig	-11580
▁réserves	-11581
▁magist	-11582
▁Consultez	-11583
▁publications	-11584
tionné	-11585
▁Série	-11586
tumes	-11587
oiement	-11588
ANS	-11589
▁pâtis	-11590
▁Tant	-11591
▁correspondent	-11592
ason	-11593
▁sécurisé	-11594
▁Jour	-11595
rip	-11596
▁scru	-11597
▁Bibliothèque	-11598
▁exces	-11599
▁Marcel	-11600
▁prochainement	-11601
▁congrès	-11602
▁psychologie	-11603
▁restait	-11604
expertise	-11605
▁cinquième	-11606
▁Méditerranée	-11607
▁naz	-11608
Te	-11609
▁débute	-11610
mide	-11611
avère	-11612
%)	-11613
▁rug	-11614
▁actuels	-11615
ropol	-11616
▁Smart	-11617
▁anglaise	-11618
chers	-11619
▁respecte	-11620
▁sérieusement	-11621
▁sep	-11622
ysique	-11623
▁occupé	-11624
▁navire	-11625
acées	-11626
▁Congrès	-11627
▁Dar	-11628
épar	-11629
▁investisseurs	-11630
▁agressi	-11631
▁participant	-11632
▁René	-11633
▁albums	-11634
▁Aug	-11635
▁artistiques	-11636
▁ratta	-11637
▁Maj	-11638
telle	-11639
▁Blu	-11640
▁tournant	-11641
▁Novembre	-11642
▁réci	-11643
▁Gilles	-11644
▁Foot	-11645
▁express	-11646
roirs	-11647
▁2000,	-11648
▁blessés	-11649
▁Canapé	-11650
CES	-11651
▁mariée	-11652
fiez	-11653
raits	-11654
▁trésor	-11655
Académie	-11656
▁engagements	-11657
▁verd	-11658
▁rôles	-11659
owe	-11660
▁jean	-11661
jo	-11662
▁constaté	-11663
dice	-11664
▁écou	-11665
▁trompe	-11666
▁redé	-11667
onnerie	-11668
▁néglig	-11669
▁mè	-11670
omètre	-11671
▁mécanisme	-11672
▁sexuel	-11673
▁76	-11674
▁nulle	-11675
▁disparaître	-11676
▁regardant	-11677
▁réunis	-11678
▁consentement	-11679
▁étonn	-11680
Ne	-11681
▁conçue	-11682
▁King	-11683
▁imprimé	-11684
▁naviguer	-11685
açant	-11686
▁Sujet	-11687
intégrer	-11688
nées	-11689
▁Inde	-11690
▁Yves	-11691
▁stationnement	-11692
▁présidence	-11693
▁188	-11694
▁blessures	-11695
rira	-11696
▁toilettes	-11697
▁validation	-11698
▁arrondissement	-11699
▁délicat	-11700
▁réalisations	-11701
▁AB	-11702
tinéraire	-11703
▁injus	-11704
▁sexuelles	-11705
ulg	-11706
yste	-11707
ommaire	-11708
▁diriger	-11709
▁schéma	-11710
ank	-11711
▁hâte	-11712
▁offerts	-11713
▁accompagnée	-11714
▁tunis	-11715
▁rigueur	-11716
▁défauts	-11717
TP	-11718
ila	-11719
▁pourriez	-11720
▁tiennent	-11721
▁chaudière	-11722
pu	-11723
octur	-11724
▁qualification	-11725
▁souffre	-11726
ébastien	-11727
iture	-11728
▁amené	-11729
ogo	-11730
▁179	-11731
▁Montre	-11732
▁musées	-11733
▁Jeune	-11734
▁cahier	-11735
▁discré	-11736
▁détourn	-11737
▁respectivement	-11738
▁cougar	-11739
▁tourné	-11740
▁veste	-11741
▁Victor	-11742
▁libéral	-11743
▁Barcelone	-11744
▁Sophie	-11745
astre	-11746
▁refusé	-11747
▁passionné	-11748
ouvant	-11749
organ	-11750
▁2020	-11751
▁suffisant	-11752
olérance	-11753
▁ressentir	-11754
Ivoire	-11755
horizon	-11756
-20	-11757
▁BM	-11758
tisé	-11759
▁cuill	-11760
lieu	-11761
▁Lois	-11762
▁dirait	-11763
▁intervenants	-11764
sec	-11765
▁Spe	-11766
▁coopéra	-11767
▁cocktail	-11768
▁probable	-11769
Bl	-11770
▁révélé	-11771
explique	-11772
▁iP	-11773
▁marquée	-11774
▁Pu	-11775
acieux	-11776
▁attente	-11777
▁juifs	-11778
▁Compte	-11779
▁Afric	-11780
▁apres	-11781
▁ov	-11782
All	-11783
▁imper	-11784
vons	-11785
▁aidé	-11786
▁subs	-11787
pdf	-11788
adolesc	-11789
ducteurs	-11790
▁serre	-11791
▁Classe	-11792
▁romantique	-11793
▁taxes	-11794
cas	-11795
▁bénéficient	-11796
▁Miss	-11797
lien	-11798
▁POUR	-11799
ING	-11800
▁tranche	-11801
▁Associ	-11802
Israël	-11803
▁bourse	-11804
▁Archives	-11805
articles	-11806
becue	-11807
▁voler	-11808
▁2011.	-11809
▁réparer	-11810
▁RT	-11811
▁usagers	-11812
▁serveurs	-11813
")	-11814
▁guider	-11815
▁Matéri	-11816
▁Vacances	-11817
▁téléphonique	-11818
▁hectares	-11819
▁sois	-11820
▁seuil	-11821
▁falloir	-11822
▁discret	-11823
▁interprétation	-11824
▁russes	-11825
tein	-11826
▁afficher	-11827
▁débuter	-11828
▁glisser	-11829
▁circuits	-11830
▁fière	-11831
▁2)	-11832
▁ras	-11833
▁tirage	-11834
▁abonnement	-11835
▁représentations	-11836
sych	-11837
▁olymp	-11838
▁Grenoble	-11839
▁brillant	-11840
▁étrangère	-11841
▁remonte	-11842
François	-11843
▁crédi	-11844
▁pais	-11845
▁matériau	-11846
quage	-11847
érables	-11848
▁doctor	-11849
▁...)	-11850
▁cosmé	-11851
▁emmen	-11852
▁Gui	-11853
▁litres	-11854
▁HP	-11855
▁remplacé	-11856
▁carn	-11857
▁adversaire	-11858
▁planche	-11859
▁diminution	-11860
▁démarrage	-11861
▁devrez	-11862
▁Livraison	-11863
▁promenade	-11864
ev	-11865
intermédiaire	-11866
▁Rapport	-11867
▁Tourisme	-11868
▁Robe	-11869
▁devaient	-11870
▁évolutions	-11871
▁hospit	-11872
win	-11873
▁110	-11874
animal	-11875
▁ciném	-11876
▁Feu	-11877
▁plume	-11878
▁succession	-11879
cor	-11880
rui	-11881
▁renforcement	-11882
▁référencement	-11883
actifs	-11884
==	-11885
axe	-11886
gles	-11887
enfin	-11888
wn	-11889
▁Barb	-11890
▁estimé	-11891
mus	-11892
agiste	-11893
▁Bab	-11894
▁Bio	-11895
▁flam	-11896
▁montres	-11897
▁Ouest	-11898
▁courtes	-11899
atteindre	-11900
▁XVI	-11901
▁incluant	-11902
▁révéler	-11903
▁mn	-11904
get	-11905
aurez	-11906
▁Green	-11907
▁particulières	-11908
▁témoin	-11909
▁attirer	-11910
pire	-11911
opro	-11912
teste	-11913
▁laser	-11914
▁nations	-11915
▁religieuses	-11916
▁parts	-11917
armer	-11918
arités	-11919
▁Sorti	-11920
inale	-11921
▁traditionnelles	-11922
▁issues	-11923
.:	-11924
▁phrases	-11925
▁Caf	-11926
▁Peter	-11927
▁Vend	-11928
augmenter	-11929
enseur	-11930
▁contractu	-11931
▁Location	-11932
▁Conn	-11933
▁Gard	-11934
▁silh	-11935
▁soph	-11936
▁traî	-11937
▁bisous	-11938
▁goûter	-11939
éron	-11940
▁hôte	-11941
videmment	-11942
institu	-11943
▁gouvernements	-11944
▁intra	-11945
▁substitu	-11946
▁précon	-11947
Luc	-11948
▁conserve	-11949
▁vél	-11950
-9	-11951
▁hotel	-11952
▁terrorisme	-11953
map	-11954
▁présidente	-11955
▁TE	-11956
▁poète	-11957
Michel	-11958
assadeur	-11959
▁copropri	-11960
▁peintures	-11961
▁Sports	-11962
▁possèdent	-11963
cript	-11964
▁signaler	-11965
▁effectuée	-11966
▁best	-11967
▁Madrid	-11968
▁engagée	-11969
▁1999	-11970
▁célèbres	-11971
habil	-11972
▁cote	-11973
dam	-11974
▁fonctionnaires	-11975
neus	-11976
▁sauvegarde	-11977
▁vigil	-11978
rans	-11979
▁coque	-11980
▁soigner	-11981
▁fal	-11982
▁adapt	-11983
▁Catégorie	-11984
▁viend	-11985
▁choisit	-11986
IO	-11987
▁réveill	-11988
▁branches	-11989
glomération	-11990
▁franchise	-11991
▁traverse	-11992
cipation	-11993
▁Fils	-11994
meubles	-11995
▁verrez	-11996
dios	-11997
onnez	-11998
▁mineurs	-11999
▁Ry	-12000
amel	-12001
▁Modèle	-12002
▁statuts	-12003
ertes	-12004
▁décrire	-12005
▁Bâ	-12006
▁associée	-12007
▁fréquemment	-12008
▁Pot	-12009
00.	-12010
▁crainte	-12011
▁réunit	-12012
timent	-12013
▁cellule	-12014
▁maîtriser	-12015
▁incons	-12016
▁wc	-12017
▁drame	-12018
hos	-12019
▁Dig	-12020
▁noix	-12021
▁pneu	-12022
▁primor	-12023
▁phénomènes	-12024
▁foie	-12025
agnole	-12026
jeu	-12027
appli	-12028
uma	-12029
▁fonde	-12030
▁visuel	-12031
Esprit	-12032
▁Bad	-12033
essence	-12034
▁palette	-12035
▁free	-12036
▁techniciens	-12037
▁enregistrer	-12038
▁surviv	-12039
manie	-12040
cesseur	-12041
▁Ile	-12042
▁genres	-12043
observation	-12044
▁fiscal	-12045
▁entrées	-12046
▁sauvages	-12047
▁fût	-12048
▁fortune	-12049
▁âgé	-12050
▁entrain	-12051
▁delà	-12052
▁Den	-12053
édez	-12054
▁cac	-12055
▁contenir	-12056
▁50%	-12057
▁chapelle	-12058
prix	-12059
▁Mark	-12060
▁licenci	-12061
ternité	-12062
▁Mass	-12063
moiselle	-12064
▁correct	-12065
▁vole	-12066
▁Cul	-12067
▁taches	-12068
▁approxim	-12069
▁réfrig	-12070
▁George	-12071
▁saveurs	-12072
▁cardiaque	-12073
incl	-12074
▁blessé	-12075
ections	-12076
▁renseigner	-12077
▁manifeste	-12078
▁insol	-12079
▁appartenant	-12080
IIe	-12081
▁logistique	-12082
tera	-12083
▁Générale	-12084
▁pôle	-12085
aisant	-12086
▁rendant	-12087
▁espérons	-12088
▁Angleterre	-12089
▁visibles	-12090
▁visionn	-12091
▁tenues	-12092
angers	-12093
▁roue	-12094
▁sérén	-12095
▁technologiques	-12096
▁évènement	-12097
installe	-12098
▁parquet	-12099
▁stars	-12100
▁originales	-12101
▁majoritaire	-12102
ifi	-12103
▁couteau	-12104
fem	-12105
lit	-12106
68	-12107
▁Free	-12108
▁désagré	-12109
▁Sk	-12110
▁renouvellement	-12111
▁Las	-12112
oncent	-12113
▁texture	-12114
anteau	-12115
▁fondation	-12116
▁véritablement	-12117
▁évaluer	-12118
▁américaines	-12119
▁Auto	-12120
▁Faut	-12121
▁diffuser	-12122
▁pantalon	-12123
▁opposition	-12124
LES	-12125
▁Anglais	-12126
▁SS	-12127
économ	-12128
[/	-12129
▁coco	-12130
▁sagesse	-12131
▁provoque	-12132
▁investir	-12133
▁administratives	-12134
jeuner	-12135
▁Pay	-12136
▁sélectionné	-12137
▁tensions	-12138
▁ok	-12139
établir	-12140
FS	-12141
diversité	-12142
ander	-12143
Hôtel	-12144
▁trentaine	-12145
▁187	-12146
▁traverser	-12147
▁publiés	-12148
▁new	-12149
Sh	-12150
▁entourage	-12151
▁Aur	-12152
▁NO	-12153
▁séjourn	-12154
▁définitive	-12155
asis	-12156
▁Hier	-12157
▁fameuse	-12158
aucun	-12159
▁identifié	-12160
▁locations	-12161
▁majeurs	-12162
DT	-12163
▁comédie	-12164
▁!"	-12165
▁retourne	-12166
▁brevet	-12167
▁extérieurs	-12168
▁mixte	-12169
oniques	-12170
▁citation	-12171
▁panoram	-12172
▁Combien	-12173
▁Résid	-12174
▁canc	-12175
▁dirais	-12176
▁restre	-12177
▁spéciaux	-12178
lire	-12179
iales	-12180
ogène	-12181
▁épuis	-12182
ims	-12183
▁Capit	-12184
▁inconnu	-12185
▁ennemi	-12186
▁Portugal	-12187
▁perpétu	-12188
▁360	-12189
elez	-12190
Ecole	-12191
isant	-12192
▁descendre	-12193
▁vernis	-12194
▁obsc	-12195
▁accessoire	-12196
▁Gil	-12197
▁aveug	-12198
▁superbes	-12199
elé	-12200
rette	-12201
sen	-12202
▁spécialité	-12203
irent	-12204
rôle	-12205
▁cime	-12206
▁trouble	-12207
▁fournis	-12208
▁conclure	-12209
▁concurrents	-12210
▁("	-12211
▁Trop	-12212
▁robots	-12213
▁construite	-12214
▁Rol	-12215
▁las	-12216
▁Voyage	-12217
▁réflexions	-12218
Car	-12219
olive	-12220
▁mécanismes	-12221
AUX	-12222
▁scandale	-12223
▁gîte	-12224
▁Villa	-12225
▁Didier	-12226
▁bouteilles	-12227
évent	-12228
▁céréb	-12229
▁méthod	-12230
▁rach	-12231
FC	-12232
parole	-12233
▁William	-12234
▁courriel	-12235
▁ampli	-12236
usalem	-12237
▁2010.	-12238
▁spé	-12239
▁étages	-12240
▁séjours	-12241
toi	-12242
▁abat	-12243
▁Pyrénées	-12244
▁médicaux	-12245
illent	-12246
▁Inté	-12247
▁tournage	-12248
ife	-12249
▁pit	-12250
▁ludique	-12251
▁éclairage	-12252
ctor	-12253
▁ge	-12254
▁déguster	-12255
▁dialog	-12256
▁Bill	-12257
▁Aqu	-12258
ISE	-12259
imagine	-12260
▁rajouter	-12261
▁envoie	-12262
isateur	-12263
▁accueilli	-12264
indres	-12265
▁syndicat	-12266
▁Mand	-12267
▁Mém	-12268
▁vagues	-12269
▁sérénité	-12270
▁pend	-12271
▁favorise	-12272
▁750	-12273
▁promesse	-12274
▁passait	-12275
▁explorer	-12276
avent	-12277
▁puissants	-12278
▁Ple	-12279
▁ade	-12280
▁corriger	-12281
▁essentiels	-12282
DR	-12283
▁employé	-12284
▁courants	-12285
▁Tok	-12286
▁GPS	-12287
▁individuelles	-12288
▁cave	-12289
▁convaincu	-12290
formément	-12291
lète	-12292
▁pique	-12293
▁maillot	-12294
▁rappelé	-12295
▁Eli	-12296
▁Collège	-12297
▁Renault	-12298
▁parvient	-12299
▁it	-12300
▁ki	-12301
▁dépass	-12302
▁Gabri	-12303
▁asiatique	-12304
▁Clar	-12305
ortez	-12306
▁mobilis	-12307
▁sand	-12308
▁définit	-12309
▁dign	-12310
▁SO	-12311
▁chanter	-12312
▁Septembre	-12313
blog	-12314
▁Amazon	-12315
▁mélo	-12316
▁Laissez	-12317
▁2005,	-12318
▁désire	-12319
humidité	-12320
▁parcourir	-12321
▁deco	-12322
allait	-12323
▁Révolution	-12324
▁intégrée	-12325
▁tombée	-12326
▁poursuite	-12327
The	-12328
▁Pâ	-12329
culer	-12330
▁fabriqué	-12331
▁originaux	-12332
▁teinte	-12333
▁imprimer	-12334
▁Cameroun	-12335
ortées	-12336
▁emblé	-12337
▁administration	-12338
ICE	-12339
▁virtuelle	-12340
▁acquérir	-12341
▁provisoire	-12342
ida	-12343
▁contest	-12344
Az	-12345
▁accordé	-12346
▁arrivés	-12347
▁universités	-12348
▁détermination	-12349
▁entrepreneurs	-12350
▁PE	-12351
▁consci	-12352
▁seniors	-12353
▁autorité	-12354
▁souligner	-12355
mbles	-12356
uyant	-12357
▁caché	-12358
▁vendus	-12359
▁pis	-12360
▁prévisions	-12361
▁63	-12362
▁Introduction	-12363
chets	-12364
▁disposez	-12365
▁occasions	-12366
▁rh	-12367
▁complexité	-12368
atmosphère	-12369
ûte	-12370
▁absolue	-12371
igny	-12372
▁séduire	-12373
▁architecture	-12374
▁transmet	-12375
▁Roche	-12376
rosse	-12377
▁couture	-12378
▁Nu	-12379
escal	-12380
▁fleuve	-12381
▁plur	-12382
Des	-12383
▁Hal	-12384
▁Pass	-12385
▁Tot	-12386
▁Hôtels	-12387
▁Convention	-12388
▁menaces	-12389
aker	-12390
pins	-12391
▁retrouvez	-12392
▁camion	-12393
amuser	-12394
▁Som	-12395
▁installée	-12396
▁localisation	-12397
tia	-12398
anner	-12399
prême	-12400
▁relevé	-12401
▁tenait	-12402
antaine	-12403
▁provient	-12404
▁résul	-12405
ilation	-12406
▁clip	-12407
▁illim	-12408
▁guerres	-12409
École	-12410
▁fluide	-12411
▁perc	-12412
▁baisser	-12413
▁chaises	-12414
▁".	-12415
entis	-12416
▁Domaine	-12417
▁pair	-12418
▁applicable	-12419
▁tax	-12420
▁Amer	-12421
drome	-12422
▁Gris	-12423
yer	-12424
▁équipés	-12425
immigration	-12426
immobilier	-12427
▁blo	-12428
▁tiendra	-12429
▁rafraî	-12430
▁Compagn	-12431
▁set	-12432
ilie	-12433
▁hebdomad	-12434
▁poker	-12435
▁bê	-12436
▁Tch	-12437
▁noctur	-12438
▁procurer	-12439
mati	-12440
▁ultime	-12441
▁organisées	-12442
▁caractéristique	-12443
▁instants	-12444
mile	-12445
▁bec	-12446
▁évid	-12447
▁Commerce	-12448
▁assorti	-12449
▁détendre	-12450
▁chimique	-12451
'«	-12452
▁figures	-12453
▁clos	-12454
▁exposé	-12455
▁intègre	-12456
▁lisse	-12457
▁ic	-12458
▁Lieu	-12459
▁chaine	-12460
▁cout	-12461
▁régulier	-12462
69	-12463
▁Tim	-12464
▁espère	-12465
▁bot	-12466
▁réservés	-12467
▁assembl	-12468
▁Mou	-12469
prète	-12470
identification	-12471
▁trah	-12472
▁aéro	-12473
▁poussière	-12474
▁chrétienne	-12475
▁dune	-12476
▁sage	-12477
ION	-12478
▁BR	-12479
▁charmant	-12480
▁webcam	-12481
▁vou	-12482
▁débou	-12483
over	-12484
▁cherchant	-12485
▁ah	-12486
▁Ki	-12487
▁Bell	-12488
▁dirigé	-12489
▁apparition	-12490
objets	-12491
lections	-12492
office	-12493
▁chirurgie	-12494
SC	-12495
chim	-12496
▁Coc	-12497
▁foul	-12498
</	-12499
▁ste	-12500
▁relatifs	-12501
▁Cub	-12502
aucune	-12503
▁tristes	-12504
énage	-12505
▁empre	-12506
▁Sky	-12507
enfer	-12508
urie	-12509
▁Professeur	-12510
ily	-12511
kh	-12512
ierie	-12513
▁Af	-12514
oncés	-12515
euses	-12516
bin	-12517
eroy	-12518
▁volontaire	-12519
▁tardi	-12520
▁identique	-12521
▁Bir	-12522
▁regrette	-12523
▁Orange	-12524
interprétation	-12525
▁ax	-12526
▁japonaise	-12527
▁veiller	-12528
▁électeurs	-12529
PC	-12530
▁paragraphe	-12531
▁chanteuse	-12532
▁Sn	-12533
▁chaudes	-12534
▁Disc	-12535
élimin	-12536
auth	-12537
viennent	-12538
▁cris	-12539
icien	-12540
prend	-12541
▁carnet	-12542
▁Libre	-12543
▁Jan	-12544
▁Cast	-12545
▁extré	-12546
▁Harry	-12547
ERT	-12548
▁adversaires	-12549
▁Annonces	-12550
▁ouvriers	-12551
▁baignoire	-12552
akar	-12553
richir	-12554
arisation	-12555
▁documentation	-12556
taire	-12557
culaire	-12558
▁plateformes	-12559
erai	-12560
▁Modi	-12561
▁varier	-12562
issé	-12563
FA	-12564
▁Champagne	-12565
amed	-12566
▁obs	-12567
▁ailes	-12568
vergne	-12569
▁échantill	-12570
▁cumul	-12571
ciale	-12572
▁regards	-12573
▁retenu	-12574
enaire	-12575
▁tél	-12576
sectes	-12577
▁puissiez	-12578
inn	-12579
▁reviend	-12580
▁provenance	-12581
poli	-12582
▁empêche	-12583
▁enseigne	-12584
aval	-12585
▁fondamentaux	-12586
outch	-12587
▁concentrer	-12588
aver	-12589
▁céra	-12590
▁corruption	-12591
gné	-12592
guée	-12593
ouement	-12594
▁conversion	-12595
▁contiennent	-12596
Inde	-12597
▁aud	-12598
▁publicitaires	-12599
CHE	-12600
▁arabes	-12601
encé	-12602
▁appelés	-12603
▁350	-12604
olais	-12605
▁affronter	-12606
▁larges	-12607
▁pénét	-12608
▁Demande	-12609
▁Ha	-12610
▁185	-12611
bu	-12612
▁humour	-12613
▁alinéa	-12614
▁Cité	-12615
rovis	-12616
▁âgés	-12617
▁subtil	-12618
▁fibres	-12619
▁Expl	-12620
DC	-12621
ailli	-12622
identifier	-12623
▁refuge	-12624
agisse	-12625
▁avancées	-12626
▁pattes	-12627
▁concerné	-12628
uck	-12629
▁drogue	-12630
▁900	-12631
▁arra	-12632
▁rouler	-12633
▁manus	-12634
▁(0)	-12635
▁régionaux	-12636
▁Gare	-12637
▁chèque	-12638
index	-12639
opie	-12640
▁Gab	-12641
mph	-12642
▁?)	-12643
▁comptable	-12644
oît	-12645
▁modules	-12646
anz	-12647
▁Business	-12648
▁poussé	-12649
▁interlocu	-12650
tén	-12651
▁rassembl	-12652
▁matinée	-12653
▁temporaire	-12654
▁vivants	-12655
▁cest	-12656
▁merc	-12657
▁technicien	-12658
▁Maire	-12659
heureux	-12660
épisode	-12661
▁déchi	-12662
▁ambiti	-12663
▁régimes	-12664
▁continuité	-12665
cour	-12666
ajout	-12667
▁fixation	-12668
"...	-12669
▁déç	-12670
▁fabule	-12671
▁bourg	-12672
▁messagerie	-12673
▁Sébastien	-12674
cho	-12675
auré	-12676
▁mettra	-12677
▁valider	-12678
niti	-12679
▁contrainte	-12680
▁substances	-12681
▁filet	-12682
ansion	-12683
▁réunir	-12684
▁soumise	-12685
▁dévoile	-12686
rure	-12687
▁révolutionnaire	-12688
▁mentionné	-12689
jamin	-12690
▁tromper	-12691
▁témoigne	-12692
diale	-12693
▁doctr	-12694
cence	-12695
▁incomp	-12696
▁vintage	-12697
▁exper	-12698
ext	-12699
acu	-12700
▁sécher	-12701
▁Sat	-12702
▁fév	-12703
▁Rac	-12704
▁Tourn	-12705
▁charte	-12706
▁News	-12707
▁surmont	-12708
▁//	-12709
▁turb	-12710
▁devrais	-12711
▁gang	-12712
éléments	-12713
▁pist	-12714
▁bouge	-12715
▁créant	-12716
▁négatif	-12717
▁universelle	-12718
▁heur	-12719
Char	-12720
▁fabrique	-12721
▁Pau	-12722
▁Rappel	-12723
▁adapter	-12724
▁Bourgogne	-12725
▁Leurs	-12726
▁contrôles	-12727
▁poup	-12728
▁indési	-12729
▁extraits	-12730
▁participent	-12731
▁dissim	-12732
/4	-12733
ald	-12734
▁amitié	-12735
échec	-12736
deux	-12737
▁bébés	-12738
▁manga	-12739
▁sauter	-12740
étage	-12741
FP	-12742
ward	-12743
▁cub	-12744
▁exclusive	-12745
▁arg	-12746
▁gère	-12747
verser	-12748
quier	-12749
hésite	-12750
▁confié	-12751
▁contribué	-12752
▁incapable	-12753
▁fic	-12754
acteurs	-12755
▁mélanger	-12756
▁sondage	-12757
▁demandez	-12758
oreille	-12759
▁Franco	-12760
▁anth	-12761
▁Quatre	-12762
▁écriture	-12763
▁play	-12764
▁nationalité	-12765
▁exemplaire	-12766
▁bars	-12767
▁parisien	-12768
Office	-12769
▁dessert	-12770
▁solidaire	-12771
▁Far	-12772
▁installés	-12773
rench	-12774
èges	-12775
house	-12776
inser	-12777
▁Meetic	-12778
▁humide	-12779
▁ados	-12780
éens	-12781
▁estiv	-12782
▁problématiques	-12783
Ec	-12784
▁mour	-12785
▁Premi	-12786
▁manières	-12787
▁croisière	-12788
▁Mét	-12789
▁Band	-12790
▁blogs	-12791
écouter	-12792
▁exploitation	-12793
▁Hel	-12794
Iran	-12795
▁Ker	-12796
.1	-12797
tar	-12798
.5	-12799
▁espérant	-12800
▁fermés	-12801
▁répondant	-12802
▁hébergement	-12803
▁variations	-12804
▁bandoulière	-12805
▁chaussure	-12806
▁Voy	-12807
ito	-12808
anna	-12809
▁jugé	-12810
▁connues	-12811
▁fêter	-12812
▁véc	-12813
▁Att	-12814
▁charbon	-12815
▁sexuels	-12816
▁Dess	-12817
neau	-12818
élevage	-12819
▁productions	-12820
▁doutes	-12821
▁intéressants	-12822
▁apprentissage	-12823
▁sanitaires	-12824
▁moyennes	-12825
chauss	-12826
▁concernées	-12827
éner	-12828
▁Anton	-12829
▁Espace	-12830
▁analyser	-12831
▁négociation	-12832
▁théâ	-12833
▁marin	-12834
▁1,5	-12835
▁Fant	-12836
▁engagés	-12837
▁manipulation	-12838
-12	-12839
ettre	-12840
▁légal	-12841
▁Allemand	-12842
▁densité	-12843
▁Défin	-12844
▁Instagram	-12845
écrit	-12846
▁Juifs	-12847
vil	-12848
▁Rod	-12849
encre	-12850
▁Idéal	-12851
▁requis	-12852
▁substance	-12853
▁église	-12854
▁Pôle	-12855
▁maritime	-12856
▁souhaitons	-12857
outils	-12858
▁soumettre	-12859
▁Lut	-12860
▁ordinateurs	-12861
ford	-12862
▁Sub	-12863
,,	-12864
▁clichés	-12865
▁dirigeant	-12866
▁téléphones	-12867
oisse	-12868
▁occuper	-12869
▁posée	-12870
▁Lion	-12871
▁demandant	-12872
▁Lic	-12873
▁cinquante	-12874
▁transporter	-12875
▁Actuellement	-12876
▁Bang	-12877
▁renseignement	-12878
▁exten	-12879
▁carrés	-12880
▁buff	-12881
▁tén	-12882
▁Bach	-12883
▁originaire	-12884
▁nue	-12885
▁cohér	-12886
▁Léon	-12887
right	-12888
▁SM	-12889
▁coupé	-12890
omberie	-12891
▁durer	-12892
▁Octobre	-12893
▁neuve	-12894
▁théorique	-12895
▁voté	-12896
aceu	-12897
php	-12898
▁lève	-12899
▁Autom	-12900
▁lumières	-12901
▁notice	-12902
extension	-12903
phab	-12904
▁folle	-12905
▁team	-12906
▁Idées	-12907
insertion	-12908
▁10%	-12909
▁formats	-12910
Asie	-12911
▁frig	-12912
▁ther	-12913
▁enchaî	-12914
▁catastrophe	-12915
▁camarades	-12916
▁architect	-12917
auph	-12918
jectifs	-12919
alide	-12920
▁teint	-12921
ensible	-12922
fonction	-12923
▁compromis	-12924
▁canadien	-12925
Acc	-12926
▁unes	-12927
▁pensait	-12928
▁lourde	-12929
dité	-12930
▁Niveau	-12931
▁mettons	-12932
▁Poly	-12933
▁viendra	-12934
▁88	-12935
pot	-12936
▁Cannes	-12937
▁pension	-12938
axy	-12939
▁Supéri	-12940
▁protégé	-12941
cad	-12942
Dans	-12943
▁Frank	-12944
▁stagi	-12945
▁palestin	-12946
UX	-12947
▁seigneur	-12948
▁assistance	-12949
▁distinction	-12950
▁FOR	-12951
resses	-12952
Dame	-12953
rats	-12954
▁démontrer	-12955
▁Cler	-12956
▁saisie	-12957
▁notions	-12958
quement	-12959
▁requête	-12960
▁islamique	-12961
▁PAS	-12962
▁travaillant	-12963
émon	-12964
▁bass	-12965
▁Roger	-12966
▁surveiller	-12967
▁démonstration	-12968
▁exister	-12969
▁démarrer	-12970
èler	-12971
▁phases	-12972
▁chou	-12973
▁sanctions	-12974
▁projection	-12975
▁Ide	-12976
▁Roch	-12977
▁paras	-12978
▁Chi	-12979
▁éman	-12980
Claude	-12981
▁pneus	-12982
servatoire	-12983
▁reportage	-12984
▁futures	-12985
anniversaire	-12986
▁Ok	-12987
▁trio	-12988
ignent	-12989
pirant	-12990
▁rendue	-12991
▁cotis	-12992
▁salons	-12993
ecc	-12994
letter	-12995
▁télécom	-12996
▁détruit	-12997
éenne	-12998
▁Tes	-12999
▁Chic	-13000
▁varie	-13001
abo	-13002
▁victoires	-13003
▁effectués	-13004
▁résistant	-13005
▁fau	-13006
TRE	-13007
/3	-13008
▁Jérusalem	-13009
tite	-13010
▁Nike	-13011
▁moulin	-13012
▁tranquill	-13013
▁géomét	-13014
▁Pant	-13015
▁alliés	-13016
tiss	-13017
▁distinguer	-13018
▁Gro	-13019
▁réels	-13020
▁dépendance	-13021
présent	-13022
▁Video	-13023
▁espérer	-13024
▁ramener	-13025
▁arguments	-13026
omes	-13027
▁terminée	-13028
▁privilégié	-13029
▁EP	-13030
▁remplace	-13031
▁publicitaire	-13032
▁CAR	-13033
▁avancée	-13034
▁cathédrale	-13035
▁UV	-13036
▁voyait	-13037
▁abandonné	-13038
▁gouvernance	-13039
▁traum	-13040
▁Mob	-13041
▁multipli	-13042
▁connectés	-13043
Christ	-13044
▁classés	-13045
▁suivez	-13046
▁universel	-13047
Organis	-13048
▁cuivre	-13049
roï	-13050
▁génétique	-13051
▁congé	-13052
▁intéressantes	-13053
▁maux	-13054
▁souffrir	-13055
intégralité	-13056
orith	-13057
▁Orient	-13058
▁solides	-13059
ouches	-13060
▁Informatique	-13061
▁Vert	-13062
▁superficie	-13063
▁nuis	-13064
emprun	-13065
ima	-13066
▁Pa	-13067
▁Blanche	-13068
▁analys	-13069
▁Union	-13070
▁attire	-13071
▁natur	-13072
▁amélioration	-13073
▁sentiers	-13074
▁opportunités	-13075
▁rachat	-13076
tissements	-13077
▁jan	-13078
▁aisément	-13079
▁écrivain	-13080
▁tranquillement	-13081
sieurs	-13082
▁Résultat	-13083
▁Lam	-13084
▁Saison	-13085
▁Sénat	-13086
▁fous	-13087
▁capteur	-13088
▁interface	-13089
▁ensole	-13090
▁certification	-13091
OO	-13092
▁aî	-13093
▁passez	-13094
▁parrain	-13095
▁visiblement	-13096
▁Dre	-13097
sauf	-13098
ensez	-13099
▁lame	-13100
▁allée	-13101
▁épais	-13102
▁Power	-13103
ternel	-13104
▁Docteur	-13105
▁solitude	-13106
▁invitons	-13107
▁bancaires	-13108
via	-13109
▁barbecue	-13110
▁len	-13111
expédition	-13112
▁constituée	-13113
▁intéressés	-13114
▁signification	-13115
obs	-13116
diff	-13117
▁déçu	-13118
01	-13119
▁restri	-13120
________	-13121
▁Vietnam	-13122
▁hybri	-13123
▁Disney	-13124
▁mépris	-13125
onymes	-13126
▁cé	-13127
culture	-13128
▁coller	-13129
gny	-13130
▁bracelet	-13131
cidence	-13132
▁Env	-13133
animaux	-13134
activer	-13135
▁Bons	-13136
issantes	-13137
▁débarrasser	-13138
▁Versailles	-13139
▁collectifs	-13140
▁Dist	-13141
▁Serge	-13142
▁volontaires	-13143
dule	-13144
▁Galerie	-13145
/09	-13146
▁datant	-13147
▁Bible	-13148
▁égale	-13149
▁",	-13150
64	-13151
▁Pil	-13152
▁entouré	-13153
▁réglage	-13154
▁évolue	-13155
233;	-13156
▁Juillet	-13157
▁Sing	-13158
ermain	-13159
▁sanction	-13160
▁déni	-13161
employeur	-13162
▁combatt	-13163
▁côtes	-13164
▁Revue	-13165
▁métallique	-13166
autique	-13167
▁convivi	-13168
▁ondes	-13169
▁étais	-13170
▁Ken	-13171
▁nor	-13172
▁renovation	-13173
ancier	-13174
▁Choisissez	-13175
▁game	-13176
avocat	-13177
▁masculin	-13178
▁permettrait	-13179
▁Glob	-13180
▁Collec	-13181
▁préférable	-13182
arbit	-13183
▁posté	-13184
▁émet	-13185
▁diffusé	-13186
ian	-13187
ands	-13188
ricolage	-13189
anniques	-13190
abiliser	-13191
▁sortant	-13192
▁annon	-13193
accident	-13194
▁créatures	-13195
▁Claire	-13196
▁désirs	-13197
▁gagnant	-13198
▁faiblesse	-13199
ALE	-13200
▁kilos	-13201
pen	-13202
▁impose	-13203
▁boit	-13204
sionnaire	-13205
▁ouest	-13206
▁axes	-13207
▁cho	-13208
Denis	-13209
▁imb	-13210
incer	-13211
▁Multi	-13212
▁socio	-13213
▁merde	-13214
▁Jeudi	-13215
▁inscriptions	-13216
▁SC	-13217
▁Blue	-13218
allais	-13219
▁partagent	-13220
▁illustrations	-13221
▁Thèmes	-13222
▁sérieuses	-13223
▁pard	-13224
▁aig	-13225
abulaire	-13226
▁intelligent	-13227
▁pourcentage	-13228
unt	-13229
▁adaptation	-13230
ennemi	-13231
sime	-13232
▁fuir	-13233
▁(199	-13234
▁carburant	-13235
▁transformé	-13236
mblé	-13237
▁récits	-13238
▁Clé	-13239
▁Monaco	-13240
ptures	-13241
▁Asie	-13242
▁intermédiaire	-13243
▁ridi	-13244
▁vitre	-13245
▁violent	-13246
▁paisible	-13247
▁Peinture	-13248
▁éliminer	-13249
ilières	-13250
▁rapprocher	-13251
oral	-13252
acent	-13253
▁agriculteurs	-13254
implant	-13255
▁spirituelle	-13256
jug	-13257
▁relâ	-13258
▁Sacs	-13259
▁verres	-13260
▁poétique	-13261
▁terroristes	-13262
▁Pet	-13263
odique	-13264
phém	-13265
▁Word	-13266
▁offrons	-13267
▁Street	-13268
▁partiellement	-13269
ayez	-13270
▁mettez	-13271
▁impéri	-13272
▁sw	-13273
▁Ath	-13274
berge	-13275
▁Management	-13276
▁Langue	-13277
vente	-13278
▁considération	-13279
▁data	-13280
▁prétexte	-13281
versé	-13282
ual	-13283
▁74	-13284
▁Imag	-13285
▁retenue	-13286
▁étudié	-13287
▁sublime	-13288
▁sl	-13289
▁devriez	-13290
ek	-13291
▁79	-13292
▁préférés	-13293
▁remercions	-13294
didas	-13295
▁TH	-13296
▁!).	-13297
unk	-13298
▁conçus	-13299
▁concré	-13300
ainissement	-13301
▁sale	-13302
▁imposer	-13303
aïs	-13304
▁inég	-13305
▁chapeau	-13306
hypoth	-13307
▁roses	-13308
▁échapper	-13309
▁partielle	-13310
▁Collection	-13311
▁cités	-13312
▁rendus	-13313
▁Pologne	-13314
▁soixante	-13315
▁Janvier	-13316
▁africains	-13317
▁Aide	-13318
▁représenté	-13319
▁horaire	-13320
▁12,	-13321
rovi	-13322
▁enfer	-13323
▁princesse	-13324
▁purement	-13325
▁méconn	-13326
▁astrologique	-13327
nation	-13328
▁mobil	-13329
▁challenge	-13330
oys	-13331
▁Group	-13332
urez	-13333
▁verser	-13334
▁électorale	-13335
commerce	-13336
▁glu	-13337
▁tick	-13338
▁brésil	-13339
▁Gas	-13340
▁virtuel	-13341
▁méch	-13342
▁charger	-13343
▁trouvera	-13344
▁annoncer	-13345
▁Rouen	-13346
nac	-13347
▁intention	-13348
▁dégustation	-13349
▁opinion	-13350
▁repl	-13351
▁adhé	-13352
▁préven	-13353
anciers	-13354
▁cry	-13355
▁manqué	-13356
▁ç	-13357
▁%,	-13358
▁voudrait	-13359
Ara	-13360
▁Entreprise	-13361
▁récompense	-13362
atisation	-13363
▁plastiques	-13364
▁luc	-13365
▁balance	-13366
62	-13367
▁politi	-13368
aissé	-13369
▁foss	-13370
ids	-13371
▁98	-13372
▁réformes	-13373
▁accusé	-13374
▁Péri	-13375
▁actionnaires	-13376
▁QU	-13377
▁SUR	-13378
▁hété	-13379
▁Fou	-13380
média	-13381
▁alig	-13382
cra	-13383
▁résulte	-13384
élég	-13385
▁Diam	-13386
▁officiels	-13387
▁désigner	-13388
▁Exemple	-13389
▁décla	-13390
vation	-13391
acques	-13392
accepter	-13393
▁religions	-13394
▁activer	-13395
▁biodiversité	-13396
illement	-13397
▁récl	-13398
▁précises	-13399
▁pisc	-13400
▁imposé	-13401
▁initial	-13402
▁cohérence	-13403
▁fonctionnalité	-13404
▁immer	-13405
▁Temp	-13406
▁poulet	-13407
ouvement	-13408
▁Fourn	-13409
tle	-13410
▁déroulement	-13411
▁Moscou	-13412
▁consacrer	-13413
▁fragile	-13414
▁clar	-13415
▁Ayant	-13416
émotion	-13417
▁combus	-13418
▁gy	-13419
▁parlait	-13420
▁tablettes	-13421
▁lourds	-13422
▁multic	-13423
▁collectivité	-13424
eil	-13425
▁atouts	-13426
▁cherché	-13427
▁lent	-13428
▁chargés	-13429
▁camps	-13430
octobre	-13431
▁canadienne	-13432
▁pép	-13433
▁Préf	-13434
▁Isabelle	-13435
rus	-13436
cheur	-13437
▁ongles	-13438
▁approprié	-13439
ESS	-13440
▁flè	-13441
▁Andre	-13442
▁cuisin	-13443
obtention	-13444
▁choisie	-13445
▁portefeuille	-13446
▁Contact	-13447
▁histor	-13448
▁carrelage	-13449
▁variées	-13450
▁Ress	-13451
▁fraîcheur	-13452
▁équivalent	-13453
▁poils	-13454
▁commissaire	-13455
▁cut	-13456
ignan	-13457
▁signée	-13458
osez	-13459
▁dépit	-13460
▁chantiers	-13461
▁municipalité	-13462
▁camb	-13463
interface	-13464
eller	-13465
▁débuté	-13466
▁vainqueur	-13467
Wh	-13468
▁rage	-13469
▁électro	-13470
acheteur	-13471
▁troub	-13472
▁recharge	-13473
▁placement	-13474
Mont	-13475
▁quantités	-13476
uira	-13477
Empire	-13478
imposer	-13479
▁cesser	-13480
▁juges	-13481
▁ranger	-13482
▁souplesse	-13483
▁intim	-13484
▁devais	-13485
-17	-13486
▁assurée	-13487
▁Fé	-13488
▁évoqué	-13489
▁réussit	-13490
▁20%	-13491
▁bul	-13492
▁circulaire	-13493
▁conclusions	-13494
▁matelas	-13495
▁plombier	-13496
▁125	-13497
▁descrip	-13498
▁protégée	-13499
▁directive	-13500
accompagner	-13501
▁Sun	-13502
onnière	-13503
▁chalet	-13504
▁confortables	-13505
▁(4)	-13506
▁bid	-13507
▁rural	-13508
▁Cond	-13509
▁colloque	-13510
▁Nov	-13511
▁sul	-13512
asa	-13513
▁impressionnant	-13514
▁menées	-13515
▁Médec	-13516
▁fiabilité	-13517
▁disciplines	-13518
▁BE	-13519
▁compteur	-13520
▁télévis	-13521
▁Canadi	-13522
hydra	-13523
▁survivre	-13524
▁canon	-13525
opportunité	-13526
▁costume	-13527
illette	-13528
▁tatou	-13529
isseur	-13530
iante	-13531
▁optimiser	-13532
00)	-13533
inois	-13534
▁commém	-13535
▁investi	-13536
ghan	-13537
▁promesses	-13538
iront	-13539
IST	-13540
▁Fu	-13541
▁genoux	-13542
▁plaire	-13543
▁Dame	-13544
▁Angeles	-13545
occupation	-13546
▁dégage	-13547
▁saine	-13548
ciper	-13549
▁excur	-13550
▁Pé	-13551
▁gardé	-13552
▁examens	-13553
▁séquence	-13554
pper	-13555
▁personnalisée	-13556
▁index	-13557
outchouc	-13558
tionnellement	-13559
▁territoriales	-13560
▁Eur	-13561
▁signi	-13562
▁méditation	-13563
zi	-13564
▁évolué	-13565
▁Avril	-13566
▁supérieures	-13567
▁ke	-13568
ultes	-13569
▁61	-13570
habitu	-13571
▁adjoint	-13572
▁Ta	-13573
▁Vue	-13574
▁Proc	-13575
▁CAP	-13576
▁séminaire	-13577
équival	-13578
▁perdue	-13579
▁garantis	-13580
61	-13581
▁réservoir	-13582
lat	-13583
▁sere	-13584
▁Tribunal	-13585
▁mondes	-13586
international	-13587
▁dating	-13588
eline	-13589
▁Fleur	-13590
OUT	-13591
▁alternatives	-13592
▁coupable	-13593
▁Bis	-13594
aissait	-13595
▁indiquant	-13596
▁enter	-13597
▁particules	-13598
▁familiales	-13599
▁fines	-13600
▁blessure	-13601
▁hur	-13602
▁pp	-13603
▁It	-13604
instar	-13605
ueuse	-13606
▁Dimensions	-13607
ectivement	-13608
nera	-13609
parez	-13610
▁placée	-13611
ési	-13612
▁Land	-13613
dés	-13614
▁XXe	-13615
▁interdite	-13616
▁basket	-13617
internet	-13618
▁préoccupations	-13619
▁universitaires	-13620
▁grise	-13621
▁connaissait	-13622
▁décors	-13623
▁rapidité	-13624
▁Studio	-13625
▁broyeur	-13626
▁souhaitant	-13627
▁ressource	-13628
▁aérienne	-13629
▁silhouette	-13630
▁Fonction	-13631
▁arom	-13632
▁lâcher	-13633
▁Force	-13634
▁ravi	-13635
IEN	-13636
▁neutre	-13637
ople	-13638
▁extr	-13639
▁2004,	-13640
▁Milan	-13641
▁quarante	-13642
▁échec	-13643
▁avocats	-13644
Util	-13645
▁celib	-13646
▁atmosphère	-13647
▁établie	-13648
▁détaillé	-13649
▁standards	-13650
▁commerçants	-13651
▁correspondance	-13652
▁Mathieu	-13653
habitants	-13654
êne	-13655
pitaux	-13656
▁impl	-13657
▁faune	-13658
omie	-13659
▁foncé	-13660
jections	-13661
▁cabine	-13662
▁sélectionnés	-13663
▁fesses	-13664
entrepreneur	-13665
▁Us	-13666
▁master	-13667
▁encom	-13668
▁guilde	-13669
kina	-13670
▁af	-13671
ât	-13672
▁Benjamin	-13673
/01	-13674
▁Java	-13675
endeur	-13676
▁pari	-13677
▁BL	-13678
alises	-13679
▁triom	-13680
appuie	-13681
▁récents	-13682
▁qualifiés	-13683
illages	-13684
50,	-13685
▁DOC	-13686
eront	-13687
="	-13688
▁NE	-13689
▁sensibilisation	-13690
nergie	-13691
tenance	-13692
élène	-13693
▁climatisation	-13694
▁nage	-13695
▁habitant	-13696
▁volets	-13697
▁médiatique	-13698
▁néglige	-13699
▁habitude	-13700
uée	-13701
▁générer	-13702
▁cessé	-13703
▁dérange	-13704
▁vérification	-13705
oignez	-13706
introduction	-13707
antine	-13708
▁existant	-13709
▁pinterest	-13710
uez	-13711
▁lots	-13712
▁yoga	-13713
entielles	-13714
ratif	-13715
▁domination	-13716
▁animation	-13717
▁meurtre	-13718
instruction	-13719
▁guides	-13720
▁nouveauté	-13721
Air	-13722
▁épic	-13723
▁feuillet	-13724
▁étoile	-13725
▁deviendra	-13726
▁LG	-13727
▁collègue	-13728
ices	-13729
▁formules	-13730
▁inverse	-13731
▁ext	-13732
agère	-13733
▁Office	-13734
▁potentiels	-13735
▁flotte	-13736
▁OS	-13737
▁GMT	-13738
▁pilotage	-13739
▁Seulement	-13740
▁Conformément	-13741
▁Ast	-13742
▁œufs	-13743
▁bug	-13744
▁Soi	-13745
▁cotisations	-13746
▁vertus	-13747
▁organisés	-13748
wer	-13749
▁obé	-13750
▁Tari	-13751
▁prodi	-13752
▁Nathalie	-13753
▁ambition	-13754
▁inoubliable	-13755
ardez	-13756
soci	-13757
▁juif	-13758
▁ajoutée	-13759
uriers	-13760
▁Caroline	-13761
▁proviennent	-13762
uline	-13763
▁réservée	-13764
▁indiff	-13765
▁organes	-13766
osyst	-13767
rienne	-13768
▁moule	-13769
etooth	-13770
▁dépression	-13771
▁territoriale	-13772
▁déploiement	-13773
▁filiale	-13774
▁célébrer	-13775
▁horizont	-13776
bel	-13777
▁pile	-13778
▁confection	-13779
▁mètre	-13780
kraine	-13781
gal	-13782
▁rénov	-13783
▁argument	-13784
Anne	-13785
▁export	-13786
▁innoc	-13787
▁lus	-13788
▁Midi	-13789
▁valorisation	-13790
▁TR	-13791
▁recense	-13792
léans	-13793
▁Jules	-13794
▁Jeanne	-13795
3%	-13796
orés	-13797
▁bic	-13798
ridge	-13799
▁préserv	-13800
▁introduit	-13801
▁GT	-13802
▁Tro	-13803
▁avenue	-13804
çage	-13805
▁pizz	-13806
▁richesses	-13807
▁bijou	-13808
▁portug	-13809
▁dignité	-13810
▁Phil	-13811
artistes	-13812
▁Acheter	-13813
▁francophones	-13814
gir	-13815
▁notaire	-13816
€.	-13817
▁faculté	-13818
▁Real	-13819
offres	-13820
▁discip	-13821
▁dieux	-13822
▁bienfaits	-13823
aves	-13824
exploit	-13825
▁touches	-13826
▁chaleureuse	-13827
▁prêtre	-13828
▁assemblée	-13829
▁enseignements	-13830
aps	-13831
âne	-13832
▁fumée	-13833
▁individuels	-13834
▁Règlement	-13835
▁spectaculaire	-13836
▁positionnement	-13837
chron	-13838
▁Mati	-13839
▁odeur	-13840
enseigne	-13841
▁littéralement	-13842
▁Commune	-13843
▁avancé	-13844
▁automob	-13845
▁Xavier	-13846
▁redout	-13847
emplois	-13848
▁nuances	-13849
énie	-13850
▁immobiliers	-13851
▁développée	-13852
▁mâle	-13853
▁sentier	-13854
rouille	-13855
3-	-13856
▁Princip	-13857
▁complètes	-13858
mons	-13859
▁Cah	-13860
ador	-13861
▁battu	-13862
site	-13863
▁soie	-13864
▁tamp	-13865
▁nomme	-13866
▁départemental	-13867
pha	-13868
▁dénom	-13869
▁Prince	-13870
▁locataire	-13871
▁phare	-13872
ionnats	-13873
▁apportent	-13874
▁Hi	-13875
▁appréh	-13876
▁alliance	-13877
▁quinzaine	-13878
▁effectuées	-13879
▁célébr	-13880
▁québécois	-13881
▁SMS	-13882
▁donnés	-13883
▁personnaliser	-13884
▁prédé	-13885
▁Produit	-13886
▁particularité	-13887
▁montrant	-13888
▁considérés	-13889
▁92	-13890
onna	-13891
▁Install	-13892
▁retours	-13893
visionnement	-13894
avril	-13895
▁liné	-13896
▁sortent	-13897
Gar	-13898
▁Laval	-13899
▁climatiques	-13900
▁évite	-13901
▁rembourser	-13902
▁associées	-13903
1]	-13904
▁conditionn	-13905
▁réfrigérateur	-13906
▁urg	-13907
▁Mercredi	-13908
▁copine	-13909
▁batteries	-13910
▁visualiser	-13911
▁accompagnés	-13912
▁exception	-13913
pal	-13914
▁bah	-13915
▁lumineuse	-13916
iber	-13917
▁couronne	-13918
▁intelligence	-13919
dialement	-13920
▁tré	-13921
▁Étu	-13922
▁disais	-13923
▁éte	-13924
▁vieil	-13925
▁bravo	-13926
▁Brig	-13927
▁Lundi	-13928
aune	-13929
▁bous	-13930
▁déter	-13931
▁offerte	-13932
▁métropole	-13933
rive	-13934
reaux	-13935
tuaire	-13936
▁plomberie	-13937
pres	-13938
▁erg	-13939
▁Merc	-13940
▁alcool	-13941
dr	-13942
▁Rand	-13943
ula	-13944
GA	-13945
lieue	-13946
▁perm	-13947
▁Mondial	-13948
▁supérieurs	-13949
▁Plut	-13950
ujet	-13951
▁2009.	-13952
▁royale	-13953
oriel	-13954
▁Continuer	-13955
EST	-13956
arra	-13957
dications	-13958
▁monstre	-13959
▁Lag	-13960
▁1998	-13961
▁clan	-13962
▁juil	-13963
▁métaph	-13964
Hz	-13965
▁suffisante	-13966
▁SER	-13967
▁Présid	-13968
▁spécialités	-13969
éline	-13970
▁préco	-13971
▁bleus	-13972
72	-13973
▁finesse	-13974
▁reproduire	-13975
TIN	-13976
▁répartis	-13977
urrence	-13978
mor	-13979
▁visuelle	-13980
▁librairie	-13981
▁tranquillité	-13982
▁constructions	-13983
▁ordonnance	-13984
▁spectateur	-13985
▁légèreté	-13986
▁chemise	-13987
▁désespé	-13988
ôtres	-13989
dos	-13990
▁externes	-13991
▁apais	-13992
onds	-13993
▁Game	-13994
▁copain	-13995
▁honnête	-13996
èvement	-13997
▁frein	-13998
▁noble	-13999
▁informe	-14000
▁déterminé	-14001
▁transactions	-14002
▁confier	-14003
▁partant	-14004
▁boî	-14005
OY	-14006
▁Marque	-14007
ifornie	-14008
▁voulant	-14009
ated	-14010
▁fermée	-14011
assez	-14012
▁Télécharger	-14013
▁sachez	-14014
▁Ky	-14015
ônes	-14016
▁surn	-14017
▁pdf	-14018
▁dramatique	-14019
▁canaux	-14020
▁Maisons	-14021
▁cage	-14022
ristian	-14023
Tube	-14024
uette	-14025
▁commandant	-14026
▁9.	-14027
▁Tap	-14028
▁courante	-14029
▁Bor	-14030
▁boîtes	-14031
utant	-14032
▁regardé	-14033
board	-14034
ATU	-14035
oges	-14036
ANCE	-14037
▁parap	-14038
▁promotions	-14039
▁africain	-14040
espèce	-14041
vol	-14042
▁arc	-14043
intendo	-14044
▁impecc	-14045
▁Longueur	-14046
audit	-14047
▁SD	-14048
▁nan	-14049
▁Mans	-14050
▁placés	-14051
▁stimul	-14052
▁smartphones	-14053
▁tomates	-14054
▁mill	-14055
▁végétal	-14056
▁Informations	-14057
▁désigné	-14058
▁pig	-14059
▁boisson	-14060
alition	-14061
▁serons	-14062
▁vitamine	-14063
▁supporte	-14064
▁office	-14065
▁souter	-14066
▁réelles	-14067
nale	-14068
▁œil	-14069
▁leçon	-14070
/2017	-14071
▁tape	-14072
vid	-14073
▁corde	-14074
▁Mohamed	-14075
▁éditeurs	-14076
▁Cant	-14077
▁affin	-14078
▁soigneusement	-14079
▁lectures	-14080
74	-14081
▁Lav	-14082
▁sainte	-14083
aptiste	-14084
▁broder	-14085
icilement	-14086
▁chercheur	-14087
▁vivante	-14088
▁OU	-14089
▁mécaniques	-14090
▁na	-14091
▁spirituel	-14092
étape	-14093
▁jambe	-14094
▁roche	-14095
▁brune	-14096
▁posséder	-14097
▁(20	-14098
▁ved	-14099
▁nostal	-14100
▁réuni	-14101
▁époux	-14102
▁Out	-14103
▁Souvent	-14104
cieusement	-14105
obel	-14106
MM	-14107
▁Durée	-14108
▁héri	-14109
issants	-14110
▁passions	-14111
▁respectant	-14112
▁statistique	-14113
▁Benoît	-14114
▁essaie	-14115
▁Piscine	-14116
▁prisonniers	-14117
ited	-14118
▁amener	-14119
▁opé	-14120
▁Solid	-14121
▁jouant	-14122
▁observe	-14123
los	-14124
otation	-14125
▁Arthur	-14126
▁tactile	-14127
cler	-14128
atéri	-14129
▁Avez	-14130
inions	-14131
▁homosex	-14132
▁libertin	-14133
très	-14134
▁REN	-14135
▁Nancy	-14136
▁Alsace	-14137
ustration	-14138
▁apprécie	-14139
long	-14140
peaux	-14141
▁vélos	-14142
°1	-14143
▁FA	-14144
▁intemp	-14145
▁Ib	-14146
▁SNCF	-14147
▁peaux	-14148
▁généreux	-14149
▁Gay	-14150
▁entrepreneur	-14151
▁SAR	-14152
▁dessiner	-14153
▁Mariage	-14154
▁employeur	-14155
▁1990	-14156
▁ennuy	-14157
loge	-14158
▁partiel	-14159
intérêts	-14160
▁bourgeois	-14161
▁MON	-14162
août	-14163
▁performant	-14164
▁bos	-14165
▁Lune	-14166
adox	-14167
hygiène	-14168
istéri	-14169
ium	-14170
reuses	-14171
▁divorce	-14172
▁satellite	-14173
ISS	-14174
▁appui	-14175
▁entraine	-14176
▁surnom	-14177
▁régulation	-14178
▁accidents	-14179
rane	-14180
▁poêle	-14181
▁rangs	-14182
▁gravité	-14183
acier	-14184
accélé	-14185
▁Niger	-14186
Atlantique	-14187
▁compagnons	-14188
ureur	-14189
▁décédé	-14190
▁nombres	-14191
oustique	-14192
▁entretenir	-14193
▁peindre	-14194
▁artificielle	-14195
▁confusion	-14196
71	-14197
ressant	-14198
▁plaisirs	-14199
▁Actualité	-14200
▁consacre	-14201
▁relevant	-14202
▁ports	-14203
▁conscient	-14204
lène	-14205
▁Crédit	-14206
▁autrefois	-14207
prof	-14208
▁Fête	-14209
▁aborder	-14210
cat	-14211
gure	-14212
▁Sony	-14213
▁févr	-14214
▁?!	-14215
▁Soyez	-14216
▁Visite	-14217
▁invitation	-14218
▁créés	-14219
égraph	-14220
▁crises	-14221
▁prêtres	-14222
▁Environnement	-14223
angile	-14224
▁rassemblement	-14225
▁Emploi	-14226
bio	-14227
▁hôtes	-14228
▁thérapie	-14229
mir	-14230
QUES	-14231
▁guise	-14232
▁décont	-14233
▁institution	-14234
▁Dun	-14235
▁bob	-14236
clé	-14237
▁engager	-14238
▁miracle	-14239
▁difficilement	-14240
▁significative	-14241
▁donnait	-14242
aret	-14243
tiné	-14244
▁marins	-14245
alisations	-14246
▁assurent	-14247
▁portraits	-14248
▁Brit	-14249
▁Post	-14250
tifier	-14251
▁extérieures	-14252
▁naï	-14253
▁assisté	-14254
▁plonger	-14255
▁Sah	-14256
ican	-14257
▁Suède	-14258
▁Mam	-14259
admi	-14260
▁exprimé	-14261
▁Laisser	-14262
▁ration	-14263
▁back	-14264
▁musculaire	-14265
oster	-14266
olaire	-14267
▁boucles	-14268
▁réveil	-14269
▁métropol	-14270
-11	-14271
▁Compagnie	-14272
▁randonnées	-14273
OD	-14274
▁qualit	-14275
59	-14276
▁DJ	-14277
▁Hauts	-14278
▁Conseils	-14279
▁bibliothèques	-14280
▁robes	-14281
▁âmes	-14282
onnette	-14283
▁mutuelle	-14284
apitres	-14285
▁vétér	-14286
▁vocabulaire	-14287
▁abordable	-14288
▁89	-14289
▁Jamais	-14290
▁étudiante	-14291
▁stratégiques	-14292
lib	-14293
▁Dipl	-14294
odge	-14295
▁leçons	-14296
▁figurant	-14297
▁grandeur	-14298
NA	-14299
▁tag	-14300
▁2001,	-14301
minaires	-14302
▁ferai	-14303
▁anonyme	-14304
▁salade	-14305
▁Ay	-14306
▁desqu	-14307
▁commandé	-14308
▁DR	-14309
Mari	-14310
adapte	-14311
Mer	-14312
▁mast	-14313
▁mystérieux	-14314
resseur	-14315
▁cite	-14316
▁maigrir	-14317
Alex	-14318
▁mères	-14319
▁podium	-14320
▁boudd	-14321
▁confie	-14322
▁jaunes	-14323
reb	-14324
▁Chapitre	-14325
▁espagnole	-14326
inations	-14327
▁we	-14328
▁FL	-14329
▁digital	-14330
rastructure	-14331
▁collier	-14332
▁traduire	-14333
imagination	-14334
▁this	-14335
▁fierté	-14336
▁préférée	-14337
CTION	-14338
▁soc	-14339
▁manquent	-14340
meaux	-14341
,.	-14342
▁Die	-14343
▁néo	-14344
▁bapt	-14345
▁Yann	-14346
▁encourager	-14347
▁oeufs	-14348
▁Julie	-14349
></	-14350
ulés	-14351
opter	-14352
▁éditeur	-14353
▁3000	-14354
▁Maria	-14355
▁immédiat	-14356
▁hop	-14357
tick	-14358
▁occidentale	-14359
▁centrales	-14360
▁reçue	-14361
▁modernité	-14362
▁chimie	-14363
intensité	-14364
Can	-14365
ouge	-14366
ilo	-14367
▁conseillons	-14368
aillon	-14369
▁météor	-14370
rétariat	-14371
AFP	-14372
▁inox	-14373
aisser	-14374
▁prononcé	-14375
day	-14376
▁marron	-14377
▁nuages	-14378
esté	-14379
zzi	-14380
ernier	-14381
▁surveill	-14382
▁84	-14383
ASS	-14384
ocations	-14385
agascar	-14386
▁admirer	-14387
▁organisateurs	-14388
▁rassembler	-14389
▁Bourse	-14390
▁copains	-14391
▁intentions	-14392
tigieux	-14393
▁convivialité	-14394
▁Ford	-14395
▁Syndic	-14396
▁remporter	-14397
bation	-14398
épaisseur	-14399
▁neufs	-14400
▁stopp	-14401
▁scrutin	-14402
▁2,5	-14403
▁jupe	-14404
▁lauré	-14405
▁reconnus	-14406
▁Ari	-14407
▁idéalement	-14408
▁?"	-14409
▁boss	-14410
oriété	-14411
▁nourr	-14412
▁balles	-14413
▁To	-14414
èbres	-14415
▁appliquée	-14416
enu	-14417
▁honneur	-14418
▁parlementaire	-14419
quité	-14420
▁Action	-14421
▁Romain	-14422
tifié	-14423
▁carrément	-14424
▁saga	-14425
▁Ligne	-14426
▁postu	-14427
▁déclarer	-14428
indique	-14429
isolation	-14430
▁allemands	-14431
▁priorités	-14432
▁planches	-14433
oléon	-14434
▁Institut	-14435
▁industrie	-14436
▁navires	-14437
BE	-14438
aig	-14439
▁Six	-14440
ignée	-14441
▁fout	-14442
▁enseignant	-14443
Seine	-14444
▁déficit	-14445
▁profondes	-14446
▁gram	-14447
vains	-14448
▁résidents	-14449
agen	-14450
Organisation	-14451
▁janv	-14452
▁jum	-14453
▁Patrimoine	-14454
▁porteur	-14455
▁instance	-14456
▁Ref	-14457
▁TTC	-14458
rimée	-14459
pédia	-14460
▁soule	-14461
▁start	-14462
▁PAC	-14463
emment	-14464
▁Lan	-14465
▁assurances	-14466
Jacques	-14467
aimerai	-14468
▁Unies	-14469
▁short	-14470
▁refroid	-14471
▁figurent	-14472
▁exprime	-14473
▁utilisons	-14474
▁fonctionnent	-14475
uites	-14476
isembl	-14477
▁proportion	-14478
▁tch	-14479
▁tubes	-14480
échanges	-14481
▁Sel	-14482
▁PARIS	-14483
consulté	-14484
▁enquêtes	-14485
▁indicateurs	-14486
appeler	-14487
RC	-14488
▁tron	-14489
▁Jérôme	-14490
▁caoutchouc	-14491
▁tantôt	-14492
▁électricité	-14493
odeur	-14494
excellence	-14495
▁Deco	-14496
adou	-14497
vidence	-14498
▁refait	-14499
▁creux	-14500
audience	-14501
▁Mardi	-14502
▁envisager	-14503
▁plug	-14504
Pl	-14505
▁Cheval	-14506
▁Hé	-14507
èches	-14508
▁Version	-14509
▁séparer	-14510
▁inscrite	-14511
▁verrou	-14512
▁vaisselle	-14513
vices	-14514
▁Choisir	-14515
allery	-14516
▁Olymp	-14517
▁Pensez	-14518
▁cliniques	-14519
▁pharmaceu	-14520
▁figurer	-14521
▁bibli	-14522
HA	-14523
▁toiture	-14524
▁flui	-14525
▁couloir	-14526
▁sincère	-14527
▁tenus	-14528
▁notoriété	-14529
▁bouff	-14530
emballage	-14531
▁détaillée	-14532
SION	-14533
▁Stand	-14534
side	-14535
▁clo	-14536
▁sourc	-14537
▁volon	-14538
▁Of	-14539
euil	-14540
▁fournies	-14541
urn	-14542
▁86	-14543
▁soupç	-14544
▁amies	-14545
▁opportunité	-14546
▁%)	-14547
infos	-14548
▁dira	-14549
▁portait	-14550
▁plancher	-14551
orel	-14552
▁essence	-14553
▁bet	-14554
▁facilite	-14555
▁surp	-14556
▁Deuxième	-14557
▁ferrovi	-14558
▁fautes	-14559
bois	-14560
▁éclaire	-14561
▁José	-14562
▁contraste	-14563
▁cimetière	-14564
PP	-14565
▁170	-14566
▁Utilisez	-14567
▁fixée	-14568
▁danser	-14569
▁Parfait	-14570
▁suprême	-14571
▁cinémat	-14572
▁MS	-14573
▁effectue	-14574
▁flé	-14575
▁tol	-14576
▁Mons	-14577
tination	-14578
▁96	-14579
ELLE	-14580
asso	-14581
▁handicapées	-14582
▁Mettre	-14583
▁panique	-14584
▁surprenant	-14585
▁terroir	-14586
anning	-14587
▁bouill	-14588
athon	-14589
agères	-14590
lises	-14591
▁cordes	-14592
merci	-14593
sidé	-14594
▁visité	-14595
Pas	-14596
▁etait	-14597
500	-14598
▁caméras	-14599
▁francais	-14600
▁spécifiquement	-14601
kets	-14602
▁produisent	-14603
ivern	-14604
▁soudain	-14605
▁regardez	-14606
▁Titre	-14607
▁polyester	-14608
▁Iss	-14609
▁prouve	-14610
▁lev	-14611
▁remarquables	-14612
▁ayez	-14613
▁Ris	-14614
▁Vienne	-14615
▁positifs	-14616
▁sexualité	-14617
▁révis	-14618
▁Inv	-14619
▁projec	-14620
illus	-14621
▁dotée	-14622
▁franchir	-14623
▁Large	-14624
TML	-14625
▁Rub	-14626
iforme	-14627
▁Mobile	-14628
▁champions	-14629
ATE	-14630
ampleur	-14631
▁dessinée	-14632
▁Sites	-14633
▁préfet	-14634
▁Propri	-14635
▁Maz	-14636
▁renouvelables	-14637
ience	-14638
▁basses	-14639
▁mythique	-14640
see	-14641
ratoire	-14642
▁détention	-14643
éry	-14644
▁femelle	-14645
▁Ajoutez	-14646
▁Fire	-14647
▁infec	-14648
▁Flori	-14649
▁convivial	-14650
gestions	-14651
▁adresser	-14652
▁pix	-14653
▁démon	-14654
▁pèler	-14655
ustom	-14656
▁arrête	-14657
tiser	-14658
▁harmon	-14659
ring	-14660
▁Créer	-14661
écologie	-14662
▁favori	-14663
▁endomm	-14664
▁rideau	-14665
▁produite	-14666
▁vraies	-14667
élico	-14668
amé	-14669
▁discrétion	-14670
abilis	-14671
▁Beach	-14672
▁Tours	-14673
▁bail	-14674
▁Liban	-14675
▁Village	-14676
▁Virgin	-14677
CN	-14678
yne	-14679
▁Indi	-14680
▁marbre	-14681
▁chauffer	-14682
tou	-14683
▁poub	-14684
▁Ga	-14685
▁Tokyo	-14686
▁banlieue	-14687
dieu	-14688
▁Image	-14689
▁électrom	-14690
abst	-14691
▁vêtement	-14692
interdiction	-14693
ussions	-14694
▁communiste	-14695
▁nomination	-14696
TIC	-14697
humain	-14698
▁Civ	-14699
ariats	-14700
▁réaliste	-14701
▁féc	-14702
▁Bertrand	-14703
▁remor	-14704
▁Edition	-14705
▁appliqué	-14706
éries	-14707
▁quotidiennement	-14708
▁abrite	-14709
▁RH	-14710
amende	-14711
▁Galaxy	-14712
▁chapitres	-14713
▁fonctionnel	-14714
▁Fontaine	-14715
▁chrom	-14716
apprécie	-14717
▁Florence	-14718
▁tentatives	-14719
▁immun	-14720
▁remarques	-14721
▁Jos	-14722
arte	-14723
▁observations	-14724
300	-14725
▁indications	-14726
▁Monte	-14727
▁conventions	-14728
Mon	-14729
▁allong	-14730
▁ajoutant	-14731
▁home	-14732
▁Métro	-14733
▁passera	-14734
endes	-14735
aba	-14736
urées	-14737
▁Vieux	-14738
▁blocs	-14739
▁HT	-14740
ido	-14741
▁Ko	-14742
▁inond	-14743
▁connaissais	-14744
▁11,	-14745
▁explication	-14746
▁amor	-14747
▁agrément	-14748
▁voyons	-14749
▁Tw	-14750
beau	-14751
▁Jud	-14752
▁animée	-14753
orat	-14754
herbe	-14755
▁concret	-14756
▁suites	-14757
▁recommandons	-14758
▁Cle	-14759
▁Reste	-14760
▁messe	-14761
▁job	-14762
▁Nintendo	-14763
olfe	-14764
armerie	-14765
▁capitalisme	-14766
ALL	-14767
itoy	-14768
▁Dol	-14769
▁Micro	-14770
▁prenait	-14771
▁Team	-14772
▁Hello	-14773
▁faisais	-14774
▁obstacles	-14775
ïn	-14776
/06	-14777
▁invisible	-14778
▁fédérale	-14779
/07	-14780
▁amène	-14781
▁Style	-14782
▁tabou	-14783
▁Mairie	-14784
▁situées	-14785
encour	-14786
▁bronze	-14787
explo	-14788
▁échang	-14789
▁côt	-14790
▁Avoir	-14791
▁dictionnaire	-14792
weet	-14793
▁intérieurs	-14794
RL	-14795
▁weekend	-14796
endum	-14797
onais	-14798
▁Tableau	-14799
▁ingénieurs	-14800
▁Deb	-14801
▁placard	-14802
▁récolte	-14803
Val	-14804
▁dynamiques	-14805
conc	-14806
▁hém	-14807
▁ds	-14808
▁absorb	-14809
aso	-14810
▁Mouvement	-14811
▁Posté	-14812
inder	-14813
▁FF	-14814
▁VTT	-14815
▁redéc	-14816
Intérieur	-14817
▁refer	-14818
▁lob	-14819
▁Dijon	-14820
58	-14821
▁Nam	-14822
▁caracté	-14823
Arc	-14824
chev	-14825
▁dangers	-14826
▁média	-14827
▁divine	-14828
▁couverte	-14829
▁boules	-14830
▁Californie	-14831
▁Ty	-14832
▁avouer	-14833
sivement	-14834
ouchement	-14835
▁résume	-14836
adhésion	-14837
oublier	-14838
entiels	-14839
▁correction	-14840
▁proprement	-14841
essaie	-14842
▁éthique	-14843
▁Sont	-14844
onfort	-14845
enticité	-14846
▁renvoie	-14847
▁Prob	-14848
▁French	-14849
▁atteints	-14850
▁dénoncer	-14851
▁saveur	-14852
▁assurant	-14853
▁contributions	-14854
geot	-14855
▁taxi	-14856
ashion	-14857
▁fausses	-14858
loc	-14859
ambou	-14860
▁encl	-14861
quons	-14862
▁Épisode	-14863
▁engl	-14864
▁YouTube	-14865
▁chauffeur	-14866
tario	-14867
▁Music	-14868
origin	-14869
COM	-14870
▁respiration	-14871
▁2.0	-14872
▁ISO	-14873
▁métab	-14874
▁déroulera	-14875
▁renouveler	-14876
BL	-14877
▁interrom	-14878
▁maturité	-14879
▁Nar	-14880
usanne	-14881
▁analog	-14882
bro	-14883
▁sections	-14884
▁ES	-14885
▁2008.	-14886
▁détection	-14887
▁chouette	-14888
oies	-14889
▁tromp	-14890
▁proble	-14891
▁devoirs	-14892
toral	-14893
▁secs	-14894
▁relief	-14895
▁amont	-14896
▁Év	-14897
▁austra	-14898
▁pleurer	-14899
▁shopping	-14900
marché	-14901
▁Accès	-14902
▁bombe	-14903
▁1/2	-14904
▁psychiatri	-14905
▁pouce	-14906
▁concentré	-14907
obi	-14908
▁déser	-14909
titions	-14910
écrivain	-14911
▁vall	-14912
▁bénéficiez	-14913
▁CGT	-14914
viers	-14915
▁résidences	-14916
▁opus	-14917
▁loisir	-14918
▁MER	-14919
▁Nik	-14920
EE	-14921
burg	-14922
▁réconc	-14923
▁semblable	-14924
▁transparent	-14925
geance	-14926
▁étroite	-14927
▁porteurs	-14928
[...]
