<unk>	0
<s>	0
</s>	0
▁d	-0
es	-1
▁l	-2
en	-3
▁p	-4
on	-5
ou	-6
▁s	-7
▁c	-8
re	-9
▁de	-10
an	-11
er	-12
▁a	-13
ti	-14
qu	-15
ai	-16
et	-17
ent	-18
▁m	-19
is	-20
le	-21
te	-22
in	-23
ar	-24
un	-25
ur	-26
▁la	-27
▁v	-28
▁t	-29
▁qu	-30
▁et	-31
▁f	-32
or	-33
▁le	-34
our	-35
▁n	-36
tion	-37
il	-38
it	-39
▁à	-40
▁un	-41
om	-42
▁r	-43
▁en	-44
el	-45
ment	-46
us	-47
▁les	-48
as	-49
al	-50
▁des	-51
▁pr	-52
▁b	-53
ant	-54
est	-55
▁L	-56
ce	-57
ous	-58
au	-59
ch	-60
▁j	-61
ans	-62
▁C	-63
ve	-64
ont	-65
me	-66
ation	-67
ais	-68
ri	-69
▁au	-70
▁pour	-71
▁par	-72
os	-73
▁é	-74
oi	-75
eu	-76
ag	-77
▁du	-78
és	-79
ne	-80
▁g	-81
que	-82
at	-83
ci	-84
ait	-85
li	-86
tre	-87
▁P	-88
▁que	-89
▁pl	-90
res	-91
▁ch	-92
▁S	-93
▁re	-94
▁dé	-95
si	-96
▁une	-97
▁com	-98
de	-99
▁M	-100
▁dans	-101
se	-102
▁tr	-103
▁A	-104
▁con	-105
▁pas	-106
▁est	-107
▁sur	-108
ée	-109
▁qui	-110
mp	-111
ol	-112
▁in	-113
▁D	-114
▁pro	-115
ie	-116
▁se	-117
ac	-118
di	-119
ab	-120
▁(	-121
▁1	-122
té	-123
▁E	-124
ap	-125
▁e	-126
ff	-127
les	-128
ers	-129
am	-130
ui	-131
elle	-132
▁2	-133
▁ré	-134
▁h	-135
▁plus	-136
▁ave	-137
▁:	-138
ouv	-139
aire	-140
ir	-141
..	-142
ons	-143
pr	-144
▁B	-145
▁vous	-146
ér	-147
ain	-148
end	-149
▁avec	-150
out	-151
av	-152
age	-153
urs	-154
ois	-155
op	-156
ité	-157
▁I	-158
▁ce	-159
ran	-160
▁T	-161
▁ou	-162
▁il	-163
onn	-164
ère	-165
ien	-166
▁J	-167
ter	-168
ul	-169
ale	-170
▁je	-171
ure	-172
ès	-173
▁R	-174
tr	-175
▁si	-176
▁F	-177
...	-178
▁ne	-179
ot	-180
oir	-181
uis	-182
▁di	-183
ort	-184
▁av	-185
▁V	-186
▁N	-187
▁o	-188
ques	-189
ue	-190
ati	-191
ette	-192
otre	-193
che	-194
▁Le	-195
ig	-196
ces	-197
tes	-198
ées	-199
▁ex	-200
ge	-201
pe	-202
▁peu	-203
▁i	-204
▁son	-205
▁G	-206
oin	-207
une	-208
ier	-209
▁mais	-210
▁sont	-211
mb	-212
▁te	-213
ction	-214
▁tout	-215
ct	-216
and	-217
▁20	-218
ré	-219
ille	-220
ique	-221
og	-222
ad	-223
eux	-224
oc	-225
▁La	-226
ut	-227
aux	-228
▁ét	-229
▁an	-230
ic	-231
mes	-232
ail	-233
ine	-234
▁«	-235
▁nous	-236
oit	-237
éri	-238
ux	-239
▁Il	-240
ance	-241
ét	-242
▁-	-243
▁me	-244
id	-245
entre	-246
iv	-247
um	-248
▁comp	-249
ence	-250
▁sa	-251
able	-252
▁ser	-253
▁aux	-254
▁gr	-255
ours	-256
▁»	-257
▁su	-258
oy	-259
orm	-260
▁O	-261
ations	-262
én	-263
ate	-264
éc	-265
être	-266
ors	-267
ert	-268
ise	-269
ens	-270
▁cont	-271
▁Les	-272
pp	-273
▁ac	-274
lé	-275
▁!	-276
▁ar	-277
▁bien	-278
▁mon	-279
▁votre	-280
▁H	-281
im	-282
ay	-283
▁U	-284
ard	-285
ouve	-286
▁per	-287
ême	-288
▁fait	-289
▁cette	-290
aut	-291
ob	-292
uit	-293
▁parti	-294
▁al	-295
▁comme	-296
▁dis	-297
▁comm	-298
ion	-299
ace	-300
▁En	-301
ond	-302
▁3	-303
ub	-304
pos	-305
tit	-306
ants	-307
ussi	-308
▁ses	-309
▁pe	-310
▁mar	-311
ill	-312
▁faire	-313
▁cons	-314
ib	-315
onne	-316
vi	-317
▁y	-318
ore	-319
▁Je	-320
alis	-321
til	-322
▁tou	-323
od	-324
▁Ch	-325
oup	-326
ord	-327
▁déc	-328
▁201	-329
ten	-330
▁pers	-331
▁ren	-332
aires	-333
ments	-334
▁aut	-335
eau	-336
ess	-337
eur	-338
ist	-339
▁pos	-340
tif	-341
▁"	-342
ang	-343
▁même	-344
oci	-345
▁car	-346
▁entre	-347
▁on	-348
mi	-349
00	-350
▁as	-351
elles	-352
▁ont	-353
par	-354
ex	-355
▁ma	-356
▁leur	-357
▁très	-358
ra	-359
▁aussi	-360
endre	-361
tin	-362
▁?	-363
omb	-364
▁gran	-365
aine	-366
st	-367
ég	-368
oire	-369
▁trav	-370
sion	-371
▁être	-372
tions	-373
ass	-374
▁été	-375
▁app	-376
onc	-377
ème	-378
em	-379
).	-380
▁prés	-381
teur	-382
ler	-383
ni	-384
▁peut	-385
▁deux	-386
use	-387
mps	-388
tique	-389
▁lui	-390
▁fin	-391
oli	-392
lle	-393
aient	-394
▁Q	-395
ente	-396
▁elle	-397
▁vi	-398
▁pre	-399
ven	-400
▁quel	-401
cher	-402
▁pré	-403
alement	-404
ents	-405
ez	-406
cont	-407
tement	-408
▁rés	-409
▁éc	-410
▁cr	-411
app	-412
▁ces	-413
▁19	-414
met	-415
▁for	-416
▁sans	-417
ante	-418
tis	-419
▁4	-420
jet	-421
ages	-422
▁at	-423
ing	-424
rer	-425
▁ann	-426
▁cl	-427
▁tous	-428
ouver	-429
▁imp	-430
▁st	-431
lic	-432
▁5	-433
▁ter	-434
éd	-435
▁Par	-436
fi	-437
▁Pour	-438
ourn	-439
fin	-440
▁ph	-441
▁am	-442
util	-443
▁personn	-444
près	-445
▁ad	-446
ém	-447
▁inter	-448
),	-449
▁sou	-450
▁sp	-451
▁col	-452
ser	-453
all	-454
ble	-455
▁cel	-456
▁Et	-457
▁sui	-458
▁De	-459
oins	-460
esp	-461
▁co	-462
▁enc	-463
com	-464
▁diff	-465
form	-466
▁jus	-467
▁temps	-468
ong	-469
alité	-470
▁eff	-471
▁man	-472
▁notre	-473
ités	-474
▁prof	-475
tiv	-476
▁rencont	-477
▁Fran	-478
▁dire	-479
▁li	-480
▁dev	-481
ils	-482
cu	-483
ins	-484
lement	-485
▁Ce	-486
▁fr	-487
▁W	-488
ères	-489
ains	-490
ça	-491
▁ca	-492
ts	-493
lè	-494
▁prod	-495
▁K	-496
utilis	-497
▁conc	-498
▁cha	-499
▁der	-500
▁puis	-501
▁ans	-502
ult	-503
▁ob	-504
▁,	-505
per	-506
▁site	-507
man	-508
orte	-509
ales	-510
▁vis	-511
gn	-512
▁grand	-513
ver	-514
ures	-515
ats	-516
oul	-517
▁travail	-518
ici	-519
▁min	-520
qui	-521
▁or	-522
▁vos	-523
▁Mais	-524
iste	-525
pl	-526
enti	-527
▁mé	-528
vent	-529
▁pub	-530
omme	-531
▁donn	-532
ec	-533
▁suis	-534
ite	-535
▁ça	-536
ole	-537
▁Un	-538
▁sy	-539
puis	-540
▁permet	-541
insi	-542
ombre	-543
▁Qu	-544
▁vie	-545
▁soci	-546
asse	-547
els	-548
▁rég	-549
▁encore	-550
iss	-551
▁cré	-552
▁était	-553
uer	-554
▁br	-555
▁rec	-556
anc	-557
itu	-558
▁seu	-559
gr	-560
▁beau	-561
▁mes	-562
▁fa	-563
▁fois	-564
▁où	-565
ves	-566
tic	-567
ches	-568
▁donc	-569
ari	-570
▁In	-571
ix	-572
▁sal	-573
▁fran	-574
rai	-575
emp	-576
▁sous	-577
igne	-578
▁mal	-579
ph	-580
▁th	-581
▁avant	-582
▁dr	-583
▁conf	-584
olog	-585
▁Pr	-586
ateur	-587
▁propos	-588
▁6	-589
ense	-590
▁part	-591
▁ég	-592
nes	-593
min	-594
endant	-595
▁ass	-596
▁cor	-597
ête	-598
oute	-599
▁pay	-600
amb	-601
▁tu	-602
▁Vous	-603
uc	-604
mbre	-605
▁off	-606
▁bl	-607
jour	-608
rez	-609
▁mil	-610
ition	-611
cep	-612
ose	-613
▁ti	-614
▁acc	-615
▁rép	-616
▁nombre	-617
▁fem	-618
▁petit	-619
olu	-620
▁conn	-621
aiss	-622
oule	-623
▁exp	-624
▁avait	-625
éci	-626
ature	-627
▁env	-628
rit	-629
▁sec	-630
▁gén	-631
▁bon	-632
ner	-633
▁lors	-634
omm	-635
▁leurs	-636
▁w	-637
▁nos	-638
▁non	-639
▁trans	-640
▁cert	-641
▁ainsi	-642
▁Nous	-643
jours	-644
▁im	-645
▁Mar	-646
▁ni	-647
▁...	-648
▁res	-649
▁monde	-650
▁toute	-651
▁cas	-652
are	-653
▁quelques	-654
ues	-655
▁200	-656
▁moins	-657
▁Si	-658
▁7	-659
év	-660
▁mo	-661
▁met	-662
▁pouv	-663
▁commun	-664
erci	-665
enne	-666
▁dont	-667
ire	-668
iques	-669
ép	-670
▁cour	-671
▁nouv	-672
▁contre	-673
▁ju	-674
▁repr	-675
▁fil	-676
▁alors	-677
▁év	-678
▁;	-679
▁form	-680
gan	-681
eure	-682
ière	-683
cip	-684
▁depuis	-685
aines	-686
▁On	-687
▁après	-688
▁vrai	-689
▁utilis	-690
▁nouve	-691
▁An	-692
▁Une	-693
nement	-694
▁ap	-695
été	-696
▁toujours	-697
▁premi	-698
mis	-699
▁moi	-700
▁dés	-701
ôt	-702
▁déb	-703
atique	-704
▁enf	-705
ilité	-706
▁soit	-707
▁Elle	-708
çais	-709
▁servi	-710
mble	-711
▁mont	-712
▁main	-713
élé	-714
▁France	-715
▁–	-716
avoir	-717
ide	-718
▁avoir	-719
▁Al	-720
ables	-721
coup	-722
▁ins	-723
uction	-724
▁op	-725
ances	-726
▁également	-727
▁toutes	-728
sionn	-729
▁Au	-730
▁sc	-731
ric	-732
ange	-733
ies	-734
ites	-735
▁sé	-736
▁8	-737
antes	-738
▁ent	-739
▁long	-740
onction	-741
▁poin	-742
▁ab	-743
ann	-744
▁contr	-745
▁ils	-746
lus	-747
▁inté	-748
▁jou	-749
act	-750
▁autres	-751
ign	-752
▁va	-753
▁différ	-754
▁bas	-755
aison	-756
one	-757
▁pays	-758
ommes	-759
▁compr	-760
iter	-761
vre	-762
▁mod	-763
▁pass	-764
adi	-765
▁cela	-766
teurs	-767
▁cli	-768
▁cher	-769
êt	-770
oupe	-771
uits	-772
▁ag	-773
quer	-774
▁10	-775
▁sera	-776
▁Dans	-777
▁mus	-778
▁quand	-779
▁rencontre	-780
▁.	-781
ieux	-782
agn	-783
▁beaucoup	-784
tel	-785
▁poli	-786
ences	-787
▁prop	-788
estion	-789
ieurs	-790
des	-791
▁dév	-792
▁cap	-793
▁rest	-794
▁présent	-795
uite	-796
▁jour	-797
ern	-798
▁att	-799
▁déj	-800
▁coup	-801
oix	-802
ger	-803
ov	-804
aph	-805
aî	-806
▁vers	-807
▁char	-808
ouvez	-809
▁aff	-810
cess	-811
mand	-812
él	-813
tiques	-814
elop	-815
▁simp	-816
▁appr	-817
▁fonction	-818
▁phot	-819
▁génér	-820
mier	-821
isse	-822
ach	-823
ganis	-824
mar	-825
▁place	-826
onom	-827
lier	-828
▁rapp	-829
mer	-830
▁prin	-831
▁profes	-832
▁lib	-833
aille	-834
ises	-835
▁ép	-836
▁/	-837
▁Tr	-838
lection	-839
▁9	-840
▁k	-841
▁Cette	-842
▁fer	-843
▁dou	-844
▁faut	-845
▁autre	-846
▁id	-847
▁mom	-848
ctu	-849
▁rel	-850
▁dép	-851
ES	-852
uses	-853
▁voir	-854
ell	-855
▁meille	-856
rait	-857
▁spéci	-858
▁projet	-859
sible	-860
ets	-861
aite	-862
acc	-863
▁recher	-864
ro	-865
ateurs	-866
▁tech	-867
dre	-868
mpl	-869
▁che	-870
▁ver	-871
mé	-872
agne	-873
dic	-874
ellement	-875
lig	-876
▁fam	-877
▁réalis	-878
▁dit	-879
ress	-880
▁français	-881
▁plan	-882
▁retr	-883
tive	-884
▁trop	-885
▁préc	-886
▁parf	-887
lique	-888
ode	-889
tionn	-890
th	-891
hui	-892
▁no	-893
▁jours	-894
▁chez	-895
titu	-896
▁mat	-897
ché	-898
▁né	-899
▁personnes	-900
▁[	-901
rir	-902
ok	-903
▁pi	-904
▁plusieurs	-905
imp	-906
aur	-907
était	-908
▁déjà	-909
▁arri	-910
rib	-911
▁trois	-912
éb	-913
▁Re	-914
▁souv	-915
▁mois	-916
▁grat	-917
▁Th	-918
▁ven	-919
20	-920
▁gar	-921
▁aur	-922
▁es	-923
▁prob	-924
▁là	-925
illes	-926
▁premier	-927
ions	-928
▁situ	-929
ich	-930
▁18	-931
▁jusqu	-932
▁chaque	-933
aint	-934
▁Ar	-935
▁réf	-936
ivre	-937
▁dévelop	-938
if	-939
▁bou	-940
▁partie	-941
▁Com	-942
▁reg	-943
cri	-944
▁fond	-945
▁Des	-946
▁public	-947
autres	-948
ps	-949
▁É	-950
att	-951
▁prix	-952
entes	-953
▁derni	-954
az	-955
▁suite	-956
lu	-957
vis	-958
int	-959
ivers	-960
cc	-961
▁nouveau	-962
ath	-963
▁peti	-964
▁dom	-965
▁mis	-966
▁cet	-967
istoire	-968
▁cours	-969
▁maison	-970
▁première	-971
▁sex	-972
▁grande	-973
▁15	-974
▁moment	-975
air	-976
▁inc	-977
▁»,	-978
jourd	-979
ade	-980
▁rap	-981
ON	-982
ines	-983
▁port	-984
▁dur	-985
aute	-986
▁0	-987
▁ligne	-988
vers	-989
▁droit	-990
tant	-991
pect	-992
tres	-993
rent	-994
▁pres	-995
▁particu	-996
quipe	-997
▁fais	-998
▁doit	-999
▁déf	-1000
▁lég	-1001
▁journ	-1002
mande	-1003
elon	-1004
ow	-1005
ène	-1006
lec	-1007
▁pouvez	-1008
orti	-1009
▁rien	-1010
▁sem	-1011
amais	-1012
ah	-1013
▁bi	-1014
▁loc	-1015
qué	-1016
êtes	-1017
▁bes	-1018
▁années	-1019
▁nom	-1020
▁afin	-1021
▁comment	-1022
onde	-1023
▁fut	-1024
000	-1025
gl	-1026
▁conse	-1027
èrement	-1028
▁vol	-1029
ouvert	-1030
▁esp	-1031
téri	-1032
▁ty	-1033
prise	-1034
▁femme	-1035
eb	-1036
art	-1037
urop	-1038
amment	-1039
▁nature	-1040
▁jamais	-1041
anger	-1042
ogr	-1043
▁télé	-1044
idé	-1045
▁Gr	-1046
ettes	-1047
▁compte	-1048
▁not	-1049
ieu	-1050
ication	-1051
sez	-1052
▁X	-1053
aud	-1054
oil	-1055
oph	-1056
▁indi	-1057
▁Con	-1058
fs	-1059
iens	-1060
ges	-1061
▁supp	-1062
▁milli	-1063
▁professionn	-1064
▁ten	-1065
enc	-1066
▁pouvoir	-1067
▁(1	-1068
orts	-1069
▁nive	-1070
▁import	-1071
▁Paris	-1072
ative	-1073
ret	-1074
▁bonne	-1075
▁Y	-1076
▁voy	-1077
▁ess	-1078
ER	-1079
▁can	-1080
aise	-1081
la	-1082
cien	-1083
ande	-1084
▁eu	-1085
uire	-1086
▁ple	-1087
▁hab	-1088
▁mati	-1089
▁avons	-1090
▁ret	-1091
▁dispos	-1092
▁jeu	-1093
▁mot	-1094
▁nation	-1095
▁trouve	-1096
comp	-1097
▁|	-1098
ili	-1099
▁cuis	-1100
oll	-1101
▁effet	-1102
vec	-1103
▁inform	-1104
▁vraiment	-1105
▁sol	-1106
▁nouvelle	-1107
atri	-1108
tout	-1109
▁celui	-1110
▁savoir	-1111
▁recherche	-1112
ud	-1113
▁St	-1114
entr	-1115
tier	-1116
▁ici	-1117
▁moy	-1118
▁point	-1119
▁pendant	-1120
ût	-1121
sib	-1122
▁enfants	-1123
▁intern	-1124
fr	-1125
▁16	-1126
çon	-1127
▁ville	-1128
▁ceux	-1129
nier	-1130
▁souh	-1131
tér	-1132
▁peuvent	-1133
ori	-1134
▁».	-1135
▁prendre	-1136
▁mag	-1137
▁tour	-1138
aff	-1139
udi	-1140
vous	-1141
▁chois	-1142
unes	-1143
▁men	-1144
ager	-1145
▁lieu	-1146
▁mettre	-1147
AN	-1148
ak	-1149
cid	-1150
▁por	-1151
▁mieux	-1152
vez	-1153
amme	-1154
▁avez	-1155
ération	-1156
oris	-1157
ôle	-1158
▁dernier	-1159
âce	-1160
érie	-1161
EN	-1162
▁qualité	-1163
▁dét	-1164
éli	-1165
▁sens	-1166
uss	-1167
▁mer	-1168
▁appar	-1169
▁ind	-1170
nent	-1171
dr	-1172
▁syst	-1173
tien	-1174
▁12	-1175
rie	-1176
▁organis	-1177
▁personne	-1178
tern	-1179
▁gros	-1180
rique	-1181
▁exemp	-1182
ulture	-1183
▁souvent	-1184
▁gen	-1185
▁représ	-1186
ile	-1187
ograph	-1188
▁princip	-1189
▁produits	-1190
▁soir	-1191
olution	-1192
▁techn	-1193
▁demand	-1194
▁mainten	-1195
....	-1196
ox	-1197
exp	-1198
èle	-1199
▁cô	-1200
▁z	-1201
ust	-1202
▁inst	-1203
istes	-1204
sions	-1205
▁soi	-1206
▁sau	-1207
▁ai	-1208
vant	-1209
tifs	-1210
iti	-1211
ident	-1212
▁jeune	-1213
▁prom	-1214
▁sais	-1215
▁Ils	-1216
ule	-1217
▁progr	-1218
▁partir	-1219
▁resp	-1220
▁sorti	-1221
▁niveau	-1222
▁pens	-1223
▁groupe	-1224
▁rou	-1225
▁inf	-1226
▁seul	-1227
▁trouver	-1228
▁cad	-1229
ouvrir	-1230
▁reste	-1231
▁tant	-1232
ueil	-1233
▁chose	-1234
▁coule	-1235
▁auc	-1236
ible	-1237
▁contin	-1238
▁demande	-1239
▁sour	-1240
▁Saint	-1241
ug	-1242
▁@	-1243
era	-1244
▁question	-1245
▁chamb	-1246
isme	-1247
pte	-1248
▁comb	-1249
▁constr	-1250
chet	-1251
▁dém	-1252
▁2018	-1253
▁service	-1254
mbl	-1255
▁femmes	-1256
▁gl	-1257
▁petite	-1258
ément	-1259
istre	-1260
arr	-1261
rier	-1262
ds	-1263
ys	-1264
▁pu	-1265
amp	-1266
▁région	-1267
arge	-1268
oles	-1269
part	-1270
▁porte	-1271
▁30	-1272
▁parce	-1273
▁exc	-1274
▁voit	-1275
▁début	-1276
vé	-1277
eures	-1278
vient	-1279
▁ense	-1280
▁cal	-1281
▁17	-1282
eurs	-1283
érer	-1284
Un	-1285
▁choix	-1286
tat	-1287
▁disp	-1288
cle	-1289
▁pop	-1290
autre	-1291
▁hum	-1292
▁éle	-1293
▁dess	-1294
cul	-1295
▁str	-1296
venir	-1297
▁surtout	-1298
ron	-1299
▁film	-1300
▁rapide	-1301
atég	-1302
lex	-1303
▁fl	-1304
▁terr	-1305
▁aujourd	-1306
▁11	-1307
ind	-1308
ock	-1309
ième	-1310
anté	-1311
▁log	-1312
cture	-1313
▁faci	-1314
éric	-1315
écur	-1316
▁possible	-1317
▁lit	-1318
action	-1319
▁certains	-1320
▁nécess	-1321
resse	-1322
ression	-1323
▁activ	-1324
inter	-1325
ticle	-1326
▁lais	-1327
▁face	-1328
oires	-1329
▁crois	-1330
▁cin	-1331
▁mise	-1332
▁selon	-1333
ack	-1334
▁direc	-1335
▁juste	-1336
voir	-1337
▁Car	-1338
▁voul	-1339
orme	-1340
▁Z	-1341
uel	-1342
up	-1343
▁sujet	-1344
▁famille	-1345
▁14	-1346
▁trouv	-1347
ologie	-1348
▁résult	-1349
▁all	-1350
▁veu	-1351
▁gouver	-1352
▁ci	-1353
▁tel	-1354
▁cond	-1355
istr	-1356
▁celle	-1357
▁num	-1358
quoi	-1359
▁rep	-1360
▁#	-1361
▁pris	-1362
▁grâce	-1363
isc	-1364
▁Pl	-1365
▁super	-1366
▁travers	-1367
▁forme	-1368
▁vu	-1369
▁Tout	-1370
oie	-1371
▁sub	-1372
atiques	-1373
▁politique	-1374
▁année	-1375
▁passer	-1376
gré	-1377
▁rend	-1378
▁développe	-1379
af	-1380
atis	-1381
-1	-1382
oth	-1383
oque	-1384
▁seulement	-1385
▁compos	-1386
▁cou	-1387
rière	-1388
▁Avec	-1389
▁regard	-1390
▁piè	-1391
▁réc	-1392
ke	-1393
▁13	-1394
▁besoin	-1395
▁notamment	-1396
crip	-1397
▁gratuit	-1398
▁popul	-1399
aque	-1400
▁Après	-1401
▁jeunes	-1402
gé	-1403
je	-1404
abl	-1405
éné	-1406
IN	-1407
▁corps	-1408
▁ref	-1409
▁Br	-1410
anti	-1411
oration	-1412
èg	-1413
assi	-1414
▁Mon	-1415
asion	-1416
▁priv	-1417
▁société	-1418
▁ris	-1419
▁sign	-1420
▁système	-1421
▁&	-1422
IS	-1423
ook	-1424
oût	-1425
iers	-1426
obil	-1427
▁mét	-1428
œu	-1429
▁Ren	-1430
▁décl	-1431
▁Cl	-1432
▁simple	-1433
jec	-1434
▁côté	-1435
▁plut	-1436
▁type	-1437
▁répond	-1438
▁façon	-1439
onnement	-1440
▁exemple	-1441
ote	-1442
ame	-1443
tention	-1444
▁propose	-1445
aces	-1446
▁cuisine	-1447
▁Se	-1448
▁parc	-1449
▁belle	-1450
▁respons	-1451
aître	-1452
▁sécur	-1453
▁sommes	-1454
▁économ	-1455
UR	-1456
AR	-1457
▁Sur	-1458
érence	-1459
▁assez	-1460
▁passe	-1461
ditions	-1462
▁près	-1463
enir	-1464
illet	-1465
▁proc	-1466
▁homme	-1467
abilité	-1468
sid	-1469
atif	-1470
erre	-1471
arm	-1472
ront	-1473
▁êtes	-1474
",	-1475
▁réd	-1476
▁Ph	-1477
▁Bl	-1478
▁Ces	-1479
▁particuli	-1480
pes	-1481
oses	-1482
▁cer	-1483
▁doc	-1484
▁ress	-1485
▁nombreux	-1486
▁rem	-1487
▁tot	-1488
▁services	-1489
ss	-1490
▁À	-1491
▁salle	-1492
inc	-1493
▁éch	-1494
dition	-1495
suite	-1496
▁quoi	-1497
ax	-1498
▁minu	-1499
▁pense	-1500
tt	-1501
ribu	-1502
▁siè	-1503
▁font	-1504
▁haut	-1505
ienne	-1506
▁envir	-1507
usement	-1508
apos	-1509
▁représent	-1510
▁empl	-1511
▁vidé	-1512
▁devant	-1513
▁rapport	-1514
50	-1515
▁plais	-1516
▁fac	-1517
▁plutôt	-1518
▁manière	-1519
30	-1520
uil	-1521
▁tex	-1522
▁préf	-1523
▁proch	-1524
▁tête	-1525
▁hommes	-1526
vir	-1527
▁données	-1528
▁quelque	-1529
tra	-1530
▁%	-1531
▁disc	-1532
▁bar	-1533
▁dos	-1534
▁memb	-1535
▁Ne	-1536
▁serait	-1537
▁anim	-1538
▁cadre	-1539
▁donner	-1540
même	-1541
▁publi	-1542
once	-1543
▁Jean	-1544
tent	-1545
▁maintenant	-1546
▁élé	-1547
▁etc	-1548
uli	-1549
▁cul	-1550
arg	-1551
ome	-1552
vier	-1553
▁Bon	-1554
▁sû	-1555
▁bois	-1556
ital	-1557
▁vér	-1558
anci	-1559
▁associ	-1560
œur	-1561
▁photos	-1562
ctions	-1563
▁“	-1564
ee	-1565
aitement	-1566
issement	-1567
aill	-1568
▁lim	-1569
▁pie	-1570
▁formation	-1571
▁entrepr	-1572
ierre	-1573
▁change	-1574
térieur	-1575
itaire	-1576
▁produit	-1577
▁unique	-1578
▁membres	-1579
erg	-1580
avant	-1581
erie	-1582
▁cri	-1583
▁artis	-1584
mment	-1585
aissance	-1586
eaux	-1587
▁appel	-1588
▁centre	-1589
TI	-1590
nif	-1591
ton	-1592
▁Can	-1593
uy	-1594
201	-1595
▁donne	-1596
▁heures	-1597
ptembre	-1598
▁mai	-1599
▁seront	-1600
▁doi	-1601
▁imm	-1602
▁vue	-1603
▁vale	-1604
▁pap	-1605
dez	-1606
▁eux	-1607
▁série	-1608
ting	-1609
▁juin	-1610
▁autour	-1611
tez	-1612
▁péri	-1613
▁étaient	-1614
oign	-1615
▁semaine	-1616
▁sites	-1617
yn	-1618
ane	-1619
rig	-1620
ris	-1621
gne	-1622
ète	-1623
▁rev	-1624
tenir	-1625
▁elles	-1626
port	-1627
▁emp	-1628
▁chau	-1629
▁dispon	-1630
▁actu	-1631
appr	-1632
be	-1633
tu	-1634
lir	-1635
avais	-1636
dit	-1637
oche	-1638
▁mul	-1639
▁Ex	-1640
!!	-1641
▁loin	-1642
alités	-1643
obre	-1644
▁développement	-1645
erv	-1646
▁feu	-1647
cup	-1648
▁vit	-1649
▁ton	-1650
▁livre	-1651
▁santé	-1652
▁100	-1653
lème	-1654
▁liv	-1655
▁base	-1656
éh	-1657
équ	-1658
urer	-1659
▁culture	-1660
▁val	-1661
aul	-1662
isation	-1663
▁consid	-1664
iller	-1665
▁situation	-1666
of	-1667
och	-1668
raî	-1669
ument	-1670
▁faute	-1671
▁ri	-1672
iser	-1673
▁loi	-1674
icile	-1675
▁dès	-1676
▁DE	-1677
▁aj	-1678
▁rencontres	-1679
▁but	-1680
▁lang	-1681
▁gouvernement	-1682
ars	-1683
tiss	-1684
heure	-1685
▁Mont	-1686
▁cm	-1687
atre	-1688
▁problème	-1689
enf	-1690
trait	-1691
▁journée	-1692
année	-1693
ception	-1694
".	-1695
▁dernière	-1696
eff	-1697
▁Du	-1698
▁septembre	-1699
oici	-1700
▁gens	-1701
▁plaisir	-1702
▁suff	-1703
éch	-1704
▁plu	-1705
▁accomp	-1706
histoire	-1707
▁particip	-1708
agit	-1709
▁Cel	-1710
▁lum	-1711
▁choses	-1712
erne	-1713
prit	-1714
▁camp	-1715
▁page	-1716
▁titre	-1717
pec	-1718
▁défin	-1719
▁Sal	-1720
▁!!	-1721
▁El	-1722
▁règ	-1723
▁rév	-1724
▁Alors	-1725
▁prend	-1726
▁toi	-1727
▁large	-1728
▁conten	-1729
cre	-1730
▁2016	-1731
▁table	-1732
▁nouvelles	-1733
▁internation	-1734
RE	-1735
▁Son	-1736
anche	-1737
▁2017	-1738
▁Comment	-1739
▁Comme	-1740
2,	-1741
uerre	-1742
ctobre	-1743
cie	-1744
uropé	-1745
▁bout	-1746
▁meilleur	-1747
▁25	-1748
oite	-1749
▁cir	-1750
ardin	-1751
▁sécurité	-1752
co	-1753
rée	-1754
quel	-1755
illage	-1756
▁ay	-1757
▁199	-1758
gment	-1759
▁dépl	-1760
▁vient	-1761
▁concern	-1762
oub	-1763
▁commenc	-1764
In	-1765
orter	-1766
▁tourn	-1767
ablement	-1768
▁découvrir	-1769
▁minutes	-1770
▁fab	-1771
▁dist	-1772
▁petits	-1773
inst	-1774
▁thé	-1775
▁mort	-1776
▁mess	-1777
érique	-1778
▁puiss	-1779
▁fort	-1780
▁24	-1781
▁inv	-1782
inform	-1783
▁différents	-1784
▁destin	-1785
iff	-1786
▁vais	-1787
▁raison	-1788
▁reconn	-1789
▁club	-1790
▁marque	-1791
érience	-1792
▁parten	-1793
occ	-1794
▁mari	-1795
▁aller	-1796
▁passé	-1797
▁terre	-1798
yc	-1799
▁Comm	-1800
▁Plus	-1801
▁ord	-1802
▁champ	-1803
temps	-1804
LE	-1805
ril	-1806
éré	-1807
▁offre	-1808
▁chambre	-1809
/1	-1810
vres	-1811
▁semble	-1812
▁maj	-1813
yp	-1814
ôtel	-1815
▁Pas	-1816
:/	-1817
outer	-1818
▁achet	-1819
▁possib	-1820
lication	-1821
off	-1822
auteur	-1823
▁informations	-1824
▁orig	-1825
ali	-1826
agement	-1827
aime	-1828
tisse	-1829
çu	-1830
avait	-1831
ones	-1832
▁bal	-1833
▁propre	-1834
▁retour	-1835
vie	-1836
▁eng	-1837
▁chac	-1838
▁pourrait	-1839
éro	-1840
ider	-1841
orer	-1842
▁ouv	-1843
ision	-1844
▁président	-1845
yle	-1846
▁souhaite	-1847
▁adap	-1848
▁marché	-1849
oti	-1850
▁senti	-1851
alisation	-1852
▁coll	-1853
▁heure	-1854
://	-1855
▁prév	-1856
▁fille	-1857
aie	-1858
▁Pe	-1859
▁fourn	-1860
cription	-1861
0,	-1862
xim	-1863
endu	-1864
▁Char	-1865
▁médi	-1866
▁poss	-1867
▁tomb	-1868
▁rom	-1869
▁béné	-1870
▁vari	-1871
▁millions	-1872
▁chem	-1873
▁équipe	-1874
▁arr	-1875
An	-1876
vée	-1877
vembre	-1878
▁collec	-1879
aît	-1880
lément	-1881
ailleurs	-1882
ect	-1883
▁telle	-1884
▁lorsque	-1885
▁pourquoi	-1886
uelle	-1887
équipe	-1888
▁>	-1889
▁Sa	-1890
▁viv	-1891
▁parler	-1892
▁fi	-1893
▁tard	-1894
▁présente	-1895
▁000	-1896
▁voyage	-1897
tim	-1898
▁2015	-1899
▁propri	-1900
▁cherche	-1901
ètres	-1902
▁web	-1903
▁sélection	-1904
▁peux	-1905
▁+	-1906
resp	-1907
▁Ou	-1908
▁viol	-1909
▁étudi	-1910
reg	-1911
▁Dieu	-1912
▁sac	-1913
▁yeux	-1914
▁matéri	-1915
▁parfois	-1916
ia	-1917
▁test	-1918
▁équi	-1919
aly	-1920
▁21	-1921
empl	-1922
▁genre	-1923
▁gestion	-1924
urent	-1925
▁ayant	-1926
ouss	-1927
▁nuit	-1928
▁écrit	-1929
▁améric	-1930
▁réussi	-1931
▁mouve	-1932
▁aurait	-1933
vid	-1934
▁seule	-1935
ministr	-1936
vention	-1937
▁pol	-1938
▁syn	-1939
hab	-1940
▁22	-1941
▁musique	-1942
écu	-1943
▁temp	-1944
oyer	-1945
▁pan	-1946
▁•	-1947
atives	-1948
▁production	-1949
let	-1950
...)	-1951
èrent	-1952
aliste	-1953
itions	-1954
▁pratique	-1955
ze	-1956
▁vac	-1957
▁cent	-1958
ada	-1959
▁Sh	-1960
▁élè	-1961
▁mars	-1962
▁â	-1963
estions	-1964
ards	-1965
▁grands	-1966
OU	-1967
▁trait	-1968
ime	-1969
▁vente	-1970
▁tradi	-1971
▁octobre	-1972
▁intéress	-1973
son	-1974
▁tent	-1975
▁modi	-1976
▁mesure	-1977
▁téléph	-1978
âte	-1979
▁ta	-1980
médi	-1981
ensemble	-1982
▁créer	-1983
ki	-1984
ouverte	-1985
sp	-1986
▁nombreuses	-1987
▁travaux	-1988
▁cause	-1989
▁autant	-1990
Ar	-1991
erts	-1992
fier	-1993
anvier	-1994
▁décid	-1995
▁veut	-1996
atoire	-1997
oure	-1998
▁let	-1999
der	-2000
éti	-2001
▁dég	-2002
▁nouveaux	-2003
▁saison	-2004
▁europé	-2005
▁vendre	-2006
▁conditions	-2007
émin	-2008
▁ban	-2009
activ	-2010
▁sexe	-2011
oh	-2012
▁étant	-2013
▁Bien	-2014
pt	-2015
orité	-2016
▁divers	-2017
▁entreprises	-2018
▁conte	-2019
▁plein	-2020
▁quatre	-2021
▁Me	-2022
▁permis	-2023
▁ensuite	-2024
rès	-2025
val	-2026
▁général	-2027
▁création	-2028
▁50	-2029
▁Or	-2030
bles	-2031
▁succ	-2032
did	-2033
▁aucun	-2034
▁x	-2035
▁Gran	-2036
▁bénéfi	-2037
▁po	-2038
▁cit	-2039
▁clients	-2040
▁questions	-2041
ysi	-2042
dess	-2043
▁photo	-2044
▁rendre	-2045
ots	-2046
▁rempl	-2047
pendant	-2048
occasion	-2049
▁matière	-2050
lam	-2051
▁blog	-2052
▁frais	-2053
▁visite	-2054
aj	-2055
rage	-2056
▁vite	-2057
▁habit	-2058
▁charge	-2059
quelle	-2060
ueur	-2061
ibles	-2062
ude	-2063
uve	-2064
auté	-2065
▁perd	-2066
▁sûr	-2067
urope	-2068
respond	-2069
▁second	-2070
ologique	-2071
▁novembre	-2072
hés	-2073
TE	-2074
oss	-2075
seur	-2076
aller	-2077
▁four	-2078
position	-2079
▁us	-2080
tient	-2081
▁noir	-2082
▁doute	-2083
▁Am	-2084
iner	-2085
▁simplement	-2086
orig	-2087
homme	-2088
▁offici	-2089
▁différentes	-2090
▁ps	-2091
▁œu	-2092
▁tri	-2093
▁réun	-2094
▁Dé	-2095
odes	-2096
▁Col	-2097
▁Ré	-2098
▁élect	-2099
▁déclar	-2100
▁laquelle	-2101
▁jeux	-2102
▁programme	-2103
▁(2	-2104
▁is	-2105
ancer	-2106
ash	-2107
cier	-2108
▁mode	-2109
▁prise	-2110
▁classe	-2111
▁couleur	-2112
ouverture	-2113
▁cœur	-2114
▁abs	-2115
▁doivent	-2116
ase	-2117
▁esc	-2118
nov	-2119
èmes	-2120
▁souhait	-2121
AS	-2122
▁rob	-2123
onnes	-2124
▁père	-2125
▁reven	-2126
niques	-2127
▁histoire	-2128
for	-2129
▁mor	-2130
▁juillet	-2131
▁rapidement	-2132
yl	-2133
▁of	-2134
▁tend	-2135
4,	-2136
▁prov	-2137
acité	-2138
▁mondi	-2139
▁vidéo	-2140
▁Ad	-2141
▁Ser	-2142
▁htt	-2143
▁autom	-2144
oux	-2145
▁pren	-2146
▁important	-2147
ave	-2148
▁janvier	-2149
▁fav	-2150
otidi	-2151
▁correspond	-2152
▁Lors	-2153
ulaire	-2154
ède	-2155
▁suiv	-2156
▁enfant	-2157
ociation	-2158
no	-2159
élè	-2160
▁Que	-2161
▁points	-2162
lie	-2163
▁guerre	-2164
1,	-2165
▁mère	-2166
▁carte	-2167
▁matin	-2168
▁vivre	-2169
▁sus	-2170
▁Merci	-2171
ourg	-2172
▁restaur	-2173
aï	-2174
orie	-2175
▁déce	-2176
onie	-2177
▁aura	-2178
▁taille	-2179
▁commerci	-2180
▁sen	-2181
▁sein	-2182
▁confi	-2183
▁moyen	-2184
arde	-2185
rant	-2186
▁Déc	-2187
▁rac	-2188
▁avril	-2189
▁Notre	-2190
ice	-2191
itable	-2192
▁hist	-2193
▁confort	-2194
▁française	-2195
bre	-2196
erm	-2197
AL	-2198
▁ir	-2199
▁aim	-2200
oilà	-2201
ouse	-2202
▁Cor	-2203
issant	-2204
▁deven	-2205
▁terme	-2206
tées	-2207
▁Depuis	-2208
▁quotidi	-2209
oud	-2210
▁Sp	-2211
fois	-2212
ionn	-2213
▁the	-2214
▁Intern	-2215
▁fauteuil	-2216
▁avis	-2217
Al	-2218
▁Cela	-2219
▁maî	-2220
acer	-2221
arri	-2222
▁route	-2223
▁vacances	-2224
▁certaines	-2225
▁bâ	-2226
▁symp	-2227
time	-2228
ules	-2229
▁alle	-2230
▁complè	-2231
▁origin	-2232
▁réseau	-2233
idi	-2234
join	-2235
▁fai	-2236
airement	-2237
ru	-2238
hum	-2239
▁neu	-2240
▁facile	-2241
▁laisser	-2242
ende	-2243
onse	-2244
▁Bar	-2245
▁laiss	-2246
▁ensemble	-2247
▁activités	-2248
2.	-2249
▁projets	-2250
▁collection	-2251
▁conv	-2252
ett	-2253
▁sh	-2254
▁Mal	-2255
gement	-2256
OR	-2257
▁Te	-2258
▁donné	-2259
▁siècle	-2260
entreprise	-2261
▁élèves	-2262
paration	-2263
▁Su	-2264
▁souff	-2265
▁modèle	-2266
▁technique	-2267
auv	-2268
auche	-2269
abord	-2270
▁Québ	-2271
▁vois	-2272
▁effic	-2273
êts	-2274
▁fle	-2275
▁lut	-2276
▁sup	-2277
oleil	-2278
▁objec	-2279
▁compris	-2280
▁conseil	-2281
▁comprendre	-2282
ape	-2283
▁multi	-2284
▁23	-2285
▁sort	-2286
▁blanc	-2287
▁réser	-2288
▁spect	-2289
ates	-2290
▁lien	-2291
▁oc	-2292
▁Quand	-2293
▁démar	-2294
▁liste	-2295
▁Cons	-2296
▁anti	-2297
onomie	-2298
▁période	-2299
partement	-2300
▁oui	-2301
▁valeur	-2302
▁augment	-2303
▁entreprise	-2304
ith	-2305
iles	-2306
▁étran	-2307
▁consomm	-2308
mm	-2309
aqu	-2310
yth	-2311
▁gard	-2312
aide	-2313
▁ali	-2314
▁emb	-2315
ousse	-2316
arer	-2317
▁chef	-2318
iennent	-2319
itation	-2320
évrier	-2321
▁dér	-2322
▁agré	-2323
▁accep	-2324
▁outil	-2325
▁résultats	-2326
▁atte	-2327
▁match	-2328
▁sig	-2329
▁bord	-2330
▁force	-2331
UE	-2332
ades	-2333
agner	-2334
alog	-2335
▁sait	-2336
▁couleurs	-2337
ip	-2338
▁The	-2339
▁rue	-2340
▁lire	-2341
vement	-2342
▁physi	-2343
▁prote	-2344
▁venir	-2345
organis	-2346
▁parents	-2347
▁professionnels	-2348
▁mach	-2349
▁décembre	-2350
lent	-2351
usse	-2352
▁pot	-2353
▁essay	-2354
▁aucune	-2355
AC	-2356
▁pati	-2357
▁grandes	-2358
ref	-2359
▁ble	-2360
▁oblig	-2361
▁style	-2362
▁presque	-2363
erce	-2364
▁quar	-2365
▁impos	-2366
▁ministre	-2367
eng	-2368
rés	-2369
ume	-2370
▁jouer	-2371
▁directement	-2372
▁bure	-2373
▁droits	-2374
▁fix	-2375
asser	-2376
▁enfin	-2377
▁naturel	-2378
pir	-2379
▁rece	-2380
▁manif	-2381
▁remar	-2382
▁détail	-2383
▁article	-2384
▁radi	-2385
▁auprès	-2386
▁financi	-2387
urb	-2388
▁cam	-2389
▁conne	-2390
▁parmi	-2391
né	-2392
ych	-2393
▁lo	-2394
oise	-2395
▁amis	-2396
▁chat	-2397
origine	-2398
▁chacun	-2399
▁deuxième	-2400
▁vont	-2401
oun	-2402
▁risque	-2403
▁univers	-2404
▁constitu	-2405
▁présence	-2406
▁idé	-2407
▁libre	-2408
▁rê	-2409
veur	-2410
▁Man	-2411
▁remp	-2412
▁rôle	-2413
▁pièces	-2414
▁territ	-2415
▁bat	-2416
ainte	-2417
▁rais	-2418
urg	-2419
...]	-2420
▁voiture	-2421
▁certaine	-2422
10	-2423
enn	-2424
▁date	-2425
▁manque	-2426
▁choisir	-2427
▁domaine	-2428
▁perform	-2429
IL	-2430
▁relig	-2431
édi	-2432
entif	-2433
▁Ainsi	-2434
▁liber	-2435
▁milieu	-2436
▁particulier	-2437
▁él	-2438
après	-2439
tivement	-2440
IC	-2441
ël	-2442
quent	-2443
▁Québec	-2444
crit	-2445
ission	-2446
▁volont	-2447
Unis	-2448
êmes	-2449
▁lun	-2450
étique	-2451
▁merci	-2452
▁plate	-2453
OM	-2454
▁nég	-2455
▁nationale	-2456
▁fig	-2457
▁gui	-2458
▁nav	-2459
▁scène	-2460
amour	-2461
▁candid	-2462
▁classi	-2463
▁client	-2464
▁février	-2465
▁mouvement	-2466
▁mas	-2467
▁durant	-2468
▁individ	-2469
▁position	-2470
3,	-2471
udes	-2472
▁App	-2473
▁connaiss	-2474
IT	-2475
▁u	-2476
▁recom	-2477
▁198	-2478
▁stru	-2479
▁confir	-2480
utilisation	-2481
▁joli	-2482
▁logici	-2483
▁26	-2484
▁oub	-2485
entiel	-2486
▁Conse	-2487
bum	-2488
▁[...]	-2489
▁dossi	-2490
▁départ	-2491
▁Dr	-2492
inté	-2493
▁civ	-2494
lectr	-2495
quant	-2496
he	-2497
tal	-2498
book	-2499
▁enti	-2500
▁franc	-2501
▁changer	-2502
orde	-2503
veux	-2504
▁objet	-2505
▁double	-2506
▁avaient	-2507
▁commence	-2508
obile	-2509
uments	-2510
▁médic	-2511
alistes	-2512
▁Di	-2513
▁version	-2514
èse	-2515
esse	-2516
este	-2517
▁mél	-2518
▁écl	-2519
▁angl	-2520
▁expl	-2521
▁chemin	-2522
▁réaliser	-2523
èles	-2524
▁fils	-2525
▁direction	-2526
▁éner	-2527
▁proté	-2528
nements	-2529
medi	-2530
entrée	-2531
▁retrouver	-2532
con	-2533
▁norm	-2534
▁méth	-2535
▁chiff	-2536
▁forum	-2537
▁secteur	-2538
char	-2539
aisse	-2540
▁install	-2541
inf	-2542
▁envie	-2543
ple	-2544
▁déli	-2545
cience	-2546
ormais	-2547
▁contac	-2548
▁commande	-2549
▁travaille	-2550
uir	-2551
▁pal	-2552
ordre	-2553
▁diri	-2554
acement	-2555
▁diffic	-2556
▁devrait	-2557
▁40	-2558
▁gé	-2559
▁amb	-2560
▁membre	-2561
▁nécessaire	-2562
mo	-2563
itaires	-2564
▁procéd	-2565
▁social	-2566
▁économique	-2567
ry	-2568
ini	-2569
▁No	-2570
▁km	-2571
▁utiliser	-2572
▁traitement	-2573
▁Fem	-2574
▁Mich	-2575
▁mots	-2576
quête	-2577
▁Quel	-2578
▁succès	-2579
/0	-2580
ute	-2581
tile	-2582
▁meu	-2583
ament	-2584
▁contrôle	-2585
▁Ab	-2586
rais	-2587
▁peau	-2588
▁état	-2589
contre	-2590
RA	-2591
▁Mad	-2592
▁initi	-2593
▁lorsqu	-2594
▁relation	-2595
rec	-2596
▁ve	-2597
acle	-2598
main	-2599
▁salon	-2600
▁chauff	-2601
dec	-2602
face	-2603
uros	-2604
▁voix	-2605
▁suivre	-2606
apon	-2607
arch	-2608
éhic	-2609
▁pat	-2610
▁petites	-2611
bl	-2612
ulation	-2613
▁commune	-2614
▁construction	-2615
9,	-2616
astr	-2617
▁Cour	-2618
▁Val	-2619
lèmes	-2620
▁)	-2621
cipe	-2622
oine	-2623
▁197	-2624
onner	-2625
raient	-2626
vision	-2627
▁semaines	-2628
▁difficile	-2629
lég	-2630
▁Aut	-2631
▁tém	-2632
▁pied	-2633
▁parle	-2634
▁sortie	-2635
▁communication	-2636
pé	-2637
ani	-2638
▁27	-2639
ension	-2640
▁population	-2641
cer	-2642
▁séjour	-2643
▁personnel	-2644
▁Ann	-2645
▁aider	-2646
▁droite	-2647
▁précéd	-2648
5,	-2649
▁LA	-2650
andes	-2651
▁stratég	-2652
▁concernant	-2653
▁équ	-2654
oupes	-2655
tives	-2656
▁design	-2657
▁fémin	-2658
ination	-2659
▁accord	-2660
▁précis	-2661
▁*	-2662
▁cop	-2663
▁celles	-2664
▁besoins	-2665
amm	-2666
▁écri	-2667
▁signif	-2668
▁longtemps	-2669
▁Cont	-2670
liquer	-2671
▁Enfin	-2672
▁soient	-2673
▁facilement	-2674
quis	-2675
argent	-2676
olutions	-2677
▁réponse	-2678
8,	-2679
▁Tu	-2680
chant	-2681
tiers	-2682
▁véhic	-2683
▁permettre	-2684
eek	-2685
▁capit	-2686
▁Rép	-2687
▁existe	-2688
▁catég	-2689
astique	-2690
▁numéro	-2691
ancement	-2692
ast	-2693
ocr	-2694
▁assur	-2695
▁problèmes	-2696
ly	-2697
▁sav	-2698
▁prog	-2699
inaire	-2700
▁employ	-2701
▁rappel	-2702
iné	-2703
▁én	-2704
▁red	-2705
ouvre	-2706
▁prot	-2707
▁supéri	-2708
▁garanti	-2709
▁LE	-2710
étés	-2711
▁dél	-2712
4.	-2713
isez	-2714
▁août	-2715
idence	-2716
▁Conseil	-2717
▁techniques	-2718
▁mauv	-2719
▁sembl	-2720
▁internet	-2721
▁meilleure	-2722
IE	-2723
oré	-2724
▁Rés	-2725
illeurs	-2726
▁éléments	-2727
▁tes	-2728
ustri	-2729
mettre	-2730
▁sociale	-2731
tir	-2732
areil	-2733
envir	-2734
▁langue	-2735
▁ouvert	-2736
▁soleil	-2737
▁source	-2738
oncé	-2739
quée	-2740
▁sorte	-2741
▁Pierre	-2742
▁répondre	-2743
ève	-2744
▁196	-2745
▁poi	-2746
orique	-2747
▁texte	-2748
▁rester	-2749
▁Bonjour	-2750
its	-2751
onique	-2752
▁Voici	-2753
▁Canada	-2754
▁lumière	-2755
▁process	-2756
tine	-2757
▁aime	-2758
atrice	-2759
inture	-2760
▁lequel	-2761
▁document	-2762
5.	-2763
aci	-2764
ano	-2765
▁hy	-2766
OS	-2767
ays	-2768
otte	-2769
▁premiers	-2770
▁'	-2771
▁quit	-2772
ige	-2773
▁Lire	-2774
ticles	-2775
▁habitu	-2776
▁terrain	-2777
onte	-2778
▁sang	-2779
▁pours	-2780
▁rouge	-2781
istance	-2782
▁certain	-2783
▁respect	-2784
1.	-2785
7,	-2786
▁Ét	-2787
▁scol	-2788
▁diman	-2789
40	-2790
▁Puis	-2791
▁cinq	-2792
ailles	-2793
obilier	-2794
▁environ	-2795
▁résultat	-2796
▁Pre	-2797
ographie	-2798
▁véritable	-2799
▁veux	-2800
▁termin	-2801
▁désormais	-2802
▁Vi	-2803
inon	-2804
▁·	-2805
çois	-2806
▁méc	-2807
▁prêt	-2808
▁collab	-2809
▁appréci	-2810
oo	-2811
rist	-2812
identi	-2813
issent	-2814
▁haute	-2815
▁peine	-2816
▁direct	-2817
▁malgré	-2818
▁pleine	-2819
▁politiques	-2820
▁and	-2821
▁fré	-2822
▁via	-2823
▁peur	-2824
▁améli	-2825
▁message	-2826
rim	-2827
titude	-2828
▁enreg	-2829
▁inves	-2830
▁psych	-2831
▁longue	-2832
▁obtenir	-2833
▁national	-2834
▁confiance	-2835
▁protection	-2836
▁train	-2837
▁samedi	-2838
▁Français	-2839
▁publique	-2840
yon	-2841
▁bureau	-2842
▁plupart	-2843
ENT	-2844
▁Gu	-2845
chés	-2846
iver	-2847
▁référence	-2848
▁bo	-2849
▁gu	-2850
▁Rob	-2851
droit	-2852
▁fall	-2853
▁trouvé	-2854
▁compagn	-2855
▁comprend	-2856
▁pourtant	-2857
▁communauté	-2858
3.	-2859
èque	-2860
ières	-2861
▁devient	-2862
▁28	-2863
ètre	-2864
▁Cet	-2865
gie	-2866
termin	-2867
▁chance	-2868
▁contenu	-2869
▁utilisé	-2870
▁manifest	-2871
▁téléphone	-2872
▁expérience	-2873
io	-2874
ina	-2875
ity	-2876
▁circ	-2877
article	-2878
tionnel	-2879
avantage	-2880
AM	-2881
ara	-2882
▁ami	-2883
▁pau	-2884
▁compt	-2885
▁professionnel	-2886
ope	-2887
▁vert	-2888
accord	-2889
rement	-2890
iversité	-2891
En	-2892
zz	-2893
atifs	-2894
atisf	-2895
▁douce	-2896
▁suivi	-2897
▁dispar	-2898
▁excell	-2899
lications	-2900
/201	-2901
lect	-2902
▁réguli	-2903
▁taux	-2904
▁dernières	-2905
▁Ag	-2906
▁trad	-2907
▁chale	-2908
ork	-2909
rice	-2910
▁dén	-2911
▁soli	-2912
▁centr	-2913
▁connu	-2914
▁attend	-2915
▁pouvait	-2916
▁Internet	-2917
▁Selon	-2918
▁sortir	-2919
▁dimanche	-2920
cl	-2921
200	-2922
▁vic	-2923
▁faites	-2924
▁soirée	-2925
▁solution	-2926
▁disponible	-2927
▁€	-2928
▁Fl	-2929
▁vir	-2930
▁rendez	-2931
▁conseils	-2932
▁sil	-2933
rimer	-2934
▁gauche	-2935
▁proche	-2936
▁respec	-2937
▁devenir	-2938
intérieur	-2939
DE	-2940
ient	-2941
▁http	-2942
▁idées	-2943
▁caract	-2944
▁marche	-2945
ed	-2946
alisé	-2947
▁Face	-2948
▁extr	-2949
esprit	-2950
▁minim	-2951
▁conséqu	-2952
là	-2953
▁Go	-2954
▁Acc	-2955
▁possibilité	-2956
sc	-2957
▁retrouve	-2958
▁processus	-2959
ino	-2960
▁compét	-2961
▁contact	-2962
▁passage	-2963
▁code	-2964
▁spor	-2965
matique	-2966
▁images	-2967
▁faisant	-2968
eter	-2969
credi	-2970
▁Prés	-2971
▁jardin	-2972
ignement	-2973
▁cheveux	-2974
▁évé	-2975
▁chaî	-2976
▁hors	-2977
▁pages	-2978
▁patri	-2979
▁arrive	-2980
▁publié	-2981
inte	-2982
lant	-2983
alyse	-2984
▁maxim	-2985
mission	-2986
▁permettant	-2987
énom	-2988
cteur	-2989
▁collè	-2990
▁promo	-2991
▁village	-2992
SE	-2993
▁chambres	-2994
information	-2995
ht	-2996
amen	-2997
ma	-2998
sur	-2999
ublique	-3000
tionnelle	-3001
ommage	-3002
▁intéri	-3003
éma	-3004
▁1.	-3005
actér	-3006
école	-3007
▁quelqu	-3008
▁ailleurs	-3009
▁transform	-3010
6,	-3011
Le	-3012
ony	-3013
enez	-3014
▁Peu	-3015
▁pourra	-3016
tissement	-3017
AT	-3018
▁considér	-3019
▁endroit	-3020
▁réalité	-3021
▁vide	-3022
ucation	-3023
▁campagne	-3024
ana	-3025
▁fou	-3026
ancé	-3027
indre	-3028
▁touche	-3029
▁sociaux	-3030
serv	-3031
▁For	-3032
▁New	-3033
ennes	-3034
▁mains	-3035
▁croiss	-3036
▁décision	-3037
fe	-3038
mil	-3039
▁60	-3040
▁Ac	-3041
▁Tous	-3042
▁sout	-3043
demment	-3044
▁moyens	-3045
▁demander	-3046
isp	-3047
▁int	-3048
▁tit	-3049
▁opér	-3050
▁post	-3051
▁gamme	-3052
▁pièce	-3053
▁acheter	-3054
▁retrouv	-3055
anne	-3056
▁occ	-3057
ister	-3058
▁chans	-3059
▁consul	-3060
iez	-3061
▁1,	-3062
▁Mus	-3063
▁arg	-3064
arité	-3065
▁coeur	-3066
do	-3067
ww	-3068
oot	-3069
forme	-3070
étais	-3071
▁médec	-3072
▁repos	-3073
▁aliment	-3074
▁derniers	-3075
La	-3076
del	-3077
▁mém	-3078
▁épis	-3079
▁Entre	-3080
urr	-3081
idée	-3082
▁pou	-3083
▁Marie	-3084
▁satisf	-3085
▁lecture	-3086
▁meilleurs	-3087
ides	-3088
▁cur	-3089
cident	-3090
▁euros	-3091
▁thème	-3092
cientif	-3093
activité	-3094
▁agréable	-3095
CE	-3096
dé	-3097
arc	-3098
▁Sy	-3099
rons	-3100
tice	-3101
▁Lib	-3102
▁séri	-3103
▁actions	-3104
▁complet	-3105
▁puisque	-3106
ses	-3107
▁bâti	-3108
▁faud	-3109
▁diffus	-3110
image	-3111
▁prép	-3112
▁dessus	-3113
▁profiter	-3114
Or	-3115
▁bain	-3116
▁image	-3117
▁commencer	-3118
▁connaître	-3119
▁souhaitez	-3120
▁air	-3121
ergie	-3122
▁fonctionn	-3123
▁tellement	-3124
ablissement	-3125
▁194	-3126
▁accompagn	-3127
▁administr	-3128
▁Est	-3129
ciens	-3130
▁plac	-3131
actions	-3132
▁laisse	-3133
ros	-3134
érences	-3135
ick	-3136
oid	-3137
▁durée	-3138
▁penser	-3139
▁électr	-3140
▁concours	-3141
▁responsable	-3142
60	-3143
lin	-3144
omp	-3145
êche	-3146
▁Jac	-3147
endra	-3148
▁accue	-3149
▁recette	-3150
▁suivant	-3151
▁changement	-3152
isé	-3153
▁At	-3154
▁Paul	-3155
aliser	-3156
▁contrat	-3157
▁moyenne	-3158
www	-3159
cide	-3160
ectu	-3161
vage	-3162
âtre	-3163
▁Pri	-3164
accès	-3165
▁physique	-3166
RO	-3167
▁Por	-3168
objet	-3169
resser	-3170
▁magas	-3171
▁communi	-3172
emb	-3173
itif	-3174
▁sud	-3175
▁véri	-3176
▁excep	-3177
▁ancien	-3178
ogle	-3179
▁Oui	-3180
asses	-3181
rance	-3182
▁chap	-3183
▁gagn	-3184
▁Toute	-3185
▁joueurs	-3186
çons	-3187
état	-3188
ammes	-3189
▁compar	-3190
▁mission	-3191
ologiques	-3192
dire	-3193
frique	-3194
iscine	-3195
▁couple	-3196
▁travailler	-3197
▁département	-3198
exc	-3199
▁pil	-3200
appel	-3201
assur	-3202
sembl	-3203
emploi	-3204
importe	-3205
▁fabric	-3206
▁faisait	-3207
▁disposition	-3208
ressi	-3209
▁bons	-3210
▁graph	-3211
▁continu	-3212
▁dossier	-3213
▁liberté	-3214
qués	-3215
éder	-3216
érap	-3217
▁Fin	-3218
▁aide	-3219
▁stat	-3220
itesse	-3221
xte	-3222
▁29	-3223
▁jur	-3224
appar	-3225
ussures	-3226
NE	-3227
achat	-3228
ville	-3229
▁sent	-3230
▁intér	-3231
▁famili	-3232
▁presse	-3233
▁scientif	-3234
▁parfaitement	-3235
mont	-3236
▁Port	-3237
▁roman	-3238
▁intégr	-3239
ras	-3240
uff	-3241
aume	-3242
oulez	-3243
▁2014	-3244
▁soup	-3245
aw	-3246
org	-3247
ost	-3248
ache	-3249
▁pri	-3250
▁adapt	-3251
▁pieds	-3252
ènes	-3253
▁Bel	-3254
estre	-3255
▁goût	-3256
▁pose	-3257
▁tiss	-3258
▁refus	-3259
▁annonce	-3260
▁articles	-3261
▁caractér	-3262
▁mercredi	-3263
▁renfor	-3264
ribution	-3265
▁essenti	-3266
▁soutien	-3267
.,	-3268
AU	-3269
État	-3270
▁Per	-3271
▁reç	-3272
▁vas	-3273
▁évi	-3274
ciper	-3275
▁seconde	-3276
imm	-3277
▁util	-3278
▁week	-3279
▁Elles	-3280
▁envoy	-3281
▁lieux	-3282
▁décidé	-3283
Ch	-3284
▁31	-3285
ilib	-3286
▁tal	-3287
terie	-3288
▁adop	-3289
▁affir	-3290
▁troisième	-3291
ls	-3292
expl	-3293
mail	-3294
uler	-3295
âteau	-3296
▁Etats	-3297
▁consac	-3298
▁entraî	-3299
▁immédi	-3300
▁rejoin	-3301
▁ressour	-3302
▁industri	-3303
eté	-3304
▁ul	-3305
onces	-3306
▁États	-3307
▁exist	-3308
▁accueil	-3309
▁derrière	-3310
▁uniquement	-3311
▁ach	-3312
▁arm	-3313
▁iss	-3314
▁mic	-3315
▁Sans	-3316
▁habitants	-3317
▁quotidien	-3318
▁connaissance	-3319
iche	-3320
rich	-3321
uels	-3322
▁bleu	-3323
▁bran	-3324
charger	-3325
fication	-3326
▁Aujourd	-3327
▁prochain	-3328
ik	-3329
lié	-3330
▁fant	-3331
▁tran	-3332
▁logiciel	-3333
da	-3334
TION	-3335
abil	-3336
itez	-3337
land	-3338
▁gal	-3339
anges	-3340
▁music	-3341
▁bonnes	-3342
▁détermin	-3343
▁trouverez	-3344
ôme	-3345
▁Be	-3346
▁Pers	-3347
Europe	-3348
▁lesqu	-3349
énergie	-3350
▁Maison	-3351
▁activité	-3352
▁propriét	-3353
▁finalement	-3354
▁Pro	-3355
▁Donc	-3356
▁nour	-3357
▁mariage	-3358
▁prochaine	-3359
éros	-3360
▁béb	-3361
▁Beau	-3362
▁vendredi	-3363
▁pratiques	-3364
»,	-3365
Etat	-3366
oirs	-3367
itude	-3368
ormes	-3369
▁Deux	-3370
▁expos	-3371
▁relations	-3372
cel	-3373
▁mun	-3374
▁Même	-3375
▁Site	-3376
▁zone	-3377
▁prest	-3378
▁multip	-3379
▁visage	-3380
▁parfait	-3381
▁territoire	-3382
ague	-3383
veille	-3384
ational	-3385
▁parcours	-3386
▁US	-3387
anim	-3388
▁(19	-3389
▁bel	-3390
cieux	-3391
ouvrez	-3392
▁surpr	-3393
▁choisi	-3394
▁règles	-3395
▁partager	-3396
23	-3397
aix	-3398
▁dû	-3399
▁riv	-3400
▁fête	-3401
▁lois	-3402
▁rele	-3403
alisme	-3404
▁dirige	-3405
association	-3406
ube	-3407
âge	-3408
ares	-3409
veill	-3410
▁Votre	-3411
▁court	-3412
▁lutte	-3413
▁propres	-3414
▁réseaux	-3415
▁permettent	-3416
▁supplément	-3417
▁disponibles	-3418
▁Gen	-3419
▁gaz	-3420
▁fich	-3421
▁chaud	-3422
▁espace	-3423
▁filles	-3424
▁quelle	-3425
▁partage	-3426
▁environnement	-3427
esti	-3428
▁cat	-3429
▁études	-3430
▁générale	-3431
▁transport	-3432
8.	-3433
ME	-3434
ama	-3435
tié	-3436
▁2.	-3437
▁nu	-3438
less	-3439
▁suffit	-3440
▁tempér	-3441
ications	-3442
▁possède	-3443
▁pourrez	-3444
▁importante	-3445
6.	-3446
udg	-3447
▁CH	-3448
▁Cr	-3449
▁dipl	-3450
▁idée	-3451
▁parties	-3452
▁présenter	-3453
asc	-3454
▁Bou	-3455
▁citoy	-3456
▁étrang	-3457
▁électrique	-3458
men	-3459
▁Nos	-3460
▁six	-3461
▁voi	-3462
▁garde	-3463
▁situé	-3464
▁somme	-3465
▁belles	-3466
▁groupes	-3467
▁modèles	-3468
▁^	-3469
oue	-3470
▁cath	-3471
assage	-3472
orités	-3473
▁dépos	-3474
▁manger	-3475
▁montre	-3476
▁hauteur	-3477
▁rencontrer	-3478
odi	-3479
adie	-3480
itre	-3481
trod	-3482
▁!!!	-3483
▁accès	-3484
▁poste	-3485
▁voici	-3486
▁réalisé	-3487
IR	-3488
heur	-3489
êter	-3490
▁Non	-3491
nifique	-3492
▁classique	-3493
▁totalement	-3494
ppe	-3495
▁éd	-3496
nous	-3497
parti	-3498
▁deme	-3499
▁voulez	-3500
▁continue	-3501
▁efficace	-3502
▁quartier	-3503
▁République	-3504
25	-3505
can	-3506
ulé	-3507
aign	-3508
▁Min	-3509
▁reçu	-3510
enfant	-3511
tellig	-3512
▁désir	-3513
▁mètres	-3514
▁tendance	-3515
▁Cependant	-3516
ège	-3517
orté	-3518
▁Pré	-3519
▁vig	-3520
épend	-3521
15	-3522
Am	-3523
yr	-3524
alu	-3525
▁lu	-3526
▁mi	-3527
king	-3528
▁dix	-3529
dessus	-3530
▁course	-3531
▁lettre	-3532
▁mesures	-3533
Les	-3534
▁Is	-3535
ynam	-3536
▁cre	-3537
▁han	-3538
▁desc	-3539
▁tels	-3540
uelles	-3541
▁vitesse	-3542
▁volonté	-3543
asi	-3544
alle	-3545
cept	-3546
▁Qui	-3547
liers	-3548
▁œuvre	-3549
▁consult	-3550
▁effectu	-3551
▁caractère	-3552
AP	-3553
hô	-3554
agé	-3555
▁to	-3556
▁Cert	-3557
espace	-3558
▁partout	-3559
fié	-3560
indi	-3561
▁fen	-3562
andis	-3563
▁navig	-3564
▁obten	-3565
▁voilà	-3566
ocation	-3567
▁moteur	-3568
▁attention	-3569
▁personnages	-3570
▁actuellement	-3571
ood	-3572
fric	-3573
tiste	-3574
▁cade	-3575
▁fera	-3576
▁ment	-3577
époque	-3578
▁lundi	-3579
▁total	-3580
▁institu	-3581
▁mondiale	-3582
0.	-3583
br	-3584
▁35	-3585
ader	-3586
otes	-3587
▁fre	-3588
▁Très	-3589
▁mobil	-3590
▁combat	-3591
▁anglais	-3592
▁ET	-3593
ouis	-3594
estiv	-3595
▁grav	-3596
▁bient	-3597
▁instr	-3598
▁sport	-3599
▁littér	-3600
▁traite	-3601
avec	-3602
ouer	-3603
▁Sex	-3604
▁Ter	-3605
▁oeu	-3606
▁choc	-3607
9.	-3608
▁Fr	-3609
▁Ret	-3610
▁top	-3611
▁Soci	-3612
▁arch	-3613
▁lait	-3614
▁expéri	-3615
▁papier	-3616
▁support	-3617
▁Rencontre	-3618
▁recommand	-3619
▁Ben	-3620
▁coû	-3621
▁budg	-3622
▁imag	-3623
▁symb	-3624
▁rense	-3625
▁éviter	-3626
▁proposer	-3627
▁pé	-3628
▁ait	-3629
ories	-3630
▁illus	-3631
▁livres	-3632
▁porter	-3633
istiques	-3634
▁complex	-3635
▁pression	-3636
OL	-3637
onge	-3638
▁Mer	-3639
▁tari	-3640
▁poids	-3641
▁devait	-3642
▁transp	-3643
novation	-3644
env	-3645
ilos	-3646
çant	-3647
▁Cal	-3648
iteur	-3649
moine	-3650
▁album	-3651
▁repas	-3652
▁effets	-3653
ive	-3654
▁Ma	-3655
esses	-3656
▁inte	-3657
▁suffis	-3658
▁constit	-3659
▁souvenir	-3660
▁continuer	-3661
ha	-3662
ié	-3663
▁Co	-3664
oyez	-3665
▁nord	-3666
riture	-3667
ualité	-3668
▁mécan	-3669
▁mêmes	-3670
▁certif	-3671
__	-3672
arn	-3673
▁II	-3674
▁Nord	-3675
▁outils	-3676
▁constat	-3677
▁raisons	-3678
uellement	-3679
▁familles	-3680
cs	-3681
dicap	-3682
ouche	-3683
▁Chaque	-3684
▁peuple	-3685
▁recevoir	-3686
▁personnage	-3687
▁utilisateurs	-3688
].	-3689
▁cab	-3690
▁cér	-3691
▁Christ	-3692
▁étudiants	-3693
erb	-3694
mat	-3695
run	-3696
ulté	-3697
▁Cré	-3698
▁caf	-3699
fique	-3700
times	-3701
alisée	-3702
▁devez	-3703
▁stand	-3704
oni	-3705
▁Sud	-3706
▁doll	-3707
▁joue	-3708
ctures	-3709
raison	-3710
▁Femme	-3711
uration	-3712
▁Michel	-3713
▁minist	-3714
▁proxim	-3715
▁hor	-3716
hôtel	-3717
▁Pays	-3718
▁paie	-3719
tenant	-3720
▁musée	-3721
▁police	-3722
▁davantage	-3723
▁directeur	-3724
▁fonctionnement	-3725
▁Ob	-3726
cles	-3727
oyage	-3728
▁déch	-3729
▁européenne	-3730
Je	-3731
ymp	-3732
moins	-3733
oncer	-3734
▁célè	-3735
andonn	-3736
import	-3737
▁Grand	-3738
▁forte	-3739
▁poser	-3740
▁villes	-3741
▁contemp	-3742
▁naturelle	-3743
iz	-3744
ames	-3745
▁Web	-3746
▁fit	-3747
▁cuir	-3748
▁glob	-3749
▁nouvel	-3750
▁concerne	-3751
▁principe	-3752
7.	-3753
ark	-3754
ira	-3755
▁créé	-3756
▁édition	-3757
▁croissance	-3758
US	-3759
▁os	-3760
ince	-3761
▁(...)	-3762
▁clair	-3763
inateur	-3764
▁chasse	-3765
▁salari	-3766
▁favoris	-3767
EL	-3768
itant	-3769
liqué	-3770
▁Phot	-3771
▁gagner	-3772
▁spectacle	-3773
▁participer	-3774
??	-3775
▁Ass	-3776
▁atti	-3777
▁bras	-3778
▁forc	-3779
alogue	-3780
▁soins	-3781
adresse	-3782
▁Centre	-3783
▁action	-3784
▁régime	-3785
expérience	-3786
▁proximité	-3787
▁partenaires	-3788
▁professionnelle	-3789
rou	-3790
èce	-3791
▁Ca	-3792
rées	-3793
uste	-3794
▁rav	-3795
ucteur	-3796
estival	-3797
▁sensib	-3798
▁acteurs	-3799
▁Pourquoi	-3800
▁structure	-3801
▁responsabilité	-3802
icip	-3803
oindre	-3804
▁carrière	-3805
▁location	-3806
21	-3807
cha	-3808
rid	-3809
▁lab	-3810
▁adul	-3811
▁banc	-3812
▁mini	-3813
▁volu	-3814
▁Chamb	-3815
▁servir	-3816
▁capacité	-3817
▁chercher	-3818
▁puissance	-3819
▁réalisation	-3820
va	-3821
▁Sc	-3822
titut	-3823
▁2013	-3824
atures	-3825
ustrie	-3826
▁quant	-3827
▁récup	-3828
▁bientôt	-3829
▁découverte	-3830
▁régulièrement	-3831
▁Ste	-3832
▁pros	-3833
▁ryth	-3834
▁facil	-3835
évolution	-3836
▁regarder	-3837
▁cependant	-3838
▁numérique	-3839
CI	-3840
ows	-3841
cule	-3842
▁Cas	-3843
▁pén	-3844
enant	-3845
▁nomm	-3846
enture	-3847
▁identif	-3848
ka	-3849
intér	-3850
▁allez	-3851
▁crise	-3852
▁décor	-3853
▁stock	-3854
▁types	-3855
▁formes	-3856
▁animaux	-3857
▁machine	-3858
▁risques	-3859
▁compagnie	-3860
▁solutions	-3861
autes	-3862
▁serr	-3863
ctoire	-3864
▁acces	-3865
▁différence	-3866
II	-3867
uré	-3868
adap	-3869
▁fid	-3870
▁Lyon	-3871
▁cellu	-3872
▁fonds	-3873
▁médias	-3874
▁réflex	-3875
▁vidéos	-3876
▁développer	-3877
▁nécessaires	-3878
ores	-3879
▁lig	-3880
▁tap	-3881
▁vent	-3882
▁garder	-3883
▁perman	-3884
▁vision	-3885
▁publics	-3886
▁explique	-3887
▁catégorie	-3888
êté	-3889
îte	-3890
ends	-3891
▁Mod	-3892
▁mir	-3893
▁mur	-3894
▁vin	-3895
êtres	-3896
▁nett	-3897
▁arriver	-3898
▁milliards	-3899
▁magnifique	-3900
organisation	-3901
▁by	-3902
iance	-3903
illon	-3904
érant	-3905
▁rose	-3906
▁moderne	-3907
OUR	-3908
urant	-3909
▁perdu	-3910
▁rendu	-3911
▁devenu	-3912
▁exclus	-3913
▁puisse	-3914
▁syndic	-3915
▁maladie	-3916
▁Facebook	-3917
▁François	-3918
lo	-3919
▁=	-3920
▁—	-3921
avez	-3922
opri	-3923
quet	-3924
▁Rou	-3925
▁Ses	-3926
▁ray	-3927
assin	-3928
▁rare	-3929
accueil	-3930
▁locaux	-3931
▁objectif	-3932
▁immédiate	-3933
heureusement	-3934
lage	-3935
lise	-3936
▁chev	-3937
olique	-3938
▁mardi	-3939
▁contrô	-3940
▁défaut	-3941
▁démocr	-3942
▁représente	-3943
▁ressources	-3944
gar	-3945
▁80	-3946
crire	-3947
ouleur	-3948
dessous	-3949
▁esprit	-3950
▁courant	-3951
▁lettres	-3952
▁surface	-3953
gique	-3954
▁coin	-3955
▁Parti	-3956
▁effec	-3957
issements	-3958
▁communaut	-3959
▁international	-3960
▁so	-3961
▁const	-3962
▁saint	-3963
ataires	-3964
▁Pendant	-3965
▁automatique	-3966
12	-3967
vés	-3968
bres	-3969
▁Rég	-3970
▁suc	-3971
▁Trans	-3972
▁cheval	-3973
▁compéti	-3974
▁moments	-3975
▁valeurs	-3976
▁contraire	-3977
▁premières	-3978
abs	-3979
lan	-3980
▁70	-3981
fort	-3982
pour	-3983
▁ate	-3984
ourse	-3985
▁demi	-3986
▁jamb	-3987
▁domin	-3988
▁Accueil	-3989
▁mauvais	-3990
▁poursui	-3991
▁handicap	-3992
▁relative	-3993
PS	-3994
osph	-3995
▁Dav	-3996
▁Mag	-3997
osité	-3998
▁voie	-3999
▁grosse	-4000
▁interpr	-4001
▁piscine	-4002
▁internationale	-4003
."	-4004
▁TV	-4005
oint	-4006
uner	-4007
étude	-4008
▁Juli	-4009
▁étab	-4010
▁calme	-4011
anmoins	-4012
▁artistes	-4013
▁généralement	-4014
ustr	-4015
▁liens	-4016
▁cinéma	-4017
▁maximum	-4018
▁témoign	-4019
▁commerce	-4020
▁matériel	-4021
▁principal	-4022
ué	-4023
ber	-4024
▁ww	-4025
tière	-4026
espère	-4027
▁calcul	-4028
▁blanche	-4029
▁minimum	-4030
▁technologie	-4031
sh	-4032
▁(3	-4033
▁ha	-4034
▁san	-4035
▁Plan	-4036
▁prim	-4037
▁métal	-4038
hésitez	-4039
▁crédit	-4040
▁termes	-4041
▁détails	-4042
ym	-4043
ura	-4044
▁go	-4045
éral	-4046
▁eau	-4047
▁coqu	-4048
▁sauf	-4049
▁jeudi	-4050
▁Toutes	-4051
▁contempor	-4052
ung	-4053
▁^^	-4054
angé	-4055
aval	-4056
rand	-4057
▁Aff	-4058
▁div	-4059
magne	-4060
▁réel	-4061
▁amour	-4062
▁textes	-4063
▁bonheur	-4064
▁connais	-4065
▁discours	-4066
▁peinture	-4067
gel	-4068
▁Mes	-4069
▁reb	-4070
▁www	-4071
▁conser	-4072
▁mobile	-4073
▁concurr	-4074
▁photograph	-4075
igr	-4076
hors	-4077
▁500	-4078
▁Roy	-4079
▁bén	-4080
▁émo	-4081
▁2012	-4082
▁bais	-4083
fiques	-4084
▁faible	-4085
êtements	-4086
▁conserv	-4087
▁équipes	-4088
▁majorité	-4089
▁conception	-4090
▁Cap	-4091
▁Fer	-4092
▁péd	-4093
igner	-4094
▁Comp	-4095
jectif	-4096
▁abord	-4097
▁dollars	-4098
▁Joh	-4099
▁dédi	-4100
▁roul	-4101
tienne	-4102
▁Phili	-4103
▁faite	-4104
install	-4105
▁Google	-4106
▁amoure	-4107
▁circul	-4108
▁entendu	-4109
▁montrer	-4110
▁naissance	-4111
itent	-4112
▁remerci	-4113
▁affaires	-4114
▁application	-4115
environnement	-4116
oz	-4117
réal	-4118
▁Mor	-4119
▁Nic	-4120
ariat	-4121
▁dois	-4122
▁remb	-4123
avenir	-4124
▁quasi	-4125
▁profond	-4126
fait	-4127
reux	-4128
▁hyp	-4129
▁kil	-4130
▁Conc	-4131
▁ciel	-4132
▁soin	-4133
ectuer	-4134
▁motiv	-4135
▁sinon	-4136
▁vieux	-4137
▁dépend	-4138
▁forces	-4139
▁prépar	-4140
▁tandis	-4141
▁dispose	-4142
▁retourn	-4143
▁commencé	-4144
▁certainement	-4145
cal	-4146
ish	-4147
ibli	-4148
itter	-4149
▁dynam	-4150
économie	-4151
▁Lorsque	-4152
▁demandé	-4153
▁domicile	-4154
▁gratuite	-4155
▁complètement	-4156
rog	-4157
▁Ge	-4158
ives	-4159
▁Sch	-4160
▁ital	-4161
▁payer	-4162
▁verre	-4163
▁équip	-4164
▁preuve	-4165
uitement	-4166
▁autoris	-4167
▁américain	-4168
24	-4169
▁séd	-4170
enses	-4171
▁inten	-4172
▁voire	-4173
▁maisons	-4174
▁complément	-4175
▁présentation	-4176
ffe	-4177
ott	-4178
assé	-4179
ompe	-4180
exist	-4181
glise	-4182
▁café	-4183
▁erre	-4184
▁agric	-4185
▁profi	-4186
ilosoph	-4187
mentation	-4188
▁meilleures	-4189
!!!	-4190
agr	-4191
▁lac	-4192
▁pois	-4193
▁films	-4194
▁march	-4195
▁signe	-4196
▁bouche	-4197
opération	-4198
▁apprendre	-4199
venue	-4200
▁Lond	-4201
▁reti	-4202
▁Servi	-4203
▁maîtr	-4204
istique	-4205
▁statut	-4206
▁transf	-4207
▁mémoire	-4208
impression	-4209
▁historique	-4210
11	-4211
dis	-4212
ola	-4213
appe	-4214
léch	-4215
ésus	-4216
▁Mari	-4217
▁offrir	-4218
▁permettra	-4219
ministration	-4220
gén	-4221
île	-4222
itée	-4223
▁roy	-4224
keting	-4225
onneur	-4226
▁Ville	-4227
▁bless	-4228
▁final	-4229
▁Europe	-4230
▁perdre	-4231
▁distance	-4232
▁élection	-4233
,5	-4234
by	-4235
▁Sac	-4236
emple	-4237
▁prét	-4238
▁coord	-4239
▁hôtel	-4240
▁plage	-4241
atie	-4242
▁mut	-4243
▁méd	-4244
ataire	-4245
▁futur	-4246
▁montant	-4247
▁systèmes	-4248
▁véhicule	-4249
we	-4250
roy	-4251
ture	-4252
▁Gén	-4253
▁pen	-4254
▁....	-4255
▁vaut	-4256
▁organ	-4257
▁prati	-4258
▁viens	-4259
▁évent	-4260
▁beauté	-4261
▁command	-4262
▁profonde	-4263
aude	-4264
▁end	-4265
▁rig	-4266
adore	-4267
améli	-4268
onstr	-4269
▁Avant	-4270
▁Jésus	-4271
▁durable	-4272
▁justice	-4273
▁supérieur	-4274
▁entièrement	-4275
DI	-4276
hi	-4277
delà	-4278
ingt	-4279
▁Che	-4280
▁Sam	-4281
▁côt	-4282
igneur	-4283
▁influ	-4284
entrepr	-4285
▁aspect	-4286
▁chaîne	-4287
▁passionn	-4288
ck	-4289
cis	-4290
tte	-4291
▁tre	-4292
pital	-4293
▁Dire	-4294
▁bébé	-4295
▁lour	-4296
▁paix	-4297
▁pron	-4298
▁faits	-4299
▁croire	-4300
▁sujets	-4301
olé	-4302
▁Ber	-4303
range	-4304
▁rasse	-4305
ciences	-4306
othèque	-4307
▁absolu	-4308
llemagne	-4309
▁municip	-4310
▁sérieux	-4311
▁annonces	-4312
▁restaurant	-4313
ory	-4314
aler	-4315
▁Mat	-4316
occup	-4317
▁chim	-4318
▁tenu	-4319
▁méthode	-4320
ignements	-4321
EC	-4322
oe	-4323
inet	-4324
▁Bas	-4325
issez	-4326
▁Noël	-4327
▁poly	-4328
▁tient	-4329
▁démont	-4330
oitation	-4331
▁pouvons	-4332
application	-4333
rine	-4334
▁Ban	-4335
ultés	-4336
▁trib	-4337
▁with	-4338
▁fabri	-4339
▁voulu	-4340
▁access	-4341
▁chaleur	-4342
▁marques	-4343
▁ouverte	-4344
▁revenir	-4345
▁viennent	-4346
▁patrimoine	-4347
nies	-4348
▁hom	-4349
euros	-4350
▁boul	-4351
▁fisc	-4352
accomp	-4353
entrer	-4354
riques	-4355
intérêt	-4356
tements	-4357
▁format	-4358
▁défense	-4359
assurance	-4360
▁protéger	-4361
tro	-4362
mart	-4363
▁bus	-4364
verse	-4365
▁Fond	-4366
ercice	-4367
ologies	-4368
▁emploi	-4369
▁inspir	-4370
▁capable	-4371
▁gratuitement	-4372
.)	-4373
80	-4374
▁EN	-4375
▁Ju	-4376
agog	-4377
quées	-4378
▁plat	-4379
▁Petit	-4380
▁décis	-4381
▁occup	-4382
▁pouss	-4383
ibilité	-4384
▁partis	-4385
▁attendre	-4386
▁réduction	-4387
acé	-4388
eth	-4389
urée	-4390
âche	-4391
▁Pub	-4392
▁bil	-4393
▁lic	-4394
cessi	-4395
inves	-4396
uisse	-4397
▁panne	-4398
▁tenue	-4399
▁pierre	-4400
▁sourire	-4401
▁veulent	-4402
▁Str	-4403
aimer	-4404
taire	-4405
▁2010	-4406
▁Util	-4407
▁robe	-4408
▁beaux	-4409
▁chant	-4410
univers	-4411
▁vérité	-4412
▁compter	-4413
▁mélange	-4414
▁livraison	-4415
▁conscience	-4416
39	-4417
du	-4418
▁Moi	-4419
▁sel	-4420
▁fini	-4421
▁frère	-4422
▁budget	-4423
▁moitié	-4424
▁réserv	-4425
GE	-4426
dir	-4427
alys	-4428
orge	-4429
armée	-4430
tivité	-4431
▁établ	-4432
▁limite	-4433
▁signifie	-4434
▁compétences	-4435
Ça	-4436
▁Ap	-4437
▁Dom	-4438
sieur	-4439
▁2011	-4440
▁vend	-4441
autant	-4442
▁paris	-4443
ucteurs	-4444
▁condam	-4445
▁escort	-4446
▁reprod	-4447
▁annoncé	-4448
▁voulait	-4449
▁complète	-4450
▁sociétés	-4451
▁philosoph	-4452
▁appartement	-4453
umé	-4454
▁45	-4455
▁Lu	-4456
olat	-4457
rain	-4458
▁Fre	-4459
▁Pos	-4460
▁sor	-4461
tisme	-4462
▁Voir	-4463
▁neuf	-4464
▁Inter	-4465
▁jolie	-4466
▁assure	-4467
▁orient	-4468
▁précise	-4469
▁diverses	-4470
▁évidemment	-4471
▁consommation	-4472
irl	-4473
lite	-4474
lève	-4475
▁Ins	-4476
alisés	-4477
▁Charles	-4478
▁performance	-4479
arme	-4480
otel	-4481
▁cru	-4482
▁mam	-4483
▁doux	-4484
▁Voilà	-4485
▁déclaré	-4486
▁inscrit	-4487
▁modifier	-4488
▁contacter	-4489
old	-4490
uté	-4491
égét	-4492
▁Cha	-4493
▁Esp	-4494
chent	-4495
▁Nouv	-4496
▁Télé	-4497
▁liés	-4498
▁note	-4499
▁cartes	-4500
70	-4501
ene	-4502
isl	-4503
▁mm	-4504
oquer	-4505
ourir	-4506
▁doig	-4507
▁Grâce	-4508
▁vraie	-4509
▁offres	-4510
▁essayer	-4511
▁messages	-4512
▁condition	-4513
▁documents	-4514
▁professeur	-4515
18	-4516
gée	-4517
hér	-4518
▁Mme	-4519
▁tir	-4520
▁Vidé	-4521
ancien	-4522
▁coupe	-4523
▁idéal	-4524
affaires	-4525
énagement	-4526
▁apporter	-4527
▁boutique	-4528
▁propriété	-4529
▁préparation	-4530
▁90	-4531
agon	-4532
onné	-4533
rite	-4534
phone	-4535
▁privé	-4536
▁prévu	-4537
▁range	-4538
cemment	-4539
▁furent	-4540
▁oublier	-4541
où	-4542
leur	-4543
tise	-4544
bourg	-4545
cienne	-4546
▁objets	-4547
▁célèbre	-4548
▁tableau	-4549
▁visiter	-4550
▁stratégie	-4551
».	-4552
aune	-4553
dans	-4554
▁amp	-4555
olesc	-4556
outes	-4557
▁fact	-4558
▁morce	-4559
▁riches	-4560
▁bénéfici	-4561
gés	-4562
▁do	-4563
▁fleur	-4564
▁heureux	-4565
▁journal	-4566
▁proches	-4567
iversaire	-4568
▁portrait	-4569
▁préparer	-4570
▁merveille	-4571
▁objectifs	-4572
DF	-4573
RI	-4574
ky	-4575
▁Gl	-4576
isée	-4577
▁Peut	-4578
▁détr	-4579
▁favor	-4580
▁préfér	-4581
▁renouv	-4582
▁enseign	-4583
▁réduire	-4584
▁communes	-4585
▁Découvrez	-4586
▁Ah	-4587
cipl	-4588
olas	-4589
oton	-4590
èces	-4591
ômes	-4592
▁195	-4593
▁dat	-4594
▁Tour	-4595
▁Chine	-4596
▁Terre	-4597
▁bande	-4598
▁Commun	-4599
utiliser	-4600
▁discussi	-4601
▁partenaire	-4602
gue	-4603
▁PC	-4604
inée	-4605
▁fus	-4606
œuvre	-4607
charge	-4608
intégr	-4609
▁lende	-4610
▁défini	-4611
▁finale	-4612
▁parole	-4613
▁privil	-4614
▁Chambre	-4615
▁intérieur	-4616
élo	-4617
user	-4618
▁And	-4619
tiens	-4620
▁John	-4621
▁mail	-4622
▁scén	-4623
▁David	-4624
▁Salle	-4625
▁porno	-4626
▁riche	-4627
▁contexte	-4628
▁interven	-4629
hy	-4630
ney	-4631
▁Op	-4632
▁pâ	-4633
▁Ça	-4634
▁chan	-4635
▁exig	-4636
▁pape	-4637
licité	-4638
▁Champ	-4639
▁forêt	-4640
▁noter	-4641
▁sépar	-4642
▁étude	-4643
▁dehors	-4644
▁entier	-4645
▁faudra	-4646
▁fruits	-4647
▁époque	-4648
▁assurer	-4649
▁convain	-4650
▁milliers	-4651
▁consulter	-4652
▁DU	-4653
acte	-4654
core	-4655
oriz	-4656
▁dir	-4657
▁nul	-4658
talie	-4659
▁défi	-4660
▁toit	-4661
▁japon	-4662
▁lance	-4663
▁plans	-4664
▁métier	-4665
▁militaire	-4666
ji	-4667
ley	-4668
▁lè	-4669
▁Mee	-4670
offre	-4671
timis	-4672
êcher	-4673
▁susp	-4674
▁kilom	-4675
▁indisp	-4676
▁lignes	-4677
▁concert	-4678
net	-4679
▁be	-4680
▁cy	-4681
deur	-4682
lais	-4683
▁Fil	-4684
▁cos	-4685
▁lis	-4686
▁tax	-4687
alise	-4688
▁micro	-4689
▁appare	-4690
▁située	-4691
▁instant	-4692
▁niveaux	-4693
▁station	-4694
▁Montréal	-4695
▁critique	-4696
26	-4697
Mar	-4698
irs	-4699
▁lux	-4700
▁lyc	-4701
▁tôt	-4702
▁regr	-4703
▁prises	-4704
▁logique	-4705
▁intéressant	-4706
▁connaissances	-4707
▁Del	-4708
oubli	-4709
▁Prix	-4710
▁ferme	-4711
▁finir	-4712
▁oppos	-4713
▁éclair	-4714
▁Certains	-4715
▁recherches	-4716
SI	-4717
éra	-4718
▁RE	-4719
ball	-4720
imag	-4721
▁Dis	-4722
ieuse	-4723
unité	-4724
▁Prof	-4725
▁coût	-4726
▁danse	-4727
▁tenir	-4728
▁pauvre	-4729
▁puisqu	-4730
MA	-4731
mir	-4732
yst	-4733
▁Mé	-4734
▁Cam	-4735
▁Seu	-4736
▁roi	-4737
huile	-4738
▁spir	-4739
▁Japon	-4740
▁justif	-4741
▁secret	-4742
▁volume	-4743
▁Londres	-4744
▁composé	-4745
▁capitale	-4746
▁occasion	-4747
▁lendemain	-4748
▁sentiment	-4749
▁commentaires	-4750
13	-4751
90	-4752
▁300	-4753
▁Off	-4754
▁féd	-4755
▁Rome	-4756
▁astr	-4757
▁pire	-4758
▁sert	-4759
▁sexy	-4760
▁coups	-4761
▁guide	-4762
▁lancer	-4763
▁écoles	-4764
▁arrière	-4765
industrie	-4766
▁paiement	-4767
▁terrasse	-4768
▁forcément	-4769
▁largement	-4770
▁enregistre	-4771
▁pourraient	-4772
45	-4773
any	-4774
ogne	-4775
▁truc	-4776
lusion	-4777
▁grave	-4778
arrivée	-4779
tionnels	-4780
▁sociales	-4781
▁victoire	-4782
▁événements	-4783
▁participation	-4784
gu	-4785
arb	-4786
pro	-4787
▁3.	-4788
▁Bi	-4789
alie	-4790
mine	-4791
érir	-4792
▁Bref	-4793
▁Form	-4794
▁foot	-4795
▁outre	-4796
▁zones	-4797
▁Sainte	-4798
▁complé	-4799
objectif	-4800
▁circons	-4801
▁passion	-4802
extérieur	-4803
▁démarche	-4804
▁logement	-4805
▁scolaire	-4806
▁victimes	-4807
abe	-4808
ial	-4809
ull	-4810
agée	-4811
atin	-4812
ayer	-4813
prés	-4814
reur	-4815
▁Sec	-4816
oiles	-4817
onses	-4818
▁exécu	-4819
▁vingt	-4820
▁connec	-4821
▁entrée	-4822
▁constitue	-4823
▁marketing	-4824
▁température	-4825
▁utilisation	-4826
oï	-4827
ario	-4828
view	-4829
érop	-4830
▁gri	-4831
▁pur	-4832
▁tél	-4833
▁qual	-4834
▁surv	-4835
▁vill	-4836
aurais	-4837
ologue	-4838
▁mises	-4839
▁perte	-4840
▁tente	-4841
▁végét	-4842
ordeaux	-4843
▁rythme	-4844
▁régions	-4845
▁présenté	-4846
▁personnalité	-4847
-0	-4848
16	-4849
ault	-4850
écri	-4851
élib	-4852
▁Gar	-4853
▁mén	-4854
▁York	-4855
▁audi	-4856
▁chin	-4857
▁crit	-4858
▁Meetic	-4859
▁civile	-4860
▁adresse	-4861
▁fallait	-4862
▁Philippe	-4863
▁autorités	-4864
▁vêtements	-4865
▁américaine	-4866
**	-4867
▁‘	-4868
illi	-4869
▁Lun	-4870
▁foi	-4871
reuve	-4872
▁Main	-4873
▁Vill	-4874
▁ceci	-4875
entraî	-4876
▁tissu	-4877
chement	-4878
▁Grande	-4879
▁allait	-4880
▁banque	-4881
▁portes	-4882
▁associations	-4883
administration	-4884
CH	-4885
orn	-4886
▁PS	-4887
acie	-4888
apes	-4889
▁urb	-4890
▁bour	-4891
▁croy	-4892
iennes	-4893
▁Louis	-4894
▁radio	-4895
ressionn	-4896
▁auteurs	-4897
▁magasin	-4898
▁réfléch	-4899
▁fonctionne	-4900
▁fabrication	-4901
▁responsables	-4902
ja	-4903
rup	-4904
chée	-4905
▁étape	-4906
▁humain	-4907
▁telles	-4908
entation	-4909
▁réserve	-4910
▁pourront	-4911
▁principale	-4912
informations	-4913
installation	-4914
28	-4915
AD	-4916
Il	-4917
mn	-4918
orth	-4919
rets	-4920
vait	-4921
▁diz	-4922
▁mou	-4923
tiles	-4924
▁100%	-4925
▁Grat	-4926
▁alli	-4927
▁quali	-4928
▁conven	-4929
▁gentil	-4930
▁revient	-4931
▁Pourtant	-4932
▁intellig	-4933
▁impossible	-4934
enseignement	-4935
▁commentaire	-4936
▁publication	-4937
▁principalement	-4938
AF	-4939
ms	-4940
▁×	-4941
osse	-4942
uves	-4943
▁ant	-4944
▁art	-4945
▁rêve	-4946
▁demain	-4947
▁décide	-4948
ortement	-4949
▁surprise	-4950
▁enregistr	-4951
▁fonctions	-4952
▁programmes	-4953
▁changements	-4954
gh	-4955
olf	-4956
▁Ed	-4957
ater	-4958
▁Cer	-4959
enter	-4960
idité	-4961
▁venu	-4962
onnées	-4963
▁Chris	-4964
▁plomb	-4965
▁arrivé	-4966
▁profil	-4967
▁humains	-4968
▁pouvant	-4969
▁récemment	-4970
▁élections	-4971
▁organisation	-4972
▁probablement	-4973
Ass	-4974
ycl	-4975
mière	-4976
▁Noir	-4977
▁coul	-4978
llectu	-4979
▁Quant	-4980
▁morts	-4981
▁pharm	-4982
▁entour	-4983
▁phénom	-4984
▁humaine	-4985
▁moindre	-4986
▁théâtre	-4987
▁chiffres	-4988
▁garantie	-4989
▁indispens	-4990
▁immobilier	-4991
▁économiques	-4992
pi	-4993
ona	-4994
▁Pi	-4995
MENT	-4996
bert	-4997
glet	-4998
till	-4999
▁Gal	-5000
agnes	-5001
aises	-5002
▁discu	-5003
▁devoir	-5004
▁juridi	-5005
▁législ	-5006
▁maître	-5007
▁souten	-5008
▁œuvres	-5009
▁efforts	-5010
▁section	-5011
▁excellent	-5012
▁rejoindre	-5013
▁dispositif	-5014
▁п	-5015
Esp	-5016
▁DES	-5017
aites	-5018
avons	-5019
▁auto	-5020
entiss	-5021
▁2018,	-5022
▁chron	-5023
aluation	-5024
titution	-5025
▁enquête	-5026
▁passant	-5027
▁superbe	-5028
orisation	-5029
éducation	-5030
▁culturel	-5031
▁rappelle	-5032
▁Président	-5033
▁immédiatement	-5034
Ph	-5035
QUE	-5036
tie	-5037
▁0,	-5038
▁Tw	-5039
▁Mac	-5040
armes	-5041
▁Trav	-5042
▁côtés	-5043
▁gérer	-5044
▁altern	-5045
▁extéri	-5046
▁observ	-5047
▁plantes	-5048
▁utilise	-5049
▁épisode	-5050
▁approche	-5051
▁centrale	-5052
▁développ	-5053
▁employés	-5054
▁plateforme	-5055
▁difficultés	-5056
▁particuliers	-5057
--	-5058
LA	-5059
mée	-5060
▁2,	-5061
▁He	-5062
dent	-5063
▁Fab	-5064
aitre	-5065
▁Rich	-5066
▁joie	-5067
▁posi	-5068
▁lancé	-5069
▁encour	-5070
ographique	-5071
OT	-5072
oxy	-5073
ètes	-5074
▁Dou	-5075
▁far	-5076
▁enne	-5077
▁joué	-5078
▁dimin	-5079
ériques	-5080
▁fleurs	-5081
▁joueur	-5082
▁titres	-5083
▁tranqu	-5084
▁Jacques	-5085
▁bâtiment	-5086
nés	-5087
outé	-5088
▁Ver	-5089
allen	-5090
▁Bern	-5091
▁Conf	-5092
▁bate	-5093
attend	-5094
ilibre	-5095
ranger	-5096
atoires	-5097
▁canadi	-5098
▁conseiller	-5099
▁construire	-5100
▁principaux	-5101
65	-5102
ca	-5103
vité	-5104
èche	-5105
aider	-5106
tible	-5107
▁2008	-5108
▁Actu	-5109
▁poll	-5110
▁notes	-5111
▁incont	-5112
▁charges	-5113
▁cellules	-5114
▁plastique	-5115
utilisateur	-5116
▁scientifique	-5117
ET	-5118
gg	-5119
ONT	-5120
▁As	-5121
gues	-5122
eneur	-5123
ester	-5124
mbler	-5125
▁déje	-5126
▁élég	-5127
ection	-5128
▁arrêt	-5129
habitude	-5130
▁apporte	-5131
entretien	-5132
▁domaines	-5133
Université	-5134
▁améliorer	-5135
▁populaire	-5136
▁génération	-5137
14	-5138
29	-5139
UN	-5140
▁SA	-5141
émie	-5142
▁Vis	-5143
▁Vol	-5144
▁vou	-5145
aques	-5146
▁Long	-5147
▁Tech	-5148
▁fame	-5149
eloppe	-5150
ilités	-5151
seille	-5152
église	-5153
▁confl	-5154
▁devis	-5155
▁local	-5156
▁seuls	-5157
▁places	-5158
usé	-5159
▁Im	-5160
▁Cou	-5161
autom	-5162
lever	-5163
▁reten	-5164
▁solid	-5165
▁Martin	-5166
▁soumis	-5167
▁ministère	-5168
▁légèrement	-5169
▁financement	-5170
▁participants	-5171
▁collaboration	-5172
35	-5173
cou	-5174
agir	-5175
meub	-5176
▁Exp	-5177
▁tra	-5178
mosph	-5179
ribuer	-5180
semble	-5181
▁afric	-5182
élection	-5183
▁arrivée	-5184
▁concept	-5185
▁appareil	-5186
▁utilisant	-5187
▁obligatoire	-5188
▁propriétaire	-5189
pel	-5190
▁Dès	-5191
▁bre	-5192
▁som	-5193
indows	-5194
▁extra	-5195
aissent	-5196
assurer	-5197
semblée	-5198
▁introd	-5199
▁tomber	-5200
▁anciens	-5201
▁collège	-5202
▁combien	-5203
▁pédagog	-5204
▁consiste	-5205
▁contribu	-5206
▁indépend	-5207
▁graphique	-5208
▁Commission	-5209
Ag	-5210
roit	-5211
unis	-5212
▁ang	-5213
raine	-5214
▁exac	-5215
▁mand	-5216
▁tenter	-5217
truction	-5218
▁sympath	-5219
▁fondament	-5220
▁confortable	-5221
OC	-5222
oft	-5223
▁Né	-5224
▁XV	-5225
ench	-5226
utri	-5227
▁Imp	-5228
▁Pal	-5229
▁Rom	-5230
▁bac	-5231
▁Inst	-5232
▁aimé	-5233
▁ball	-5234
▁célé	-5235
▁cérém	-5236
▁dange	-5237
▁inqui	-5238
▁video	-5239
analyse	-5240
urgence	-5241
▁argent	-5242
▁élément	-5243
▁festival	-5244
▁organisé	-5245
▁recettes	-5246
ete	-5247
vel	-5248
▁Es	-5249
oter	-5250
rimé	-5251
▁mix	-5252
▁Cuis	-5253
▁Marc	-5254
▁mens	-5255
atican	-5256
▁débat	-5257
▁masse	-5258
▁envers	-5259
▁écrire	-5260
▁Ensuite	-5261
▁extrême	-5262
▁contenus	-5263
▁conférence	-5264
ham	-5265
jou	-5266
aris	-5267
lign	-5268
quez	-5269
▁crée	-5270
antité	-5271
édition	-5272
▁chiffre	-5273
▁conduire	-5274
▁réponses	-5275
▁opération	-5276
▁absolument	-5277
▁télévision	-5278
établissement	-5279
99	-5280
IV	-5281
ST	-5282
-201	-5283
ails	-5284
line	-5285
oble	-5286
ophe	-5287
▁Alex	-5288
▁Sexe	-5289
▁cout	-5290
▁juge	-5291
ouveau	-5292
▁ajout	-5293
▁https	-5294
▁recru	-5295
▁règle	-5296
▁appelé	-5297
▁meuble	-5298
▁monter	-5299
▁portée	-5300
▁séance	-5301
▁archite	-5302
▁chacune	-5303
▁chanson	-5304
▁spiritu	-5305
▁longueur	-5306
▁principes	-5307
exploitation	-5308
ty	-5309
bes	-5310
▁(5	-5311
midi	-5312
▁max	-5313
ancée	-5314
▁sing	-5315
▁Porno	-5316
▁aurez	-5317
▁brill	-5318
▁massi	-5319
▁poign	-5320
affaire	-5321
instant	-5322
▁pensée	-5323
ouvertes	-5324
▁vouloir	-5325
▁original	-5326
▁résidence	-5327
▁bénéficier	-5328
▁décoration	-5329
▁<	-5330
▁́	-5331
Lire	-5332
lige	-5333
▁Jus	-5334
▁Ros	-5335
▁rub	-5336
allée	-5337
▁Dani	-5338
▁meme	-5339
▁rang	-5340
▁Vidéo	-5341
▁sympa	-5342
▁utile	-5343
▁Suisse	-5344
▁charme	-5345
▁veille	-5346
▁illustr	-5347
▁suivante	-5348
MP	-5349
iel	-5350
ush	-5351
évé	-5352
▁IN	-5353
ause	-5354
quin	-5355
vite	-5356
▁2009	-5357
▁Toul	-5358
▁amen	-5359
▁bloc	-5360
▁eaux	-5361
▁hier	-5362
▁Journ	-5363
appelle	-5364
▁profit	-5365
▁proven	-5366
▁réflexion	-5367
▁intellectu	-5368
34	-5369
aye	-5370
lée	-5371
▁MA	-5372
▁he	-5373
arre	-5374
cite	-5375
utés	-5376
ussie	-5377
▁Cong	-5378
▁déte	-5379
▁fron	-5380
▁Faire	-5381
▁demeure	-5382
▁réunion	-5383
▁vérifier	-5384
▁spécifique	-5385
22	-5386
CC	-5387
ias	-5388
,...	-5389
olie	-5390
oqué	-5391
vain	-5392
Union	-5393
agers	-5394
uites	-5395
érapie	-5396
▁diver	-5397
visions	-5398
▁emprun	-5399
▁conform	-5400
▁réussite	-5401
▁atteindre	-5402
▁$	-5403
▁в	-5404
dia	-5405
ctor	-5406
agent	-5407
initi	-5408
usage	-5409
écran	-5410
▁Cher	-5411
▁brut	-5412
▁basse	-5413
▁siège	-5414
▁cadeau	-5415
▁négoci	-5416
▁parfum	-5417
▁options	-5418
▁chauffage	-5419
▁clairement	-5420
igu	-5421
iés	-5422
mun	-5423
ourt	-5424
xion	-5425
ésie	-5426
▁tor	-5427
▁Afin	-5428
▁attr	-5429
▁rire	-5430
▁Parmi	-5431
ajouter	-5432
pertise	-5433
▁Recher	-5434
▁correc	-5435
▁douche	-5436
▁dommage	-5437
▁faibles	-5438
▁fournit	-5439
▁ouvrage	-5440
▁accueill	-5441
▁chansons	-5442
▁trouvent	-5443
▁comportement	-5444
obe	-5445
▁..	-5446
oile	-5447
▁bul	-5448
▁mys	-5449
▁Leur	-5450
▁faux	-5451
▁rond	-5452
▁trés	-5453
avance	-5454
ennent	-5455
ionnat	-5456
issait	-5457
▁Parce	-5458
▁école	-5459
annonce	-5460
▁comporte	-5461
▁parfaite	-5462
▁découvert	-5463
▁effectuer	-5464
▁toutefois	-5465
▁expériment	-5466
▁kilomètres	-5467
dex	-5468
ight	-5469
mais	-5470
trop	-5471
ymph	-5472
▁Sau	-5473
▁Tou	-5474
hiver	-5475
rages	-5476
meture	-5477
▁indic	-5478
▁optim	-5479
▁volet	-5480
honneur	-5481
itations	-5482
▁portant	-5483
▁intérêts	-5484
▁rangement	-5485
▁travailleurs	-5486
OP	-5487
RAN	-5488
itt	-5489
œil	-5490
▁36	-5491
▁Ici	-5492
▁âge	-5493
▁Haut	-5494
▁cass	-5495
▁exam	-5496
▁plaf	-5497
▁pont	-5498
▁sold	-5499
▁atten	-5500
▁célib	-5501
▁libér	-5502
étaient	-5503
▁laissé	-5504
▁restent	-5505
ification	-5506
▁quantité	-5507
▁salariés	-5508
▁véhicules	-5509
▁ordinateur	-5510
car	-5511
▁Cô	-5512
cole	-5513
sons	-5514
▁clé	-5515
▁var	-5516
▁aper	-5517
▁brit	-5518
▁noms	-5519
quette	-5520
▁entend	-5521
▁france	-5522
entissage	-5523
▁visiteur	-5524
▁Toutefois	-5525
▁candidats	-5526
▁chaussures	-5527
▁opérations	-5528
▁réellement	-5529
▁déclaration	-5530
lim	-5531
pas	-5532
▁Aj	-5533
▁ém	-5534
.000	-5535
▁PAR	-5536
▁has	-5537
arrêt	-5538
▁vélo	-5539
▁Super	-5540
▁conçu	-5541
▁crème	-5542
▁dérou	-5543
▁intit	-5544
▁smart	-5545
▁therm	-5546
▁commer	-5547
▁conver	-5548
▁normal	-5549
▁remise	-5550
entement	-5551
▁ajouter	-5552
▁extrait	-5553
▁revenus	-5554
▁convient	-5555
▁présents	-5556
▁remettre	-5557
▁surveill	-5558
importance	-5559
▁maintenir	-5560
▁accessible	-5561
▁spécialiste	-5562
▁anniversaire	-5563
▁particulière	-5564
rég	-5565
▁hô	-5566
alon	-5567
chez	-5568
▁ram	-5569
▁pure	-5570
▁chefs	-5571
▁froid	-5572
▁pêche	-5573
▁synth	-5574
▁adapté	-5575
gleterre	-5576
▁Premier	-5577
▁fournir	-5578
▁simples	-5579
▁Belgique	-5580
▁chocolat	-5581
▁conseill	-5582
▁patients	-5583
▁privilég	-5584
▁visiteurs	-5585
oeu	-5586
unk	-5587
vit	-5588
▁bu	-5589
▁Vie	-5590
aming	-5591
lesse	-5592
usses	-5593
▁chré	-5594
▁innov	-5595
▁simil	-5596
▁hausse	-5597
▁lèvres	-5598
▁plaque	-5599
▁tourne	-5600
▁disting	-5601
▁soulign	-5602
▁citoyens	-5603
▁contient	-5604
▁suivantes	-5605
2)	-5606
27	-5607
ôm	-5608
/11	-5609
aug	-5610
ink	-5611
édé	-5612
▁34	-5613
▁câ	-5614
▁éli	-5615
▁sœur	-5616
▁boule	-5617
▁sucre	-5618
▁longues	-5619
▁allemand	-5620
▁complexe	-5621
▁réception	-5622
▁communiquer	-5623
TS	-5624
aid	-5625
dom	-5626
née	-5627
▁mâ	-5628
▁enj	-5629
ierge	-5630
▁assi	-5631
▁géné	-5632
▁meur	-5633
▁boîte	-5634
▁ordre	-5635
▁savez	-5636
▁écran	-5637
▁appris	-5638
▁changé	-5639
▁franch	-5640
▁frères	-5641
▁incroy	-5642
▁racont	-5643
estation	-5644
matiques	-5645
attention	-5646
▁demandes	-5647
▁avantages	-5648
▁matériaux	-5649
▁information	-5650
df	-5651
▁Av	-5652
allé	-5653
tons	-5654
éber	-5655
▁Bal	-5656
▁Sol	-5657
▁pon	-5658
▁acqu	-5659
▁fraî	-5660
▁gris	-5661
arrive	-5662
▁fiche	-5663
▁Quelle	-5664
▁adress	-5665
▁chaise	-5666
▁inconn	-5667
▁légère	-5668
▁collabor	-5669
▁centaines	-5670
▁tradition	-5671
▁événement	-5672
▁performances	-5673
▁supplémentaire	-5674
cm	-5675
sie	-5676
▁4.	-5677
umer	-5678
▁pel	-5679
▁sit	-5680
entin	-5681
intes	-5682
urier	-5683
▁Anne	-5684
▁coff	-5685
▁aimer	-5686
▁fréqu	-5687
▁obser	-5688
rétaire	-5689
▁vivant	-5690
▁Afrique	-5691
▁énergie	-5692
existence	-5693
▁lesquels	-5694
▁transpar	-5695
▁violence	-5696
tionnelles	-5697
▁difficulté	-5698
▁mouvements	-5699
▁installation	-5700
ami	-5701
ata	-5702
ouf	-5703
▁:)	-5704
▁Ro	-5705
iale	-5706
▁Mil	-5707
anité	-5708
▁prol	-5709
▁sept	-5710
▁tres	-5711
▁héros	-5712
▁tirer	-5713
▁acheté	-5714
▁ajoute	-5715
▁billet	-5716
▁entrer	-5717
▁musici	-5718
▁ventes	-5719
identité	-5720
écriture	-5721
▁Société	-5722
▁capital	-5723
▁Seigneur	-5724
▁déjeuner	-5725
▁reprendre	-5726
▁couverture	-5727
▁résistance	-5728
▁impressionn	-5729
IER	-5730
eue	-5731
▁(4	-5732
atel	-5733
ival	-5734
ettre	-5735
amètre	-5736
inique	-5737
▁Contr	-5738
▁Monde	-5739
▁faveur	-5740
▁prénom	-5741
▁cuisson	-5742
▁espaces	-5743
▁experts	-5744
▁planète	-5745
▁réparti	-5746
▁vieille	-5747
▁feuilles	-5748
▁machines	-5749
▁secondes	-5750
▁différent	-5751
▁artistique	-5752
▁accessoires	-5753
ta	-5754
▁CD	-5755
▁Mc	-5756
▁SE	-5757
illé	-5758
▁fan	-5759
mpire	-5760
onyme	-5761
seurs	-5762
▁Ceci	-5763
▁pous	-5764
▁bibli	-5765
▁porté	-5766
annique	-5767
▁salope	-5768
ationale	-5769
▁centres	-5770
▁fenêtre	-5771
▁profite	-5772
▁proposé	-5773
▁sources	-5774
édération	-5775
▁Quelques	-5776
▁échanges	-5777
▁multiples	-5778
▁lesquelles	-5779
95	-5780
Ex	-5781
go	-5782
▁SP	-5783
lure	-5784
▁arb	-5785
▁mec	-5786
▁tab	-5787
acles	-5788
isser	-5789
ottes	-5790
riers	-5791
usion	-5792
▁frag	-5793
▁vote	-5794
acités	-5795
ouvoir	-5796
▁chien	-5797
▁manip	-5798
▁élevé	-5799
entique	-5800
▁Russie	-5801
▁patron	-5802
▁revenu	-5803
▁signal	-5804
▁étapes	-5805
▁marchand	-5806
▁exactement	-5807
▁électronique	-5808
Is	-5809
xe	-5810
RES	-5811
aya	-5812
bon	-5813
ket	-5814
uro	-5815
occu	-5816
▁dig	-5817
▁gay	-5818
▁ski	-5819
naire	-5820
▁2000	-5821
▁Prod	-5822
▁Retr	-5823
▁batt	-5824
▁diss	-5825
▁froi	-5826
▁suit	-5827
ricité	-5828
▁coton	-5829
▁gagné	-5830
▁jaune	-5831
▁plong	-5832
▁vaste	-5833
▁allons	-5834
▁baisse	-5835
▁jambes	-5836
▁remont	-5837
▁salles	-5838
▁fichier	-5839
▁mondial	-5840
▁mauvaise	-5841
▁association	-5842
67	-5843
mon	-5844
chat	-5845
veurs	-5846
▁from	-5847
istant	-5848
onnant	-5849
▁délic	-5850
▁front	-5851
▁terri	-5852
absence	-5853
▁cardin	-5854
▁commen	-5855
▁donnée	-5856
▁tester	-5857
▁conduite	-5858
▁produire	-5859
ga	-5860
fic	-5861
ita	-5862
▁Auc	-5863
▁sim	-5864
endue	-5865
icher	-5866
inage	-5867
▁Celui	-5868
▁bains	-5869
▁biens	-5870
▁boute	-5871
▁devra	-5872
▁serez	-5873
▁soign	-5874
▁tiers	-5875
environ	-5876
êtement	-5877
▁auront	-5878
▁dessin	-5879
▁affaire	-5880
▁parking	-5881
▁prennent	-5882
▁renouvel	-5883
▁revanche	-5884
IG	-5885
▁н	-5886
iki	-5887
▁75	-5888
chau	-5889
riez	-5890
▁Arr	-5891
▁San	-5892
▁coc	-5893
▁lin	-5894
▁édi	-5895
...).	-5896
mêmes	-5897
▁mété	-5898
▁2016,	-5899
▁Belle	-5900
▁civil	-5901
▁délai	-5902
allenge	-5903
▁allant	-5904
▁avions	-5905
▁espagn	-5906
▁obtenu	-5907
▁totale	-5908
▁Service	-5909
▁sensible	-5910
▁développé	-5911
▁partenariat	-5912
то	-5913
fiée	-5914
sive	-5915
▁Oli	-5916
▁cra	-5917
cides	-5918
iness	-5919
▁Code	-5920
▁bref	-5921
France	-5922
▁ultra	-5923
Afrique	-5924
▁comité	-5925
▁locale	-5926
▁privée	-5927
▁talent	-5928
▁tourner	-5929
▁utilisés	-5930
▁faciliter	-5931
▁procédure	-5932
▁publiques	-5933
▁voyageurs	-5934
▁effectivement	-5935
kin	-5936
rom	-5937
tig	-5938
▁(7	-5939
atur	-5940
iant	-5941
omas	-5942
▁LES	-5943
▁jui	-5944
umeur	-5945
▁Jeux	-5946
▁Rien	-5947
▁amén	-5948
▁conç	-5949
agence	-5950
▁boite	-5951
▁apport	-5952
▁énergé	-5953
▁Nicolas	-5954
▁atteint	-5955
▁entendre	-5956
▁retraite	-5957
▁réalisée	-5958
▁progressi	-5959
▁proposons	-5960
▁destination	-5961
▁importantes	-5962
▁technologies	-5963
Ou	-5964
anda	-5965
atte	-5966
ctur	-5967
▁Art	-5968
▁Gre	-5969
▁Thé	-5970
ignon	-5971
▁dure	-5972
▁fasc	-5973
aintes	-5974
aurait	-5975
ington	-5976
▁garan	-5977
▁remis	-5978
▁tombe	-5979
obtenir	-5980
retagne	-5981
▁Encore	-5982
▁signes	-5983
▁stress	-5984
▁Cuisine	-5985
▁intérêt	-5986
▁lecteur	-5987
▁paroles	-5988
▁quitter	-5989
▁dialogue	-5990
▁Plusieurs	-5991
▁augmenter	-5992
▁histoires	-5993
▁respecter	-5994
▁organisations	-5995
IX	-5996
ks	-5997
igh	-5998
ora	-5999
ulée	-6000
œurs	-6001
▁don	-6002
▁raf	-6003
▁Camp	-6004
▁cité	-6005
▁exer	-6006
▁loge	-6007
▁renv	-6008
▁exter	-6009
▁Malgré	-6010
▁chaude	-6011
▁oeuvre	-6012
▁tribun	-6013
▁Windows	-6014
▁donnent	-6015
▁marchés	-6016
▁meubles	-6017
▁regarde	-6018
▁francoph	-6019
▁accueille	-6020
▁capacités	-6021
▁investisse	-6022
▁possibilités	-6023
cte	-6024
éth	-6025
▁48	-6026
fiés	-6027
isés	-6028
neur	-6029
▁van	-6030
érite	-6031
▁Bois	-6032
▁guer	-6033
▁tort	-6034
▁2015,	-6035
▁cesse	-6036
▁envis	-6037
▁lumin	-6038
▁noire	-6039
▁stade	-6040
▁studi	-6041
enfants	-6042
éroport	-6043
▁bouton	-6044
▁erreur	-6045
▁analyse	-6046
▁médecin	-6047
▁ancienne	-6048
▁officiel	-6049
▁prestations	-6050
33	-6051
AV	-6052
own	-6053
écl	-6054
▁AU	-6055
▁My	-6056
rète	-6057
▁400	-6058
▁Top	-6059
▁nez	-6060
gérie	-6061
▁gout	-6062
▁myth	-6063
▁rent	-6064
▁vise	-6065
▁Forum	-6066
▁accro	-6067
▁achat	-6068
▁actif	-6069
▁barre	-6070
▁color	-6071
▁frapp	-6072
▁phase	-6073
▁piste	-6074
▁revue	-6075
▁stage	-6076
▁danger	-6077
▁pollen	-6078
▁sentir	-6079
▁espèces	-6080
▁secteurs	-6081
▁cérémonie	-6082
▁dynamique	-6083
▁règlement	-6084
inscription	-6085
▁correspondant	-6086
▁33	-6087
▁cess	-6088
▁hydr	-6089
▁moul	-6090
▁scul	-6091
▁vain	-6092
tières	-6093
▁russe	-6094
▁affich	-6095
▁analys	-6096
▁attach	-6097
▁normes	-6098
▁réussir	-6099
▁Bordeaux	-6100
▁Nouvelle	-6101
▁distribu	-6102
▁programm	-6103
exposition	-6104
▁situations	-6105
▁malheureusement	-6106
As	-6107
cé	-6108
gy	-6109
ún	-6110
▁3,	-6111
gent	-6112
▁Pol	-6113
▁blan	-6114
▁dent	-6115
▁surf	-6116
ellent	-6117
sibles	-6118
▁satel	-6119
▁troub	-6120
augment	-6121
oriques	-6122
ulaires	-6123
étation	-6124
▁appelle	-6125
▁château	-6126
▁entière	-6127
▁voulais	-6128
fications	-6129
riculture	-6130
▁Monsieur	-6131
▁jeunesse	-6132
▁rapports	-6133
▁collectif	-6134
▁38	-6135
▁5.	-6136
anie	-6137
extr	-6138
▁Eff	-6139
▁Mas	-6140
andre	-6141
enser	-6142
▁cant	-6143
uisent	-6144
▁2018.	-6145
▁Maroc	-6146
▁bilan	-6147
▁convi	-6148
▁envoyé	-6149
▁énorme	-6150
▁Rencont	-6151
▁dessous	-6152
▁discipl	-6153
▁indique	-6154
▁soutenir	-6155
▁Retrouvez	-6156
▁militaires	-6157
▁restauration	-6158
▁scientifiques	-6159
nel	-6160
onf	-6161
▁150	-6162
▁COM	-6163
▁Kar	-6164
▁mér	-6165
uaire	-6166
▁clés	-6167
▁sauv	-6168
tation	-6169
▁Bonne	-6170
▁maman	-6171
▁signé	-6172
▁certes	-6173
▁disque	-6174
▁inféri	-6175
▁mascul	-6176
mosphère	-6177
éhension	-6178
▁comptes	-6179
▁couvert	-6180
▁interne	-6181
▁invités	-6182
▁raconte	-6183
▁aventure	-6184
▁interdit	-6185
▁attendant	-6186
▁remplacer	-6187
▁engagement	-6188
▁exposition	-6189
▁informatique	-6190
▁indispensable	-6191
Ad	-6192
FR	-6193
IA	-6194
SS	-6195
Ins	-6196
avo	-6197
gin	-6198
hor	-6199
▁Bo	-6200
▁hi	-6201
cent	-6202
ieur	-6203
inos	-6204
▁hos	-6205
▁éti	-6206
ayant	-6207
ciers	-6208
eries	-6209
illez	-6210
impos	-6211
▁2007	-6212
▁Peti	-6213
cteurs	-6214
▁2017,	-6215
▁bénév	-6216
▁rejet	-6217
acheter	-6218
▁chante	-6219
▁doigts	-6220
▁adultes	-6221
▁chinois	-6222
▁métiers	-6223
▁paysage	-6224
▁vigueur	-6225
▁semblait	-6226
▁sûrement	-6227
▁lancement	-6228
▁réglement	-6229
▁sentiments	-6230
▁personnelle	-6231
▁applications	-6232
48	-6233
TT	-6234
bi	-6235
dou	-6236
adis	-6237
▁hés	-6238
▁rat	-6239
▁sys	-6240
ettez	-6241
istan	-6242
érale	-6243
▁Vers	-6244
▁fins	-6245
aments	-6246
▁bruit	-6247
▁Contin	-6248
▁Femmes	-6249
▁garçon	-6250
▁savait	-6251
agnement	-6252
tiennent	-6253
▁mention	-6254
▁recours	-6255
▁candidat	-6256
▁circonst	-6257
▁précédent	-6258
▁formations	-6259
▁communautés	-6260
38	-6261
6)	-6262
inv	-6263
▁Dés	-6264
▁goû	-6265
▁Club	-6266
▁tuer	-6267
▁vins	-6268
▁Coupe	-6269
▁Trois	-6270
▁estim	-6271
▁islam	-6272
▁léger	-6273
▁musul	-6274
▁pollu	-6275
uxelles	-6276
▁arrêté	-6277
▁cultiv	-6278
▁figure	-6279
▁suscep	-6280
▁techni	-6281
▁chevaux	-6282
▁patient	-6283
▁perspec	-6284
▁critères	-6285
▁européen	-6286
▁méthodes	-6287
▁pouvoirs	-6288
▁seraient	-6289
▁fournisse	-6290
▁néanmoins	-6291
▁promotion	-6292
▁classement	-6293
▁quotidienne	-6294
za	-6295
mpe	-6296
tée	-6297
ôts	-6298
aper	-6299
grer	-6300
çait	-6301
▁Dim	-6302
▁Esc	-6303
▁Res	-6304
▁net	-6305
▁fati	-6306
▁moto	-6307
▁Homme	-6308
▁armes	-6309
▁chute	-6310
▁expli	-6311
▁résid	-6312
obilité	-6313
ressions	-6314
▁Annonce	-6315
▁convers	-6316
▁indiqué	-6317
▁spécial	-6318
▁touches	-6319
▁ambiance	-6320
▁intitulé	-6321
▁commandes	-6322
▁décisions	-6323
▁extérieur	-6324
▁commercial	-6325
▁révolution	-6326
intervention	-6327
▁composition	-6328
▁compétition	-6329
On	-6330
ld	-6331
▁→	-6332
nis	-6333
mise	-6334
plus	-6335
radi	-6336
▁All	-6337
▁Tur	-6338
▁sch	-6339
ocher	-6340
▁judi	-6341
▁magn	-6342
▁baign	-6343
▁corre	-6344
▁délég	-6345
▁tarif	-6346
▁distin	-6347
▁regret	-6348
▁déplace	-6349
▁prenant	-6350
▁Utilisez	-6351
▁attentes	-6352
▁Marseille	-6353
▁appareils	-6354
▁dirigeants	-6355
▁incontourn	-6356
▁distribution	-6357
ID	-6358
yo	-6359
abri	-6360
audi	-6361
▁(1)	-6362
▁anne	-6363
▁mine	-6364
▁prêts	-6365
▁Julien	-6366
▁combin	-6367
▁hasard	-6368
▁accéder	-6369
▁atelier	-6370
▁courage	-6371
▁plafond	-6372
▁randonn	-6373
▁victime	-6374
▁voyages	-6375
criptions	-6376
▁proposés	-6377
▁rappeler	-6378
▁épisodes	-6379
▁fermeture	-6380
▁rencontré	-6381
17	-6382
FA	-6383
PE	-6384
to	-6385
ïs	-6386
log	-6387
ols	-6388
▁Ve	-6389
oral	-6390
quier	-6391
rient	-6392
élect	-6393
élève	-6394
▁midi	-6395
▁révél	-6396
▁évolu	-6397
hétique	-6398
tivités	-6399
▁toucher	-6400
▁National	-6401
▁chaleure	-6402
expression	-6403
▁devraient	-6404
▁sensation	-6405
▁conséquences	-6406
ILL	-6407
IRE	-6408
gées	-6409
ocat	-6410
uclé	-6411
▁jet	-6412
ATION	-6413
▁trou	-6414
▁Autre	-6415
▁Venez	-6416
▁doctr	-6417
▁peint	-6418
▁Faites	-6419
▁reçoit	-6420
exercice	-6421
registre	-6422
▁recueil	-6423
▁discuter	-6424
▁faudrait	-6425
▁sciences	-6426
▁proposent	-6427
▁collective	-6428
▁télécharger	-6429
▁propriétaires	-6430
19	-6431
ye	-6432
/10	-6433
her	-6434
oto	-6435
▁XX	-6436
gies	-6437
oiff	-6438
umes	-6439
▁190	-6440
▁Sim	-6441
▁fol	-6442
▁uns	-6443
/2018	-6444
album	-6445
ather	-6446
estes	-6447
oudre	-6448
oyeur	-6449
▁menu	-6450
▁vécu	-6451
acteur	-6452
cieuse	-6453
▁Achet	-6454
▁gagne	-6455
▁lycée	-6456
érateur	-6457
▁tarifs	-6458
▁limites	-6459
quisition	-6460
▁possibles	-6461
▁potentiel	-6462
▁établissements	-6463
”,	-6464
▁Bu	-6465
▁Mo	-6466
nant	-6467
rase	-6468
uter	-6469
▁Pat	-6470
▁ore	-6471
▁pér	-6472
quide	-6473
▁Sous	-6474
▁huit	-6475
▁stre	-6476
▁toil	-6477
▁répar	-6478
▁sable	-6479
artiste	-6480
cession	-6481
ercices	-6482
▁Robert	-6483
▁matern	-6484
▁offert	-6485
▁pointe	-6486
▁retard	-6487
sibilité	-6488
▁Vatican	-6489
▁langage	-6490
▁progrès	-6491
▁montagne	-6492
▁religion	-6493
▁financière	-6494
▁concurrence	-6495
1)	-6496
37	-6497
Es	-6498
dh	-6499
kea	-6500
aste	-6501
▁Aux	-6502
▁Don	-6503
▁Hen	-6504
ernes	-6505
ondes	-6506
▁fine	-6507
▁pant	-6508
▁évol	-6509
cevoir	-6510
▁Blanc	-6511
▁nommé	-6512
▁vérit	-6513
interpr	-6514
▁bateau	-6515
▁prison	-6516
▁reprise	-6517
atisation	-6518
▁concentr	-6519
▁confront	-6520
▁magasins	-6521
▁ressenti	-6522
▁justement	-6523
▁commission	-6524
▁officielle	-6525
▁rénovation	-6526
▁Description	-6527
auc	-6528
réd	-6529
anes	-6530
rime	-6531
▁Luc	-6532
▁Rec	-6533
▁put	-6534
▁typ	-6535
grédi	-6536
▁ling	-6537
▁murs	-6538
▁pétr	-6539
▁rappr	-6540
▁tours	-6541
anglais	-6542
exemple	-6543
▁Banque	-6544
▁advers	-6545
▁identi	-6546
▁invite	-6547
▁sommet	-6548
▁Trouver	-6549
▁actuelle	-6550
▁matières	-6551
▁portable	-6552
▁semblent	-6553
▁utilisée	-6554
université	-6555
▁assurance	-6556
▁extrêmement	-6557
▁spécifiques	-6558
],	-6559
Com	-6560
ams	-6561
édie	-6562
▁Max	-6563
▁Réf	-6564
▁Sui	-6565
▁Syl	-6566
ismes	-6567
▁bomb	-6568
▁luxe	-6569
écoute	-6570
▁affec	-6571
▁déliv	-6572
▁mille	-6573
▁préal	-6574
▁seins	-6575
enquête	-6576
▁chauss	-6577
▁Twitter	-6578
▁chaînes	-6579
▁connaît	-6580
▁courses	-6581
▁déchets	-6582
▁plateau	-6583
ordinaire	-6584
▁voitures	-6585
▁nettoyage	-6586
▁printemps	-6587
▁Chaussures	-6588
▁journalistes	-6589
&#	-6590
75	-6591
::	-6592
cr	-6593
ala	-6594
bas	-6595
chi	-6596
lés	-6597
ool	-6598
erme	-6599
tait	-6600
ulte	-6601
érés	-6602
▁Men	-6603
artis	-6604
uster	-6605
▁Parc	-6606
▁reli	-6607
ardins	-6608
▁Aussi	-6609
▁Bourg	-6610
▁cycle	-6611
▁écart	-6612
utation	-6613
▁compati	-6614
▁conduit	-6615
▁locales	-6616
▁silence	-6617
▁pourrais	-6618
▁fortement	-6619
▁précision	-6620
▁scolaires	-6621
▁françaises	-6622
▁importants	-6623
▁automatiquement	-6624
36	-6625
km	-6626
gre	-6627
agés	-6628
ings	-6629
▁Air	-6630
▁Ali	-6631
oigne	-6632
▁acte	-6633
▁auth	-6634
▁look	-6635
▁poul	-6636
▁élus	-6637
▁Haute	-6638
▁Porte	-6639
▁bases	-6640
▁cible	-6641
fection	-6642
▁Guerre	-6643
▁Jardin	-6644
▁climat	-6645
▁marqué	-6646
▁pertin	-6647
▁formule	-6648
▁amateurs	-6649
▁apparaît	-6650
▁spéciale	-6651
▁Attention	-6652
▁renforcer	-6653
▁réparation	-6654
▁championnat	-6655
▁renseignements	-6656
ald	-6657
▁We	-6658
avis	-6659
ires	-6660
égal	-6661
▁Rel	-6662
adies	-6663
onnés	-6664
ostic	-6665
▁vint	-6666
intern	-6667
mation	-6668
▁bonus	-6669
▁caill	-6670
▁lymph	-6671
▁param	-6672
▁rares	-6673
▁tapis	-6674
▁fiches	-6675
▁leader	-6676
▁option	-6677
▁pensez	-6678
piration	-6679
▁reprend	-6680
▁session	-6681
actualité	-6682
▁japonais	-6683
▁morceaux	-6684
▁formulaire	-6685
▁supérieure	-6686
▁principales	-6687
▁essentiellement	-6688
éo	-6689
INE	-6690
oui	-6691
berg	-6692
êque	-6693
▁Reg	-6694
▁bap	-6695
▁new	-6696
▁Chap	-6697
▁ench	-6698
▁soud	-6699
▁trim	-6700
▁émis	-6701
Eglise	-6702
apport	-6703
▁Black	-6704
▁auxqu	-6705
▁morte	-6706
▁soeur	-6707
▁étage	-6708
▁Profes	-6709
▁conviv	-6710
▁parall	-6711
paravant	-6712
▁Personn	-6713
▁circuit	-6714
▁coucher	-6715
▁envoyer	-6716
▁fraîche	-6717
▁rivière	-6718
▁originale	-6719
▁religieux	-6720
▁définition	-6721
▁personnelles	-6722
ya	-6723
rob	-6724
▁AV	-6725
▁Em	-6726
▁Mi	-6727
joux	-6728
ogue	-6729
▁tar	-6730
ondur	-6731
▁gour	-6732
▁isol	-6733
▁maqu	-6734
▁pain	-6735
meuble	-6736
uisant	-6737
▁appli	-6738
▁hyper	-6739
▁disait	-6740
▁promen	-6741
▁visant	-6742
▁potenti	-6743
▁Beaucoup	-6744
▁catégories	-6745
-2	-6746
IM	-6747
QU	-6748
don	-6749
ica	-6750
ker	-6751
tés	-6752
▁Jo	-6753
dien	-6754
nées	-6755
uide	-6756
érée	-6757
▁USB	-6758
▁hui	-6759
▁Bour	-6760
▁Norm	-6761
▁Radi	-6762
▁carb	-6763
▁côte	-6764
Pierre	-6765
ensité	-6766
érapeu	-6767
▁Sinon	-6768
▁actes	-6769
▁appuy	-6770
▁actuel	-6771
▁auteur	-6772
▁devons	-6773
▁parent	-6774
▁statis	-6775
ancienne	-6776
▁importe	-6777
▁accident	-6778
▁fichiers	-6779
▁qualités	-6780
▁standard	-6781
▁conserver	-6782
▁expliquer	-6783
▁logiciels	-6784
▁ouverture	-6785
▁structures	-6786
▁collections	-6787
▁représentation	-6788
Ab	-6789
ANT	-6790
endi	-6791
olis	-6792
▁Moy	-6793
▁bag	-6794
▁née	-6795
azine	-6796
lande	-6797
▁Vinc	-6798
▁maïs	-6799
▁cache	-6800
▁mange	-6801
▁parlé	-6802
aujourd	-6803
▁chargé	-6804
▁config	-6805
▁réduit	-6806
étranger	-6807
▁Nouveau	-6808
▁langues	-6809
▁reconnu	-6810
Allemagne	-6811
▁dossiers	-6812
▁poursuit	-6813
▁préoccup	-6814
▁reprises	-6815
▁autrement	-6816
▁financier	-6817
▁accueillir	-6818
▁britannique	-6819
▁description	-6820
▁populations	-6821
TM	-6822
moi	-6823
the	-6824
âme	-6825
▁AR	-6826
▁PL	-6827
amas	-6828
elli	-6829
euse	-6830
▁bio	-6831
▁rock	-6832
▁élab	-6833
conque	-6834
▁baise	-6835
endrier	-6836
hôpital	-6837
▁solide	-6838
▁taches	-6839
Amérique	-6840
agements	-6841
▁attribu	-6842
▁liquide	-6843
▁fréquent	-6844
▁suivants	-6845
▁participé	-6846
intégration	-6847
▁secrétaire	-6848
na	-6849
ра	-6850
ena	-6851
uls	-6852
▁CN	-6853
▁Ni	-6854
▁tâ	-6855
aule	-6856
aure	-6857
ouff	-6858
▁Lig	-6859
▁ois	-6860
▁sép	-6861
avier	-6862
fiant	-6863
▁Holl	-6864
▁West	-6865
▁gare	-6866
▁pâte	-6867
asseur	-6868
ouvent	-6869
▁Heure	-6870
▁charm	-6871
▁exige	-6872
▁subst	-6873
▁venus	-6874
endroit	-6875
iterran	-6876
▁opport	-6877
▁respir	-6878
▁traité	-6879
olutionn	-6880
▁visible	-6881
▁Toulouse	-6882
▁cherchez	-6883
▁sensibil	-6884
▁participe	-6885
▁phénomène	-6886
▁souvenirs	-6887
▁Maintenant	-6888
▁communiqué	-6889
▁accompagner	-6890
▁représentant	-6891
▁suffisamment	-6892
CA	-6893
Et	-6894
dy	-6895
apé	-6896
▁39	-6897
ésil	-6898
▁(18	-6899
▁120	-6900
▁Har	-6901
▁ign	-6902
inion	-6903
▁1000	-6904
▁Situ	-6905
▁aéri	-6906
▁dorm	-6907
▁guit	-6908
▁mass	-6909
▁rues	-6910
▁remet	-6911
▁adulte	-6912
▁agence	-6913
▁agents	-6914
▁bassin	-6915
▁couche	-6916
▁minute	-6917
▁établi	-6918
▁adolesc	-6919
▁cadeaux	-6920
▁champion	-6921
▁composée	-6922
▁puissant	-6923
▁remarque	-6924
▁connexion	-6925
▁numériques	-6926
▁coopération	-6927
▁spécialistes	-6928
CO	-6929
gi	-6930
▁q	-6931
jug	-6932
jus	-6933
way	-6934
▁QU	-6935
chún	-6936
veau	-6937
▁Ant	-6938
▁Dév	-6939
▁PRO	-6940
▁cro	-6941
▁fur	-6942
▁tur	-6943
comme	-6944
▁brun	-6945
hésion	-6946
▁Salon	-6947
▁souci	-6948
▁toile	-6949
inaires	-6950
tension	-6951
▁Inform	-6952
▁compli	-6953
▁rouges	-6954
▁soucis	-6955
▁thèmes	-6956
▁aspects	-6957
▁douleur	-6958
▁remplir	-6959
intention	-6960
▁appropri	-6961
▁découvre	-6962
▁nécessité	-6963
▁présidenti	-6964
▁médicaments	-6965
▁établissement	-6966
.»	-6967
AB	-6968
EP	-6969
ior	-6970
▁->	-6971
▁CO	-6972
▁Wh	-6973
aves	-6974
ower	-6975
éter	-6976
ôles	-6977
▁Her	-6978
▁Jér	-6979
▁voc	-6980
angle	-6981
▁Flor	-6982
▁Lang	-6983
▁Prov	-6984
▁infr	-6985
▁Table	-6986
▁coûts	-6987
▁dépôt	-6988
▁infir	-6989
▁maire	-6990
▁plats	-6991
▁voudr	-6992
archite	-6993
▁Groupe	-6994
▁colère	-6995
▁hypoth	-6996
aimerais	-6997
▁Bernard	-6998
▁montage	-6999
▁remarqu	-7000
événement	-7001
▁maladies	-7002
▁interview	-7003
▁présentes	-7004
▁consultation	-7005
3)	-7006
-16	-7007
III	-7008
htt	-7009
▁AN	-7010
▁er	-7011
▁Der	-7012
▁Gir	-7013
▁box	-7014
▁brû	-7015
▁lié	-7016
ablir	-7017
orama	-7018
▁Nath	-7019
▁beur	-7020
▁chou	-7021
▁fixe	-7022
▁rédi	-7023
annage	-7024
ciaire	-7025
▁avent	-7026
▁nette	-7027
▁nuclé	-7028
▁pensé	-7029
▁score	-7030
▁usage	-7031
identif	-7032
▁Daniel	-7033
▁sauver	-7034
▁Gratuit	-7035
▁affiche	-7036
▁licence	-7037
▁solaire	-7038
▁défendre	-7039
▁interrog	-7040
▁Bruxelles	-7041
▁récupérer	-7042
▁chercheurs	-7043
▁profondeur	-7044
▁tranquille	-7045
▁philosophie	-7046
▁institutions	-7047
▁supplémentaires	-7048
”.	-7049
ags	-7050
opp	-7051
pit	-7052
sif	-7053
uct	-7054
inés	-7055
tins	-7056
▁Cli	-7057
▁Pap	-7058
effet	-7059
ingue	-7060
inqui	-7061
ouest	-7062
▁Alle	-7063
▁amie	-7064
▁peup	-7065
▁subs	-7066
▁émer	-7067
▁Santé	-7068
▁nutri	-7069
▁référ	-7070
▁systé	-7071
▁auquel	-7072
▁enrich	-7073
▁fameux	-7074
▁invité	-7075
▁écoute	-7076
▁cliquez	-7077
▁devenue	-7078
▁rentrée	-7079
▁retrait	-7080
grédients	-7081
▁entretien	-7082
▁culturelle	-7083
▁relativement	-7084
▁spécialement	-7085
▁surveillance	-7086
94	-7087
MI	-7088
itr	-7089
pin	-7090
____	-7091
aies	-7092
chec	-7093
hier	-7094
▁Liv	-7095
ectue	-7096
▁2006	-7097
▁Arch	-7098
▁cous	-7099
▁2012,	-7100
▁assis	-7101
▁plaît	-7102
▁pompe	-7103
▁énorm	-7104
idation	-7105
▁disent	-7106
▁déroul	-7107
▁inclus	-7108
▁menace	-7109
▁élimin	-7110
▁Laurent	-7111
▁adaptée	-7112
▁cabinet	-7113
▁commiss	-7114
▁roulant	-7115
▁amoureux	-7116
▁chapitre	-7117
▁régional	-7118
▁favoriser	-7119
▁retourner	-7120
▁transfert	-7121
ographiques	-7122
▁classiques	-7123
▁manifestation	-7124
▁Ã	-7125
aga	-7126
col	-7127
lez	-7128
uge	-7129
▁32	-7130
▁??	-7131
▁ru	-7132
mois	-7133
sier	-7134
uise	-7135
vées	-7136
élic	-7137
▁Vos	-7138
▁mee	-7139
ender	-7140
faire	-7141
outil	-7142
texte	-7143
étant	-7144
▁Maur	-7145
▁arts	-7146
▁corp	-7147
▁Franc	-7148
▁affin	-7149
▁plant	-7150
atrième	-7151
ènement	-7152
▁désign	-7153
▁légiti	-7154
▁mérite	-7155
▁plante	-7156
▁réelle	-7157
▁équipé	-7158
Institut	-7159
aventure	-7160
▁artisan	-7161
▁artiste	-7162
▁hommage	-7163
▁pensées	-7164
▁serrure	-7165
▁football	-7166
évaluation	-7167
▁contrôler	-7168
▁individus	-7169
▁intérieure	-7170
▁promouvoir	-7171
ael	-7172
▁Cy	-7173
▁UN	-7174
blog	-7175
ermé	-7176
onor	-7177
▁193	-7178
▁Loi	-7179
▁Mai	-7180
▁Pan	-7181
▁Tar	-7182
chage	-7183
chons	-7184
joint	-7185
oches	-7186
ômage	-7187
▁band	-7188
▁déco	-7189
▁girl	-7190
▁harm	-7191
▁occu	-7192
▁québ	-7193
▁tabl	-7194
▁vice	-7195
itants	-7196
études	-7197
▁téléc	-7198
pellier	-7199
▁Italie	-7200
▁courte	-7201
▁crimin	-7202
▁estime	-7203
▁explos	-7204
▁mettent	-7205
▁ateliers	-7206
▁bancaire	-7207
▁missions	-7208
▁paysages	-7209
▁réaction	-7210
▁clientèle	-7211
▁Fédération	-7212
▁accompagné	-7213
▁organismes	-7214
▁énormément	-7215
▁с	-7216
iée	-7217
orp	-7218
▁37	-7219
▁Ev	-7220
▁gê	-7221
atou	-7222
cool	-7223
utes	-7224
▁Bes	-7225
▁élu	-7226
ublic	-7227
▁Film	-7228
▁quin	-7229
tifici	-7230
▁Photo	-7231
▁acier	-7232
▁dates	-7233
▁diagn	-7234
▁mener	-7235
▁ouvre	-7236
▁quête	-7237
▁Thomas	-7238
▁modern	-7239
▁pistes	-7240
▁exploit	-7241
ativement	-7242
▁avantage	-7243
▁dépenses	-7244
▁déplacer	-7245
▁journées	-7246
▁mobilité	-7247
▁catholique	-7248
▁traduction	-7249
▁transports	-7250
▁inscription	-7251
▁littérature	-7252
▁reconnaissance	-7253
ba	-7254
Est	-7255
cad	-7256
ône	-7257
▁55	-7258
ator	-7259
chon	-7260
cité	-7261
mans	-7262
ound	-7263
▁Lac	-7264
▁Mél	-7265
▁Ouv	-7266
▁Tri	-7267
▁dor	-7268
.....	-7269
exécu	-7270
oseph	-7271
union	-7272
▁2005	-7273
▁Wash	-7274
▁fier	-7275
▁grec	-7276
▁saur	-7277
▁éduc	-7278
antill	-7279
illets	-7280
ombres	-7281
tibles	-7282
▁alent	-7283
▁créée	-7284
▁gross	-7285
▁ingén	-7286
▁latér	-7287
veiller	-7288
▁Nantes	-7289
▁révèle	-7290
humanité	-7291
▁amateur	-7292
▁couches	-7293
▁définir	-7294
▁prolong	-7295
▁raisonn	-7296
▁serveur	-7297
▁souffle	-7298
▁laissant	-7299
▁terrible	-7300
▁Recherche	-7301
▁diversité	-7302
▁européens	-7303
▁étrangers	-7304
▁restaurants	-7305
%,	-7306
-6	-7307
cy	-7308
lon	-7309
pre	-7310
▁ya	-7311
lait	-7312
mond	-7313
trer	-7314
yles	-7315
çonn	-7316
▁Bat	-7317
▁Pie	-7318
▁bri	-7319
▁Prin	-7320
▁logo	-7321
▁2014,	-7322
▁2016.	-7323
▁liées	-7324
▁météo	-7325
icacité	-7326
étaires	-7327
▁décrit	-7328
▁plages	-7329
▁vivent	-7330
▁descend	-7331
▁douceur	-7332
▁préfère	-7333
▁sportif	-7334
▁auraient	-7335
▁ressemble	-7336
▁commerciale	-7337
▁précisément	-7338
▁sympathique	-7339
▁équipements	-7340
55	-7341
Au	-7342
loc	-7343
ren	-7344
▁Là	-7345
rien	-7346
▁Dem	-7347
▁Méd	-7348
▁Syn	-7349
▁Wal	-7350
▁emm	-7351
▁lot	-7352
▁ral	-7353
▁vag	-7354
▁âme	-7355
lerie	-7356
sière	-7357
▁Barb	-7358
▁Diff	-7359
▁Math	-7360
▁etre	-7361
ieuses	-7362
tionné	-7363
érance	-7364
▁Hôtel	-7365
▁coûte	-7366
▁email	-7367
▁queue	-7368
▁virtu	-7369
èlement	-7370
▁passée	-7371
▁postes	-7372
▁présid	-7373
▁classes	-7374
▁destiné	-7375
▁donnant	-7376
▁loisirs	-7377
▁mettant	-7378
▁offrant	-7379
▁visites	-7380
▁apprécié	-7381
▁quasiment	-7382
▁différente	-7383
▁nourriture	-7384
▁prochaines	-7385
▁conférences	-7386
▁circonstances	-7387
▁manifestations	-7388
SA	-7389
sa	-7390
ics	-7391
rak	-7392
▁Ci	-7393
▁HD	-7394
▁SN	-7395
▁Sw	-7396
auto	-7397
cope	-7398
quie	-7399
▁Sav	-7400
arder	-7401
orale	-7402
utile	-7403
érons	-7404
▁Jack	-7405
▁arme	-7406
▁dose	-7407
▁stim	-7408
manuel	-7409
▁biais	-7410
▁clubs	-7411
▁labor	-7412
▁récol	-7413
▁réuss	-7414
▁tests	-7415
▁animal	-7416
▁connue	-7417
▁préser	-7418
▁relève	-7419
▁épouse	-7420
ambiance	-7421
igration	-7422
▁central	-7423
▁immense	-7424
▁portail	-7425
▁regroup	-7426
▁réforme	-7427
▁science	-7428
▁abandonn	-7429
▁maîtrise	-7430
▁parvenir	-7431
▁sexuelle	-7432
▁compléter	-7433
▁rembourse	-7434
▁travaillé	-7435
▁utilisées	-7436
▁américains	-7437
▁discussion	-7438
▁motivation	-7439
▁énergétique	-7440
-3	-7441
ev	-7442
rel	-7443
uie	-7444
ensé	-7445
oeil	-7446
omét	-7447
rick	-7448
▁Amb	-7449
▁Mul	-7450
▁hér	-7451
▁mac	-7452
inium	-7453
▁mets	-7454
▁plas	-7455
dement	-7456
étaire	-7457
▁fuite	-7458
▁Petite	-7459
▁appari	-7460
▁garage	-7461
▁ouvrir	-7462
▁sainte	-7463
épendant	-7464
▁Richard	-7465
▁banques	-7466
▁préféré	-7467
▁soldats	-7468
▁destinée	-7469
▁endroits	-7470
▁gratuits	-7471
▁émotions	-7472
engagement	-7473
▁diffusion	-7474
▁publicité	-7475
Association	-7476
▁calendrier	-7477
▁déterminer	-7478
▁références	-7479
▁circulation	-7480
▁conséquence	-7481
▁installations	-7482
▁naturellement	-7483
-4	-7484
TC	-7485
UM	-7486
azz	-7487
fie	-7488
▁cu	-7489
▁vo	-7490
cons	-7491
erse	-7492
▁Guy	-7493
▁Lim	-7494
▁del	-7495
▁rej	-7496
accep	-7497
aders	-7498
èdent	-7499
▁Star	-7500
▁cord	-7501
▁raff	-7502
▁surn	-7503
excell	-7504
oureux	-7505
▁André	-7506
▁dents	-7507
▁fasse	-7508
▁fruit	-7509
▁neige	-7510
▁paire	-7511
▁ronde	-7512
attaque	-7513
ommages	-7514
▁concep	-7515
▁fantas	-7516
▁former	-7517
▁libres	-7518
▁prends	-7519
▁sports	-7520
appareil	-7521
médiaire	-7522
▁feuille	-7523
▁équipée	-7524
▁étoiles	-7525
▁Première	-7526
▁lecteurs	-7527
opposition	-7528
▁collègues	-7529
▁musiciens	-7530
▁navigation	-7531
▁poursuivre	-7532
▁contrairement	-7533
.:	-7534
UL	-7535
als	-7536
ané	-7537
omo	-7538
▁42	-7539
▁44	-7540
▁Ha	-7541
▁ST	-7542
▁lâ	-7543
▁mê	-7544
▁om	-7545
iere	-7546
▁250	-7547
▁Bur	-7548
▁Ray	-7549
▁lol	-7550
▁rab	-7551
Phone	-7552
agées	-7553
ution	-7554
▁Ceux	-7555
▁Sand	-7556
▁fans	-7557
espoir	-7558
▁class	-7559
▁prête	-7560
▁récit	-7561
▁venue	-7562
arrière	-7563
ogramme	-7564
uminium	-7565
▁avenir	-7566
▁blancs	-7567
▁chaudi	-7568
▁délais	-7569
▁québéc	-7570
▁optimis	-7571
▁réalise	-7572
▁associés	-7573
▁dizaines	-7574
▁éditions	-7575
▁bâtiments	-7576
▁considéré	-7577
▁familiale	-7578
▁conséquent	-7579
▁contribuer	-7580
▁excellente	-7581
▁alimentaire	-7582
▁expériences	-7583
▁journaliste	-7584
▁révolutionn	-7585
▁dispositions	-7586
▁photographie	-7587
NA	-7588
VE	-7589
▁_	-7590
ake	-7591
hyp	-7592
▁CE	-7593
▁FC	-7594
▁MO	-7595
▁PR	-7596
Plus	-7597
omes	-7598
▁600	-7599
▁Ble	-7600
▁Doc	-7601
▁III	-7602
▁Lab	-7603
▁Lin	-7604
▁gam	-7605
ligne	-7606
▁irré	-7607
▁pein	-7608
▁pert	-7609
▁accus	-7610
▁dress	-7611
▁maroc	-7612
▁situe	-7613
alisées	-7614
oniques	-7615
▁avance	-7616
▁déclen	-7617
▁exempl	-7618
▁poudre	-7619
▁savent	-7620
iliation	-7621
▁coquine	-7622
▁Toujours	-7623
▁batterie	-7624
▁supprimer	-7625
▁comprenant	-7626
▁profession	-7627
▁télécharge	-7628
▁remplacement	-7629
IP	-7630
MS	-7631
ен	-7632
oyé	-7633
▁PE	-7634
▁Ess	-7635
▁vul	-7636
Marie	-7637
quait	-7638
viend	-7639
▁allé	-7640
uation	-7641
▁2013,	-7642
▁décès	-7643
▁finit	-7644
▁monte	-7645
▁Publié	-7646
▁ajouté	-7647
▁idéale	-7648
▁montée	-7649
▁prière	-7650
aéroport	-7651
interest	-7652
▁installé	-7653
▁musicale	-7654
▁scénario	-7655
▁conseille	-7656
▁installer	-7657
▁perfection	-7658
▁pleinement	-7659
▁prévention	-7660
▁proposition	-7661
▁contemporain	-7662
ep	-7663
ban	-7664
oué	-7665
▁Ec	-7666
▁Er	-7667
▁Lo	-7668
▁el	-7669
▁mu	-7670
ries	-7671
▁Mur	-7672
▁PDF	-7673
▁anc	-7674
▁châ	-7675
▁cib	-7676
▁las	-7677
gypte	-7678
nique	-7679
obili	-7680
tités	-7681
tront	-7682
▁Bain	-7683
▁abou	-7684
▁clic	-7685
▁voil	-7686
ierres	-7687
quêtes	-7688
▁Ligue	-7689
▁black	-7690
▁costu	-7691
▁dédié	-7692
Espagne	-7693
échange	-7694
échelle	-7695
▁Région	-7696
▁annonc	-7697
▁cancer	-7698
▁disant	-7699
▁fourni	-7700
▁jusque	-7701
▁mandat	-7702
▁montré	-7703
▁problé	-7704
ènements	-7705
▁affirme	-7706
▁caillou	-7707
▁forfait	-7708
▁rentrer	-7709
ématiques	-7710
▁cardinal	-7711
▁contrats	-7712
▁lunettes	-7713
▁puissent	-7714
▁Néanmoins	-7715
▁alentours	-7716
▁comptable	-7717
▁construit	-7718
▁Rencontres	-7719
▁transformer	-7720
▁International	-7721
▁compréhension	-7722
▁exceptionnelle	-7723
96	-7724
cia	-7725
van	-7726
▁04	-7727
▁7.	-7728
▁78	-7729
▁SU	-7730
Nous	-7731
icat	-7732
▁Jeu	-7733
▁Red	-7734
▁Sén	-7735
▁pes	-7736
ilier	-7737
ouill	-7738
▁Bell	-7739
▁Fort	-7740
▁Home	-7741
▁agir	-7742
▁lame	-7743
▁sugg	-7744
▁geste	-7745
▁issus	-7746
▁magni	-7747
▁rêves	-7748
ativité	-7749
quettes	-7750
▁Madrid	-7751
▁casino	-7752
▁désire	-7753
▁limité	-7754
▁pareil	-7755
▁procès	-7756
▁propor	-7757
▁saisir	-7758
▁tâches	-7759
▁venait	-7760
▁laissez	-7761
▁sauvage	-7762
▁siècles	-7763
▁sorties	-7764
▁artifici	-7765
▁bataille	-7766
▁fenêtres	-7767
▁horaires	-7768
▁province	-7769
▁signific	-7770
▁financiers	-7771
▁résolution	-7772
▁reconnaître	-7773
▁intervention	-7774
▁transformation	-7775
VD	-7776
ary	-7777
bec	-7778
més	-7779
▁1/	-7780
▁Kh	-7781
▁Oh	-7782
dite	-7783
hous	-7784
ices	-7785
▁Bre	-7786
▁Bro	-7787
▁Rem	-7788
▁Tal	-7789
▁Tim	-7790
▁Tor	-7791
▁fun	-7792
autés	-7793
reuse	-7794
▁Chac	-7795
▁Part	-7796
▁coté	-7797
bilité	-7798
existe	-7799
option	-7800
▁Suite	-7801
▁cardi	-7802
▁divis	-7803
▁impli	-7804
▁lever	-7805
▁motif	-7806
▁oubli	-7807
▁plait	-7808
▁ramen	-7809
▁vague	-7810
▁voile	-7811
ultures	-7812
▁Europé	-7813
▁connus	-7814
▁enjeux	-7815
▁répert	-7816
▁souver	-7817
▁séries	-7818
▁vallée	-7819
inscrire	-7820
▁conflit	-7821
▁magique	-7822
▁offrent	-7823
▁retirer	-7824
▁sachant	-7825
▁séances	-7826
▁exemples	-7827
▁villages	-7828
▁créations	-7829
▁exigences	-7830
▁signature	-7831
▁évolution	-7832
▁auparavant	-7833
▁propositions	-7834
▁représentants	-7835
="	-7836
asp	-7837
hou	-7838
orb	-7839
▁00	-7840
anga	-7841
fice	-7842
▁Bri	-7843
▁Pop	-7844
aluer	-7845
astru	-7846
cient	-7847
deurs	-7848
ifier	-7849
oient	-7850
oisse	-7851
orges	-7852
▁2004	-7853
▁Chez	-7854
▁Dany	-7855
▁Poli	-7856
miques	-7857
▁Alain	-7858
▁Lille	-7859
▁maill	-7860
▁occas	-7861
▁placé	-7862
▁roule	-7863
▁réfug	-7864
ologues	-7865
▁Design	-7866
▁découv	-7867
▁dévoil	-7868
▁repose	-7869
▁régler	-7870
▁serais	-7871
▁autonom	-7872
▁chances	-7873
▁féminin	-7874
▁jardins	-7875
▁symbole	-7876
lectrique	-7877
▁consacré	-7878
▁Allemagne	-7879
▁essentiel	-7880
▁exercices	-7881
▁deviennent	-7882
▁célibataires	-7883
IF	-7884
▁и	-7885
▁🙂	-7886
fir	-7887
ray	-7888
xes	-7889
▁Gi	-7890
raël	-7891
venu	-7892
▁Mos	-7893
▁Van	-7894
▁deb	-7895
▁joy	-7896
▁clim	-7897
▁esti	-7898
▁vern	-7899
années	-7900
éviter	-7901
▁2017.	-7902
▁compl	-7903
▁coute	-7904
▁céléb	-7905
▁fêtes	-7906
▁magie	-7907
▁modes	-7908
▁pluie	-7909
appréci	-7910
▁diplom	-7911
▁notion	-7912
▁placer	-7913
▁sombre	-7914
oritaire	-7915
émission	-7916
▁devront	-7917
▁détaill	-7918
▁grosses	-7919
▁pauvres	-7920
▁salaire	-7921
▁médecins	-7922
▁rembours	-7923
▁richesse	-7924
▁rubrique	-7925
▁résoudre	-7926
▁terroris	-7927
▁logements	-7928
agriculture	-7929
▁Collection	-7930
▁naturelles	-7931
▁incontournable	-7932
-)	-7933
/06	-7934
/12	-7935
feu	-7936
nez	-7937
ula	-7938
ype	-7939
▁5,	-7940
▁CR	-7941
▁kg	-7942
▁по	-7943
onci	-7944
▁Cul	-7945
▁dot	-7946
▁nat	-7947
envie	-7948
tinér	-7949
▁amus	-7950
▁pseu	-7951
▁sinc	-7952
otique	-7953
▁Ochún	-7954
▁dimen	-7955
▁relax	-7956
anément	-7957
diction	-7958
oliques	-7959
▁Photos	-7960
▁beurre	-7961
▁bijoux	-7962
▁champs	-7963
▁essais	-7964
▁examen	-7965
▁fortes	-7966
▁laiton	-7967
▁récomp	-7968
onomique	-7969
▁Culture	-7970
▁Royaume	-7971
▁chômage	-7972
▁connait	-7973
exception	-7974
épendance	-7975
équilibre	-7976
▁retrouvé	-7977
▁gratuites	-7978
▁quatrième	-7979
▁relatives	-7980
▁correctement	-7981
▁traditionnel	-7982
jà	-7983
The	-7984
aha	-7985
fre	-7986
hib	-7987
nac	-7988
rac	-7989
umi	-7990
▁!)	-7991
▁06	-7992
▁57	-7993
opér	-7994
ordi	-7995
tian	-7996
▁CON	-7997
▁Sar	-7998
▁Sou	-7999
▁fir	-8000
▁fum	-8001
▁ner	-8002
ource	-8003
▁bite	-8004
illeur	-8005
impact	-8006
écrire	-8007
▁longs	-8008
▁pause	-8009
▁sympt	-8010
asbourg	-8011
avaient	-8012
chestre	-8013
▁Joseph	-8014
▁desser	-8015
▁froide	-8016
▁Univers	-8017
▁dépasse	-8018
▁peuples	-8019
▁accepter	-8020
▁doctrine	-8021
▁humaines	-8022
eloppement	-8023
▁prestation	-8024
▁enseignants	-8025
apprentissage	-8026
CS	-8027
IB	-8028
MC	-8029
rs	-8030
ARD	-8031
OUS	-8032
ady	-8033
euf	-8034
!!!!	-8035
rame	-8036
▁Mex	-8037
▁biz	-8038
▁eut	-8039
▁gre	-8040
accro	-8041
agram	-8042
▁Appr	-8043
▁Sark	-8044
▁déri	-8045
▁refr	-8046
engage	-8047
liquez	-8048
▁Appar	-8049
▁press	-8050
▁sacri	-8051
▁scand	-8052
viendra	-8053
▁acteur	-8054
▁aiment	-8055
▁chatte	-8056
▁Histoire	-8057
enregistre	-8058
▁impression	-8059
▁souhaitent	-8060
▁étrangères	-8061
alimentation	-8062
amélioration	-8063
▁indépendant	-8064
▁comptabilité	-8065
▁intéressante	-8066
▁transmission	-8067
▁éventuellement	-8068
%.	-8069
At	-8070
agi	-8071
demn	-8072
enis	-8073
http	-8074
ical	-8075
info	-8076
ître	-8077
▁Cin	-8078
▁Ven	-8079
▁étr	-8080
▁cong	-8081
▁dict	-8082
▁myst	-8083
arrête	-8084
iosité	-8085
observ	-8086
▁2010,	-8087
▁fallu	-8088
▁jeter	-8089
▁louer	-8090
▁quels	-8091
▁tiens	-8092
adapter	-8093
▁arbres	-8094
▁baiser	-8095
▁lutter	-8096
▁palais	-8097
▁protoc	-8098
fonction	-8099
▁content	-8100
▁sommeil	-8101
▁théorie	-8102
améliorer	-8103
▁comparer	-8104
▁confirme	-8105
▁dommages	-8106
▁jugement	-8107
▁vocation	-8108
▁organisée	-8109
▁populaires	-8110
▁connaissent	-8111
▁déplacement	-8112
▁instruments	-8113
investissement	-8114
▁collectivités	-8115
CF	-8116
El	-8117
ла	-8118
но	-8119
▁к	-8120
▁↑	-8121
ago	-8122
eto	-8123
osé	-8124
▁65	-8125
arry	-8126
rans	-8127
▁EUR	-8128
▁dim	-8129
▁rup	-8130
▁tut	-8131
▁vib	-8132
nelle	-8133
▁Coll	-8134
▁aigu	-8135
▁ence	-8136
▁frig	-8137
▁gars	-8138
aisons	-8139
▁carré	-8140
▁codes	-8141
▁colon	-8142
▁êtres	-8143
étiques	-8144
▁Lorsqu	-8145
▁commis	-8146
▁pousse	-8147
▁prévue	-8148
▁réclam	-8149
▁studio	-8150
ainement	-8151
▁Couleur	-8152
▁détente	-8153
▁massage	-8154
▁portent	-8155
▁terminé	-8156
▁traiter	-8157
▁échange	-8158
▁maintien	-8159
▁trouvait	-8160
▁voudrais	-8161
ganisation	-8162
▁anciennes	-8163
▁compliqué	-8164
▁constitué	-8165
▁constituent	-8166
▁coordonnées	-8167
▁consommateurs	-8168
',	-8169
DC	-8170
ey	-8171
ft	-8172
ny	-8173
ро	-8174
cam	-8175
eut	-8176
lut	-8177
unt	-8178
▁4,	-8179
▁56	-8180
ject	-8181
mber	-8182
▁Cab	-8183
▁Enf	-8184
▁alg	-8185
▁sab	-8186
apper	-8187
aquet	-8188
iment	-8189
irurg	-8190
oppos	-8191
▁Comb	-8192
▁Quoi	-8193
▁gang	-8194
▁mons	-8195
hommes	-8196
oeuvre	-8197
▁Rouge	-8198
▁décri	-8199
▁dépar	-8200
▁recev	-8201
▁reine	-8202
▁éclat	-8203
▁élève	-8204
cessite	-8205
housias	-8206
ruption	-8207
▁Genève	-8208
▁George	-8209
▁Portug	-8210
▁active	-8211
▁annuel	-8212
▁essayé	-8213
▁motifs	-8214
▁revoir	-8215
▁sculpt	-8216
▁suisse	-8217
approche	-8218
intellig	-8219
▁Château	-8220
▁donnera	-8221
▁pierres	-8222
▁secours	-8223
▁familial	-8224
▁modernes	-8225
▁renforce	-8226
▁tribunal	-8227
▁parallèle	-8228
▁policiers	-8229
▁trimestre	-8230
▁incroyable	-8231
▁ingrédients	-8232
▁producteurs	-8233
▁officiellement	-8234
▁Malheureusement	-8235
▁représentations	-8236
De	-8237
VA	-8238
та	-8239
veu	-8240
▁(0	-8241
▁52	-8242
▁Ib	-8243
▁fe	-8244
elly	-8245
▁Met	-8246
▁rét	-8247
actif	-8248
ribue	-8249
table	-8250
▁Nice	-8251
▁hall	-8252
▁lits	-8253
▁prit	-8254
▁vive	-8255
crimin	-8256
eneurs	-8257
▁Cours	-8258
▁Willi	-8259
▁carre	-8260
▁dette	-8261
▁dites	-8262
arrêter	-8263
atelier	-8264
▁paraît	-8265
▁scènes	-8266
▁sortes	-8267
▁tendre	-8268
▁terres	-8269
▁associé	-8270
▁confond	-8271
▁rejoint	-8272
▁évident	-8273
▁ouvrages	-8274
▁dangereux	-8275
▁juridique	-8276
▁discussions	-8277
</	-8278
ao	-8279
TER	-8280
nam	-8281
quo	-8282
▁BD	-8283
▁dî	-8284
arts	-8285
lera	-8286
▁Lég	-8287
▁den	-8288
chées	-8289
ispon	-8290
▁Brun	-8291
▁bron	-8292
▁drap	-8293
▁dégr	-8294
▁lave	-8295
▁porn	-8296
▁péné	-8297
▁supr	-8298
▁sure	-8299
archie	-8300
▁2015.	-8301
▁Musée	-8302
▁agent	-8303
▁copie	-8304
▁déten	-8305
▁robot	-8306
▁subli	-8307
▁assist	-8308
▁matchs	-8309
▁oublié	-8310
▁Article	-8311
▁apprend	-8312
▁députés	-8313
▁poisson	-8314
▁répondu	-8315
▁étrange	-8316
Assemblée	-8317
aboration	-8318
▁facebook	-8319
▁paraître	-8320
▁ressembl	-8321
▁réserver	-8322
▁mécanique	-8323
▁physiques	-8324
▁réfléchir	-8325
▁représentent	-8326
▁internationaux	-8327
▁traditionnelle	-8328
▁investissements	-8329
FF	-8330
ifi	-8331
ozy	-8332
opie	-8333
vies	-8334
▁Att	-8335
▁Ham	-8336
▁Let	-8337
▁You	-8338
▁bis	-8339
▁har	-8340
erait	-8341
riger	-8342
tille	-8343
▁ikea	-8344
▁intr	-8345
entend	-8346
▁Angel	-8347
▁coach	-8348
▁human	-8349
▁récep	-8350
épreuve	-8351
▁Claude	-8352
▁Comité	-8353
▁Hondur	-8354
▁canton	-8355
▁cercle	-8356
▁décret	-8357
▁impact	-8358
▁report	-8359
▁réchau	-8360
▁trente	-8361
▁viande	-8362
▁camping	-8363
▁disparu	-8364
▁intense	-8365
▁million	-8366
▁mystéri	-8367
▁tournée	-8368
▁variété	-8369
▁agricole	-8370
▁confirmé	-8371
▁contacts	-8372
▁facteurs	-8373
▁économie	-8374
▁comprends	-8375
▁lentement	-8376
▁régionale	-8377
▁satellite	-8378
▁personnels	-8379
▁recommande	-8380
▁professeurs	-8381
▁statistiques	-8382
▁remboursement	-8383
▁fonctionnalités	-8384
31	-8385
86	-8386
MO	-8387
ANS	-8388
ize	-8389
oga	-8390
▁ol	-8391
atar	-8392
itch	-8393
téph	-8394
▁Dub	-8395
▁Hab	-8396
▁Mic	-8397
▁Moh	-8398
▁aid	-8399
▁rot	-8400
▁spl	-8401
ignan	-8402
isant	-8403
issue	-8404
orent	-8405
égard	-8406
▁flux	-8407
▁poit	-8408
assade	-8409
issage	-8410
luence	-8411
▁coiff	-8412
▁foule	-8413
▁grève	-8414
▁tenté	-8415
atrices	-8416
▁filtre	-8417
▁imprim	-8418
▁plonge	-8419
▁rempli	-8420
ellation	-8421
▁Vincent	-8422
▁appelée	-8423
▁cerveau	-8424
▁externe	-8425
▁leaders	-8426
▁légumes	-8427
animation	-8428
▁contente	-8429
▁courrier	-8430
▁médecine	-8431
▁organise	-8432
▁précieux	-8433
▁rarement	-8434
▁dépannage	-8435
▁nécessite	-8436
▁parlement	-8437
▁Washington	-8438
▁accompagne	-8439
▁démocratie	-8440
▁spécialisé	-8441
▁commerciaux	-8442
▁normalement	-8443
▁satisfaction	-8444
▁programmation	-8445
4)	-8446
7)	-8447
ED	-8448
Qu	-8449
TA	-8450
▁о	-8451
los	-8452
und	-8453
▁49	-8454
▁Li	-8455
▁Où	-8456
/200	-8457
ctes	-8458
père	-8459
riel	-8460
▁May	-8461
▁sév	-8462
▁tol	-8463
affir	-8464
aquer	-8465
encer	-8466
onnée	-8467
▁Angl	-8468
▁Gare	-8469
▁dési	-8470
▁loup	-8471
▁math	-8472
itaine	-8473
▁caval	-8474
▁forts	-8475
▁radic	-8476
▁soyez	-8477
terieur	-8478
utilise	-8479
▁espèce	-8480
▁invent	-8481
▁pilote	-8482
........	-8483
Histoire	-8484
ulations	-8485
▁Valence	-8486
▁accepté	-8487
▁dessins	-8488
▁italien	-8489
▁musical	-8490
▁ouverts	-8491
▁quelles	-8492
▁Hollande	-8493
▁Honduras	-8494
▁occident	-8495
▁tourisme	-8496
▁commerces	-8497
▁confirmer	-8498
▁constater	-8499
▁critiques	-8500
▁pouvaient	-8501
▁prochains	-8502
électricité	-8503
▁présentant	-8504
▁systématique	-8505
▁sélectionner	-8506
ît	-8507
jon	-8508
rop	-8509
émo	-8510
éon	-8511
lons	-8512
▁800	-8513
▁Déb	-8514
▁Gau	-8515
▁Imm	-8516
▁Net	-8517
▁Not	-8518
▁aqu	-8519
▁épr	-8520
geois	-8521
èques	-8522
étudi	-8523
▁Mode	-8524
▁golf	-8525
▁sûre	-8526
ologne	-8527
orizon	-8528
▁Guill	-8529
▁Spéci	-8530
▁analy	-8531
▁encad	-8532
▁Rennes	-8533
▁boulot	-8534
▁crimes	-8535
▁phrase	-8536
▁rentre	-8537
▁bureaux	-8538
▁réservé	-8539
installer	-8540
▁diamètre	-8541
▁individu	-8542
▁versions	-8543
innovation	-8544
▁continent	-8545
▁Strasbourg	-8546
▁importance	-8547
▁Montpellier	-8548
▁progressivement	-8549
aby	-8550
agu	-8551
eme	-8552
ere	-8553
noc	-8554
ted	-8555
▁Ri	-8556
Pour	-8557
agré	-8558
anou	-8559
olid	-8560
outs	-8561
rale	-8562
tige	-8563
ueux	-8564
▁192	-8565
▁Fig	-8566
▁ben	-8567
▁dys	-8568
acute	-8569
appui	-8570
isode	-8571
ueuse	-8572
▁Coup	-8573
▁Stre	-8574
▁Vide	-8575
▁cart	-8576
▁cool	-8577
onnier	-8578
▁Loire	-8579
▁Moyen	-8580
▁adore	-8581
▁hauts	-8582
▁infos	-8583
▁poche	-8584
▁repar	-8585
▁serai	-8586
▁stric	-8587
occuper	-8588
▁achats	-8589
▁acquis	-8590
▁applic	-8591
▁casser	-8592
▁couper	-8593
▁formid	-8594
▁meetic	-8595
▁mourir	-8596
▁privés	-8597
▁sexuel	-8598
▁simpli	-8599
autorité	-8600
▁manquer	-8601
▁équilib	-8602
▁artisans	-8603
▁positive	-8604
efficacité	-8605
équipement	-8606
▁chaudière	-8607
▁dimension	-8608
▁automobile	-8609
▁dimensions	-8610
▁frontières	-8611
entrepreneur	-8612
▁magnifiques	-8613
9)	-8614
CL	-8615
PI	-8616
ato	-8617
eld	-8618
▁01	-8619
fran	-8620
orel	-8621
zumi	-8622
çade	-8623
ôtre	-8624
▁187	-8625
▁One	-8626
▁Vér	-8627
▁rur	-8628
atine	-8629
relle	-8630
▁(201	-8631
▁Prop	-8632
▁Supp	-8633
▁voud	-8634
▁Livre	-8635
▁Outre	-8636
▁degré	-8637
▁dirig	-8638
▁glace	-8639
aisseur	-8640
issante	-8641
ographe	-8642
▁ferait	-8643
▁utiles	-8644
▁éloign	-8645
▁curieux	-8646
▁globale	-8647
▁procure	-8648
▁publiée	-8649
▁tension	-8650
▁toiture	-8651
▁tournoi	-8652
▁heureuse	-8653
▁lumineux	-8654
▁naturels	-8655
▁proposant	-8656
▁considérer	-8657
▁choisissant	-8658
▁présidentielle	-8659
▁internationales	-8660
:5	-8661
HE	-8662
ank	-8663
mal	-8664
▁--	-8665
▁CL	-8666
ibre	-8667
ommé	-8668
▁Mau	-8669
▁mol	-8670
...),	-8671
Ouest	-8672
astre	-8673
lière	-8674
ressé	-8675
▁Mark	-8676
▁hard	-8677
▁monn	-8678
aisser	-8679
▁Aucun	-8680
▁congr	-8681
▁croit	-8682
▁digne	-8683
▁venez	-8684
▁voies	-8685
visible	-8686
égalité	-8687
▁Madame	-8688
▁Nature	-8689
▁expert	-8690
▁posses	-8691
▁prenez	-8692
▁tennis	-8693
▁Olivier	-8694
▁attendu	-8695
▁billets	-8696
▁maîtres	-8697
▁perturb	-8698
▁suivent	-8699
▁voisins	-8700
organisme	-8701
othérapie	-8702
▁chantier	-8703
▁cultures	-8704
▁destinés	-8705
▁origines	-8706
▁pauvreté	-8707
▁regroupe	-8708
▁remercie	-8709
▁cassation	-8710
▁commander	-8711
▁concassage	-8712
▁difficiles	-8713
▁paramètres	-8714
▁franchement	-8715
▁répartition	-8716
▁transmettre	-8717
ITE	-8718
ado	-8719
axe	-8720
eum	-8721
rap	-8722
▁ON	-8723
harm	-8724
orce	-8725
orld	-8726
uyez	-8727
▁Dém	-8728
▁Jon	-8729
▁Lui	-8730
▁Mun	-8731
▁Pin	-8732
▁QUE	-8733
▁Tom	-8734
▁USA	-8735
▁Vir	-8736
▁asi	-8737
▁caus	-8738
▁dame	-8739
▁trom	-8740
Italie	-8741
assent	-8742
istère	-8743
▁Green	-8744
▁Rouen	-8745
▁Sujet	-8746
▁incap	-8747
rédéric	-8748
▁assuré	-8749
▁iPhone	-8750
▁majeur	-8751
▁Sarkozy	-8752
▁comprom	-8753
▁immobil	-8754
▁limiter	-8755
▁rupture	-8756
▁garantir	-8757
▁identité	-8758
initiative	-8759
▁influence	-8760
▁préalable	-8761
▁progresser	-8762
▁réputation	-8763
44	-8764
8)	-8765
Cl	-8766
ho	-8767
ml	-8768
▁😉	-8769
30,	-8770
den	-8771
ico	-8772
non	-8773
obi	-8774
sol	-8775
ére	-8776
▁ro	-8777
agra	-8778
amin	-8779
hydr	-8780
▁Ind	-8781
▁lav	-8782
▁nov	-8783
abeth	-8784
opath	-8785
rigue	-8786
▁Lien	-8787
▁Temp	-8788
▁honn	-8789
▁lamb	-8790
▁pist	-8791
▁rétr	-8792
▁star	-8793
▁tric	-8794
onnais	-8795
reuves	-8796
▁Patri	-8797
▁bulle	-8798
▁honte	-8799
▁moral	-8800
▁pesti	-8801
▁piano	-8802
▁sauve	-8803
▁verra	-8804
igrants	-8805
▁Durant	-8806
▁claire	-8807
▁dormir	-8808
▁farine	-8809
▁styles	-8810
▁ventre	-8811
▁branche	-8812
▁catastr	-8813
▁ennemis	-8814
▁prévoit	-8815
▁récente	-8816
▁termine	-8817
▁Festival	-8818
▁arrivent	-8819
▁ceinture	-8820
▁sportifs	-8821
▁Nationale	-8822
▁appliquer	-8823
▁générales	-8824
▁organiser	-8825
▁discipline	-8826
▁esthétique	-8827
▁smartphone	-8828
▁transition	-8829
▁évènements	-8830
▁recrutement	-8831
▁territoires	-8832
▁exceptionnel	-8833
▁modification	-8834
▁intellectuelle	-8835
32	-8836
rè	-8837
zi	-8838
/09	-8839
ASS	-8840
Aut	-8841
adé	-8842
éle	-8843
▁Fi	-8844
▁Sé	-8845
inci	-8846
mann	-8847
oker	-8848
tail	-8849
▁Rev	-8850
▁fri	-8851
▁mit	-8852
▁naz	-8853
▁sin	-8854
▁tac	-8855
andie	-8856
arque	-8857
eront	-8858
itage	-8859
itons	-8860
nière	-8861
oints	-8862
oyers	-8863
▁Rest	-8864
▁basé	-8865
▁gras	-8866
▁régl	-8867
agiste	-8868
ernant	-8869
▁boire	-8870
▁cuire	-8871
▁frite	-8872
▁meurt	-8873
▁quart	-8874
▁vendu	-8875
▁étern	-8876
individ	-8877
jection	-8878
▁métrop	-8879
▁panier	-8880
▁quitte	-8881
▁souple	-8882
▁déclare	-8883
▁erreurs	-8884
▁intégré	-8885
▁passent	-8886
▁traduit	-8887
▁épreuve	-8888
▁blanches	-8889
▁empêcher	-8890
▁nationaux	-8891
▁randonnée	-8892
▁utilisent	-8893
▁diagnostic	-8894
▁nationales	-8895
▁permettront	-8896
▁bibliothèque	-8897
▁collaborateurs	-8898
▁extraordinaire	-8899
SC	-8900
su	-8901
App	-8902
cée	-8903
itz	-8904
uée	-8905
ués	-8906
▁).	-8907
acel	-8908
aver	-8909
▁Tre	-8910
compl	-8911
rices	-8912
tines	-8913
usine	-8914
▁Andr	-8915
▁Déjà	-8916
▁Pant	-8917
▁Rose	-8918
▁astu	-8919
▁cycl	-8920
▁gren	-8921
▁sain	-8922
▁tire	-8923
▁tome	-8924
active	-8925
ourner	-8926
oyeurs	-8927
riment	-8928
▁Radio	-8929
▁arbre	-8930
▁frigo	-8931
▁hiver	-8932
▁spati	-8933
▁tâche	-8934
▁Chaise	-8935
▁Double	-8936
▁Marcel	-8937
▁grains	-8938
▁mairie	-8939
▁moelle	-8940
▁trajet	-8941
▁venant	-8942
▁Surtout	-8943
▁connect	-8944
▁enfance	-8945
▁fidèles	-8946
▁marcher	-8947
▁trouvez	-8948
▁évoluer	-8949
▁Bretagne	-8950
▁effectué	-8951
▁préciser	-8952
▁amoureuse	-8953
▁bouteille	-8954
▁bénévoles	-8955
▁doucement	-8956
▁démarches	-8957
▁rédaction	-8958
▁serrurier	-8959
▁syndicats	-8960
▁touristes	-8961
▁propriétés	-8962
▁visibilité	-8963
entraînement	-8964
▁religieuses	-8965
▁spécialisée	-8966
▁traitements	-8967
▁alimentaires	-8968
▁traditionnels	-8969
▁complémentaire	-8970
▁GM	-8971
▁JE	-8972
erai	-8973
oiss	-8974
érez	-8975
▁(2)	-8976
▁160	-8977
▁189	-8978
▁Inc	-8979
▁Nom	-8980
▁Tél	-8981
▁tuy	-8982
venus	-8983
▁Real	-8984
▁buts	-8985
▁cock	-8986
▁liqu	-8987
▁liée	-8988
▁ludi	-8989
▁sons	-8990
▁traf	-8991
orable	-8992
▁Catég	-8993
▁Tunis	-8994
▁aimez	-8995
▁ampli	-8996
▁crist	-8997
▁fermé	-8998
▁vesti	-8999
▁vrais	-9000
▁Barcel	-9001
▁battre	-9002
▁détour	-9003
▁fausse	-9004
▁façons	-9005
▁légend	-9006
▁manche	-9007
▁traces	-9008
▁vertic	-9009
▁chirurg	-9010
▁saisons	-9011
▁constate	-9012
▁primaire	-9013
▁stockage	-9014
▁supports	-9015
atmosphère	-9016
▁Directeur	-9017
▁Française	-9018
▁fabriquer	-9019
▁quartiers	-9020
▁réalisées	-9021
ondissement	-9022
▁constituer	-9023
intelligence	-9024
▁comparaison	-9025
▁spécialisés	-9026
▁conversation	-9027
▁profondément	-9028
▁modifications	-9029
Se	-9030
ju	-9031
pa	-9032
ть	-9033
-19	-9034
233	-9035
qua	-9036
▁87	-9037
▁PA	-9038
▁ur	-9039
ason	-9040
hône	-9041
pers	-9042
sous	-9043
uité	-9044
uten	-9045
équi	-9046
▁(10	-9047
▁Dép	-9048
▁gel	-9049
▁you	-9050
ating	-9051
rante	-9052
▁Anim	-9053
▁Terr	-9054
▁chal	-9055
▁issu	-9056
▁poil	-9057
▁ride	-9058
aisses	-9059
examen	-9060
humour	-9061
oriser	-9062
quérir	-9063
▁Celle	-9064
▁Droit	-9065
▁admir	-9066
▁neutr	-9067
▁parcs	-9068
▁sauce	-9069
inscrit	-9070
ulteurs	-9071
▁Retour	-9072
▁Taille	-9073
▁actifs	-9074
▁adopté	-9075
▁graves	-9076
▁mature	-9077
▁record	-9078
▁routes	-9079
▁tissus	-9080
▁étions	-9081
empêcher	-9082
ustralie	-9083
▁Appuyez	-9084
▁adaptés	-9085
▁combatt	-9086
▁oiseaux	-9087
▁parlant	-9088
▁profils	-9089
▁prépare	-9090
▁rapides	-9091
▁vampire	-9092
▁vitrine	-9093
▁Portugal	-9094
▁dépasser	-9095
▁priorité	-9096
▁conseillé	-9097
▁remarquer	-9098
appartement	-9099
▁Communauté	-9100
▁satisfaire	-9101
▁simplicité	-9102
▁différences	-9103
▁industriels	-9104
▁réservation	-9105
▁augmentation	-9106
ko	-9107
AND	-9108
bou	-9109
cir	-9110
rov	-9111
tré	-9112
▁(6	-9113
▁FA	-9114
▁my	-9115
atch	-9116
ouvé	-9117
rure	-9118
▁191	-9119
▁Sil	-9120
essai	-9121
idées	-9122
illée	-9123
tesse	-9124
▁Sind	-9125
▁best	-9126
Orient	-9127
angent	-9128
▁2011,	-9129
▁2013.	-9130
▁Envir	-9131
▁Stéph	-9132
▁Vente	-9133
▁belge	-9134
▁camar	-9135
▁crime	-9136
▁huile	-9137
▁héber	-9138
▁lourd	-9139
▁noirs	-9140
▁provo	-9141
enfance	-9142
ovation	-9143
▁hautes	-9144
▁hôtels	-9145
▁mousse	-9146
▁répéti	-9147
▁traits	-9148
▁Gestion	-9149
▁Michael	-9150
▁galerie	-9151
▁limitée	-9152
▁manches	-9153
▁obtient	-9154
▁royaume	-9155
apprendre	-9156
essentiel	-9157
▁exercice	-9158
▁facilité	-9159
▁friteuse	-9160
▁immobili	-9161
▁Challenge	-9162
▁Formation	-9163
▁aventures	-9164
▁considère	-9165
▁provenant	-9166
▁remercier	-9167
▁émissions	-9168
▁convention	-9169
▁pesticides	-9170
▁secondaire	-9171
▁candidature	-9172
▁internautes	-9173
▁stratégique	-9174
▁déplacements	-9175
accompagnement	-9176
Si	-9177
ii	-9178
OIS	-9179
aro	-9180
doc	-9181
ian	-9182
jac	-9183
pri	-9184
vet	-9185
yss	-9186
éni	-9187
▁6,	-9188
▁Ay	-9189
▁Eh	-9190
▁Id	-9191
)...	-9192
ENCE	-9193
Paul	-9194
glom	-9195
ione	-9196
olet	-9197
ties	-9198
▁Dan	-9199
▁Los	-9200
▁boî	-9201
▁gir	-9202
appuy	-9203
garde	-9204
itifs	-9205
ureau	-9206
▁Fire	-9207
▁Gren	-9208
▁gain	-9209
▁inox	-9210
▁lanc	-9211
▁posé	-9212
▁quan	-9213
agerie	-9214
ailler	-9215
améric	-9216
teries	-9217
▁Henri	-9218
▁Hotel	-9219
▁James	-9220
▁Jusqu	-9221
▁chats	-9222
▁infin	-9223
▁olymp	-9224
▁recul	-9225
envoyer	-9226
ivement	-9227
écurité	-9228
▁Vendre	-9229
▁couvre	-9230
▁francs	-9231
▁inscri	-9232
▁masque	-9233
▁repris	-9234
▁vieill	-9235
atherine	-9236
mblement	-9237
▁appeler	-9238
▁bonjour	-9239
▁congrès	-9240
▁diplôme	-9241
▁morceau	-9242
▁médical	-9243
▁oeuvres	-9244
▁équival	-9245
▁établir	-9246
▁cliquant	-9247
▁expliqué	-9248
▁inscrits	-9249
▁magazine	-9250
Angleterre	-9251
▁Barcelone	-9252
▁Guillaume	-9253
▁bancaires	-9254
▁pharmacie	-9255
▁positions	-9256
▁proposées	-9257
aménagement	-9258
entreprises	-9259
▁apparaître	-9260
▁extérieure	-9261
▁précédente	-9262
▁précédents	-9263
▁religieuse	-9264
▁merveilleux	-9265
▁perspective	-9266
PA	-9267
Bas	-9268
tex	-9269
▁85	-9270
chou	-9271
dont	-9272
enci	-9273
hist	-9274
orée	-9275
prod	-9276
▁700	-9277
▁Lux	-9278
▁Meu	-9279
▁XIX	-9280
▁ais	-9281
▁out	-9282
▁sér	-9283
▁évo	-9284
ingén	-9285
▁aver	-9286
▁dign	-9287
actifs	-9288
amique	-9289
images	-9290
▁Salut	-9291
▁arabe	-9292
▁balle	-9293
▁casse	-9294
▁chère	-9295
▁câble	-9296
▁roues	-9297
▁sèche	-9298
attente	-9299
tration	-9300
▁Brésil	-9301
▁Résult	-9302
▁ponctu	-9303
▁vierge	-9304
▁voient	-9305
érations	-9306
▁encastr	-9307
▁moteurs	-9308
▁peintre	-9309
▁preuves	-9310
▁prétend	-9311
▁secrets	-9312
▁poissons	-9313
▁réalisés	-9314
▁souligne	-9315
▁épreuves	-9316
▁connecter	-9317
▁curiosité	-9318
▁montagnes	-9319
▁tendances	-9320
▁vingtaine	-9321
inspiration	-9322
▁médicament	-9323
▁procédures	-9324
▁solidarité	-9325
▁technicien	-9326
▁dysfonction	-9327
▁financières	-9328
▁documentaire	-9329
▁définitivement	-9330
-5	-9331
St	-9332
ли	-9333
15.	-9334
And	-9335
aco	-9336
lis	-9337
ops	-9338
▁47	-9339
▁CC	-9340
▁Hy	-9341
▁PV	-9342
acée	-9343
cade	-9344
erte	-9345
ffer	-9346
oria	-9347
sign	-9348
èler	-9349
èvre	-9350
▁Dét	-9351
▁Jou	-9352
▁ado	-9353
▁cle	-9354
▁cui	-9355
▁dec	-9356
endie	-9357
▁(200	-9358
▁Trib	-9359
▁clin	-9360
▁dram	-9361
▁pare	-9362
issons	-9363
lation	-9364
naires	-9365
offrir	-9366
ouille	-9367
▁incon	-9368
▁sangu	-9369
automne	-9370
olation	-9371
▁bandes	-9372
▁blonde	-9373
▁causes	-9374
▁prince	-9375
▁écrits	-9376
entendre	-9377
lantique	-9378
▁Sindona	-9379
▁arrêter	-9380
▁couvrir	-9381
▁directe	-9382
▁faisons	-9383
▁milieux	-9384
▁contradi	-9385
▁devaient	-9386
▁environs	-9387
▁utilisez	-9388
▁discrimin	-9389
▁satisfait	-9390
▁thermique	-9391
▁étrangère	-9392
orientation	-9393
▁confidenti	-9394
▁connaissez	-9395
▁convaincre	-9396
▁domination	-9397
▁recherchez	-9398
indépendance	-9399
▁progression	-9400
▁électriques	-9401
▁personnalisé	-9402
▁reproduction	-9403
▁habituellement	-9404
▁complémentaires	-9405
''	-9406
DA	-9407
bo	-9408
uz	-9409
▁©	-9410
ava	-9411
vin	-9412
▁Ep	-9413
Fran	-9414
adel	-9415
ally	-9416
pire	-9417
ttes	-9418
ègre	-9419
▁Déf	-9420
▁Fam	-9421
▁Pic	-9422
▁Tdh	-9423
▁riz	-9424
▁tox	-9425
▁vap	-9426
Saint	-9427
oblig	-9428
vitra	-9429
▁clôt	-9430
▁ratt	-9431
▁vues	-9432
estres	-9433
▁stars	-9434
▁tatou	-9435
▁vertu	-9436
oubliez	-9437
▁Nombre	-9438
▁Pascal	-9439
▁cacher	-9440
▁caméra	-9441
▁chiens	-9442
▁coloni	-9443
▁conclu	-9444
▁courts	-9445
▁dégust	-9446
▁poésie	-9447
▁répand	-9448
▁suppos	-9449
encontre	-9450
▁Congrès	-9451
▁Turquie	-9452
▁chemins	-9453
▁combats	-9454
▁normale	-9455
▁offrons	-9456
▁positif	-9457
▁restait	-9458
▁vintage	-9459
▁écouter	-9460
▁étudier	-9461
▁Frédéric	-9462
▁Provence	-9463
▁concerts	-9464
▁opportun	-9465
▁oreilles	-9466
▁troubles	-9467
▁Certaines	-9468
▁efficaces	-9469
▁habitudes	-9470
▁Christophe	-9471
▁certificat	-9472
▁initiative	-9473
▁écologique	-9474
▁générations	-9475
▁historiques	-9476
▁sensibilité	-9477
-8	-9478
box	-9479
mod	-9480
web	-9481
êle	-9482
▁46	-9483
▁VI	-9484
acés	-9485
lymp	-9486
olue	-9487
wood	-9488
▁Exc	-9489
▁Gér	-9490
▁Log	-9491
▁ber	-9492
▁tom	-9493
ander	-9494
icale	-9495
▁Fant	-9496
▁guid	-9497
▁hiér	-9498
▁inéd	-9499
▁mait	-9500
▁plur	-9501
ignons	-9502
quants	-9503
émique	-9504
▁basée	-9505
▁décro	-9506
▁fidél	-9507
▁fonde	-9508
▁guère	-9509
▁inclu	-9510
▁monté	-9511
▁norme	-9512
▁silen	-9513
▁subir	-9514
ouvrage	-9515
érieurs	-9516
▁Autant	-9517
▁Certes	-9518
▁Claire	-9519
▁Dispon	-9520
▁comédi	-9521
▁morale	-9522
▁triste	-9523
▁écrite	-9524
ématique	-9525
▁Patrick	-9526
▁compose	-9527
▁dizaine	-9528
▁finance	-9529
▁pensent	-9530
▁restant	-9531
▁superfi	-9532
▁surpris	-9533
▁Services	-9534
▁particul	-9535
▁poitrine	-9536
▁procéder	-9537
▁terminer	-9538
▁Bienvenue	-9539
▁Fondation	-9540
▁boutiques	-9541
▁catalogue	-9542
▁connaitre	-9543
▁fondateur	-9544
▁streaming	-9545
▁Angleterre	-9546
▁Concernant	-9547
▁animations	-9548
▁producteur	-9549
▁traditions	-9550
▁fantastique	-9551
▁conformément	-9552
▁contribution	-9553
Op	-9554
&#;	-9555
olo	-9556
uzz	-9557
▁08	-9558
▁OK	-9559
▁sk	-9560
▁wh	-9561
aven	-9562
imes	-9563
ison	-9564
lame	-9565
lées	-9566
ness	-9567
▁180	-9568
▁Bah	-9569
▁Bus	-9570
▁Coc	-9571
▁Cro	-9572
▁Div	-9573
▁Hum	-9574
▁Tex	-9575
▁chi	-9576
▁cum	-9577
▁déd	-9578
▁gla	-9579
▁mos	-9580
▁pav	-9581
amedi	-9582
avoue	-9583
açant	-9584
chait	-9585
▁Auto	-9586
▁Cond	-9587
▁Côte	-9588
▁couv	-9589
▁foul	-9590
▁gueu	-9591
▁hein	-9592
▁pack	-9593
▁prud	-9594
associ	-9595
assure	-9596
ulsion	-9597
▁admis	-9598
▁avais	-9599
▁bébés	-9600
▁essai	-9601
▁folie	-9602
▁usine	-9603
▁aperçu	-9604
▁posséd	-9605
▁quitté	-9606
▁savais	-9607
▁troupe	-9608
abilités	-9609
exprimer	-9610
▁couples	-9611
▁employé	-9612
▁guitare	-9613
▁joindre	-9614
▁largeur	-9615
▁pilotes	-9616
▁publier	-9617
▁retenir	-9618
▁sembler	-9619
▁talents	-9620
▁assister	-9621
▁augmenté	-9622
▁autonome	-9623
▁entraîne	-9624
troduction	-9625
▁Parlement	-9626
▁garanties	-9627
▁ministres	-9628
▁nucléaire	-9629
▁permanent	-9630
▁choisissez	-9631
▁maquillage	-9632
▁nouveautés	-9633
▁présentent	-9634
▁retrouvent	-9635
▁séparation	-9636
▁touristique	-9637
▁interventions	-9638
uh	-9639
ilé	-9640
owe	-9641
tip	-9642
▁95	-9643
▁CG	-9644
▁ME	-9645
alli	-9646
rise	-9647
élas	-9648
▁Cre	-9649
▁Loc	-9650
▁Lou	-9651
▁enn	-9652
▁pun	-9653
ement	-9654
islam	-9655
outez	-9656
oyant	-9657
rions	-9658
▁Bleu	-9659
▁Sign	-9660
▁Syst	-9661
▁addi	-9662
▁mill	-9663
▁mène	-9664
▁noix	-9665
▁solo	-9666
▁traî	-9667
alcool	-9668
jeuner	-9669
tisser	-9670
▁2009,	-9671
▁Centr	-9672
▁Charl	-9673
▁Place	-9674
▁Stock	-9675
▁avanc	-9676
▁bleue	-9677
▁domes	-9678
▁drôle	-9679
▁nuits	-9680
▁règne	-9681
▁Auteur	-9682
▁accoud	-9683
▁cadres	-9684
▁fidèle	-9685
▁massif	-9686
▁promis	-9687
▁trafic	-9688
iblement	-9689
ventions	-9690
▁attente	-9691
▁mobiles	-9692
▁privées	-9693
▁soutenu	-9694
▁spectac	-9695
▁valable	-9696
expertise	-9697
▁division	-9698
▁finances	-9699
▁généraux	-9700
▁remarqué	-9701
▁totalité	-9702
▁étudiant	-9703
▁expertise	-9704
▁favorable	-9705
▁rapproche	-9706
▁similaire	-9707
acquisition	-9708
élaboration	-9709
▁féministes	-9710
▁témoignage	-9711
▁pédagogique	-9712
▁Heureusement	-9713
▁investissement	-9714
.0	-9715
00,	-9716
Off	-9717
bus	-9718
cts	-9719
lor	-9720
una	-9721
uns	-9722
▁CF	-9723
▁Sl	-9724
▁ly	-9725
illy	-9726
ning	-9727
romp	-9728
trui	-9729
▁Cur	-9730
inant	-9731
iseur	-9732
isses	-9733
▁Boul	-9734
▁Rock	-9735
▁bric	-9736
▁bête	-9737
▁perp	-9738
▁show	-9739
▁séqu	-9740
▁éché	-9741
oussin	-9742
reuses	-9743
▁2007,	-9744
▁Syrie	-9745
▁aient	-9746
▁autor	-9747
▁défis	-9748
▁marge	-9749
▁plume	-9750
assembl	-9751
cesseur	-9752
lermont	-9753
onniers	-9754
titudes	-9755
▁débuts	-9756
▁façade	-9757
▁forêts	-9758
▁obligé	-9759
▁poches	-9760
▁poster	-9761
▁précip	-9762
▁tables	-9763
▁voyant	-9764
▁Ajouter	-9765
▁Espagne	-9766
▁Piscine	-9767
▁Rapport	-9768
▁ressent	-9769
▁soirées	-9770
▁voulons	-9771
▁voyager	-9772
▁stations	-9773
▁étonnant	-9774
▁italienne	-9775
▁appartenant	-9776
▁pratiquement	-9777
▁températures	-9778
▁exclusivement	-9779
▁technologique	-9780
▁technologiques	-9781
78	-9782
▁Î	-9783
▁д	-9784
▁м	-9785
.).	-9786
ORT	-9787
URE	-9788
fox	-9789
sim	-9790
▁72	-9791
▁AD	-9792
enda	-9793
gers	-9794
oing	-9795
oler	-9796
omph	-9797
outh	-9798
▁Lor	-9799
▁Rio	-9800
▁Tap	-9801
▁cig	-9802
▁cog	-9803
▁sir	-9804
Homme	-9805
aband	-9806
autor	-9807
ulier	-9808
▁Four	-9809
▁Laur	-9810
▁Simp	-9811
▁ciné	-9812
▁flex	-9813
▁gend	-9814
▁mecs	-9815
▁mené	-9816
▁paru	-9817
▁requ	-9818
▁soul	-9819
▁tube	-9820
▁visu	-9821
formes	-9822
▁Grèce	-9823
▁Point	-9824
▁adhér	-9825
▁coque	-9826
▁escal	-9827
▁honor	-9828
▁jambe	-9829
▁phras	-9830
▁salut	-9831
▁trace	-9832
▁verts	-9833
▁épous	-9834
▁évalu	-9835
versité	-9836
▁cialis	-9837
▁drogue	-9838
▁envoie	-9839
▁ration	-9840
explique	-9841
▁Journal	-9842
▁boutons	-9843
▁désirez	-9844
▁pousser	-9845
▁procédé	-9846
▁Emmanuel	-9847
▁Longueur	-9848
▁conflits	-9849
▁ouvertes	-9850
▁synthèse	-9851
▁bénéficie	-9852
▁chronique	-9853
▁échantill	-9854
▁judiciaire	-9855
▁libération	-9856
▁sensations	-9857
▁Télécharger	-9858
▁accessibles	-9859
▁destruction	-9860
▁travaillent	-9861
▁concentration	-9862
▁recommandations	-9863
-10	-9864
ART	-9865
INT	-9866
aza	-9867
enz	-9868
▁43	-9869
▁54	-9870
▁CS	-9871
▁IV	-9872
▁it	-9873
▁rh	-9874
Jean	-9875
grés	-9876
guer	-9877
work	-9878
▁Ath	-9879
▁Cub	-9880
▁Mis	-9881
▁TVA	-9882
▁duo	-9883
etnam	-9884
▁City	-9885
▁Wall	-9886
▁brod	-9887
▁fixé	-9888
▁flor	-9889
▁herb	-9890
▁live	-9891
▁rede	-9892
▁sacs	-9893
▁Chois	-9894
▁chair	-9895
▁cotis	-9896
▁divin	-9897
landais	-9898
▁Samedi	-9899
▁courir	-9900
▁future	-9901
▁intime	-9902
▁évoque	-9903
▁Général	-9904
▁apporté	-9905
▁crédits	-9906
▁facture	-9907
▁fiscale	-9908
▁pouvais	-9909
▁restera	-9910
▁servent	-9911
▁Amérique	-9912
▁augmente	-9913
▁terrains	-9914
▁émission	-9915
▁fabricant	-9916
▁préserver	-9917
▁souplesse	-9918
▁supporter	-9919
▁tentative	-9920
▁conclusion	-9921
▁formidable	-9922
▁intervenir	-9923
▁fonctionner	-9924
▁mobilisation	-9925
▁Développement	-9926
!)	-9927
PP	-9928
UX	-9929
bar	-9930
ody	-9931
top	-9932
étr	-9933
▁58	-9934
▁Ki	-9935
▁Mr	-9936
▁Po	-9937
▁Rh	-9938
▁tw	-9939
aura	-9940
uche	-9941
èses	-9942
▁Idé	-9943
▁Nav	-9944
▁bet	-9945
▁ros	-9946
▁|--	-9947
avion	-9948
isées	-9949
paris	-9950
riere	-9951
▁Mand	-9952
▁Moul	-9953
▁Soph	-9954
▁Trop	-9955
▁ache	-9956
▁sage	-9957
aspect	-9958
atelas	-9959
effort	-9960
▁Suède	-9961
▁accél	-9962
▁cruci	-9963
▁envah	-9964
▁géant	-9965
▁pèler	-9966
▁sages	-9967
▁verte	-9968
inement	-9969
ouleurs	-9970
▁ciment	-9971
▁feront	-9972
▁module	-9973
▁ménage	-9974
▁tenant	-9975
▁ventil	-9976
▁vernis	-9977
agissait	-9978
lèvement	-9979
▁facteur	-9980
▁majeure	-9981
▁salarié	-9982
▁vendeur	-9983
activités	-9984
exécution	-9985
▁anglaise	-9986
▁attitude	-9987
▁chasseur	-9988
▁démonstr	-9989
▁gourmand	-9990
▁indiquer	-9991
▁sauvages	-9992
adaptation	-9993
▁nettement	-9994
▁territori	-9995
▁économies	-9996
▁appartient	-9997
architecture	-9998
tionnellement	-9999
▁commerciales	-10000
▁fournisseurs	-10001
▁heureusement	-10002
▁contemporaine	-10003
▁gouvernements	-10004
89	-10005
BC	-10006
BI	-10007
те	-10008
00.	-10009
Art	-10010
blé	-10011
fer	-10012
éan	-10013
▁Ry	-10014
▁Ul	-10015
ILLE	-10016
anna	-10017
ello	-10018
ford	-10019
rome	-10020
tain	-10021
▁bét	-10022
▁dil	-10023
▁fic	-10024
▁foc	-10025
▁jal	-10026
▁set	-10027
itres	-10028
ogène	-10029
▁Page	-10030
▁agit	-10031
▁cook	-10032
▁hâte	-10033
▁mout	-10034
commer	-10035
unique	-10036
▁Bibli	-10037
▁Juste	-10038
▁Situé	-10039
▁Sport	-10040
▁audio	-10041
▁foyer	-10042
▁incar	-10043
▁rémun	-10044
▁unité	-10045
feuille	-10046
oulière	-10047
▁Albert	-10048
▁Escort	-10049
▁Palais	-10050
▁Soleil	-10051
▁amende	-10052
▁grille	-10053
▁produc	-10054
▁romans	-10055
▁tonnes	-10056
▁Anglais	-10057
▁Mexique	-10058
▁attaque	-10059
▁choisie	-10060
▁docteur	-10061
▁déroule	-10062
▁mentale	-10063
▁relatif	-10064
▁texture	-10065
▁troupes	-10066
▁Afficher	-10067
▁conforme	-10068
▁imaginer	-10069
▁intégrer	-10070
▁montrent	-10071
▁musulman	-10072
▁patience	-10073
▁reconstr	-10074
▁remporté	-10075
▁républic	-10076
▁résister	-10077
▁sportive	-10078
▁allemande	-10079
▁contactez	-10080
▁fréquence	-10081
▁éclairage	-10082
▁équilibre	-10083
▁caractères	-10084
▁expression	-10085
▁permanente	-10086
▁préférence	-10087
▁quelconque	-10088
augmentation	-10089
▁authentique	-10090
▁contraintes	-10091
▁législation	-10092
▁Présentation	-10093
▁apparaissent	-10094
▁appartements	-10095
▁astrologique	-10096
▁Contrairement	-10097
▁comportements	-10098
47	-10099
OG	-10100
TV	-10101
UT	-10102
ре	-10103
fem	-10104
gas	-10105
nie	-10106
rah	-10107
vil	-10108
▁67	-10109
▁77	-10110
▁CM	-10111
auth	-10112
haus	-10113
heim	-10114
ling	-10115
lète	-10116
rave	-10117
tisé	-10118
èges	-10119
▁Gil	-10120
▁Jan	-10121
▁alé	-10122
▁asc	-10123
▁cac	-10124
▁eth	-10125
▁pul	-10126
▁spe	-10127
▁Blog	-10128
▁Eric	-10129
▁Hong	-10130
▁Indi	-10131
▁doul	-10132
▁faim	-10133
▁quad	-10134
▁taxe	-10135
▁épar	-10136
Agence	-10137
expéri	-10138
▁Conne	-10139
▁Liber	-10140
▁Mondi	-10141
▁Profi	-10142
▁centi	-10143
▁croix	-10144
▁fondé	-10145
▁illég	-10146
▁teint	-10147
▁testé	-10148
▁tombé	-10149
▁viend	-10150
Algérie	-10151
alestin	-10152
empêche	-10153
optimis	-10154
▁Casino	-10155
▁Chacun	-10156
▁Louvre	-10157
▁congel	-10158
▁célébr	-10159
▁découp	-10160
▁google	-10161
▁ordres	-10162
▁paquet	-10163
▁publie	-10164
▁seules	-10165
▁tempor	-10166
▁agressi	-10167
▁phrases	-10168
▁existent	-10169
▁panneaux	-10170
▁spéciaux	-10171
▁tableaux	-10172
▁vivement	-10173
apparition	-10174
▁Programme	-10175
▁aluminium	-10176
▁apprécier	-10177
▁chanteuse	-10178
▁locations	-10179
▁maîtriser	-10180
▁souverain	-10181
▁prévisions	-10182
▁stratégies	-10183
autorisation	-10184
▁commissaire	-10185
▁maintenance	-10186
▁photographe	-10187
▁correspondent	-10188
BA	-10189
Par	-10190
aus	-10191
oms	-10192
ova	-10193
roc	-10194
▁AL	-10195
▁Da	-10196
▁Ir	-10197
attr	-10198
hère	-10199
irer	-10200
▁DVD	-10201
▁Dur	-10202
▁Mel	-10203
▁Rue	-10204
▁TOU	-10205
▁crâ	-10206
▁hal	-10207
▁âgé	-10208
ailli	-10209
fiées	-10210
ortir	-10211
uleux	-10212
zaine	-10213
érées	-10214
étend	-10215
▁Disc	-10216
▁Roch	-10217
▁carn	-10218
▁news	-10219
▁Jacob	-10220
▁juger	-10221
▁laver	-10222
uctions	-10223
▁balcon	-10224
▁ballon	-10225
▁cougar	-10226
▁global	-10227
▁génial	-10228
▁jolies	-10229
▁rassur	-10230
▁réagir	-10231
▁résumé	-10232
▁tenait	-10233
▁unités	-10234
apporter	-10235
▁Acheter	-10236
▁adopter	-10237
▁cliquer	-10238
▁courtes	-10239
▁légende	-10240
▁uniques	-10241
▁urgence	-10242
▁Ministre	-10243
▁convainc	-10244
▁dentelle	-10245
▁délicate	-10246
▁féminine	-10247
▁pantalon	-10248
▁prévenir	-10249
▁thérapeu	-10250
▁transmis	-10251
tification	-10252
▁compagnon	-10253
▁complexes	-10254
▁intéresse	-10255
▁pollution	-10256
▁retrouvez	-10257
▁violences	-10258
▁enregistré	-10259
▁intervient	-10260
▁perception	-10261
▁remarquable	-10262
▁conservation	-10263
▁universitaire	-10264
42	-10265
го	-10266
▁♥	-10267
CES	-10268
ISE	-10269
had	-10270
irt	-10271
jeu	-10272
rem	-10273
uts	-10274
▁(9	-10275
▁03	-10276
▁05	-10277
▁98	-10278
▁;)	-10279
▁So	-10280
▁ov	-10281
play	-10282
tude	-10283
utée	-10284
▁Inf	-10285
▁vel	-10286
ageux	-10287
▁Band	-10288
▁Bert	-10289
▁Cent	-10290
▁Conn	-10291
▁Père	-10292
▁Vall	-10293
▁Vend	-10294
▁dite	-10295
▁doté	-10296
▁horm	-10297
▁lève	-10298
▁serv	-10299
▁vuln	-10300
quante	-10301
▁Brest	-10302
▁Liste	-10303
▁Soyez	-10304
▁colle	-10305
▁débit	-10306
▁figur	-10307
▁persu	-10308
▁pique	-10309
▁prime	-10310
▁vitre	-10311
extrême	-10312
inverse	-10313
opinion	-10314
établir	-10315
▁Contac	-10316
▁Réseau	-10317
▁canapé	-10318
▁coffre	-10319
▁dedans	-10320
▁discré	-10321
▁dégrad	-10322
▁larmes	-10323
▁suivie	-10324
▁église	-10325
commerce	-10326
▁Android	-10327
▁Nations	-10328
▁baisser	-10329
▁choisis	-10330
▁décider	-10331
▁définit	-10332
▁parlent	-10333
▁prévoir	-10334
▁rendant	-10335
▁salaires	-10336
▁concevoir	-10337
▁encourage	-10338
▁présentée	-10339
▁sexualité	-10340
▁toilettes	-10341
▁climatique	-10342
▁efficacité	-10343
▁essentiels	-10344
▁rechercher	-10345
▁souffrance	-10346
▁accompagnée	-10347
▁comprennent	-10348
▁culturelles	-10349
▁susceptible	-10350
▁démocratique	-10351
▁explications	-10352
▁touristiques	-10353
interprétation	-10354
▁interprétation	-10355
/2	-10356
43	-10357
PL	-10358
ль	-10359
▁{	-10360
aig	-10361
eli	-10362
hol	-10363
ito	-10364
las	-10365
yré	-10366
éna	-10367
▁//	-10368
▁::	-10369
▁AS	-10370
Vous	-10371
eler	-10372
euve	-10373
iler	-10374
illa	-10375
oxim	-10376
uiss	-10377
ulés	-10378
éman	-10379
▁110	-10380
▁Pen	-10381
▁bov	-10382
▁gym	-10383
▁lan	-10384
▁lou	-10385
▁soy	-10386
anais	-10387
avent	-10388
cesse	-10389
envoi	-10390
oxyde	-10391
queur	-10392
raham	-10393
çoise	-10394
▁Arri	-10395
▁Chau	-10396
▁Mach	-10397
▁Note	-10398
▁bamb	-10399
▁dégâ	-10400
▁perç	-10401
▁styl	-10402
oivent	-10403
orthod	-10404
▁adéqu	-10405
▁gastr	-10406
▁impér	-10407
▁parap	-10408
▁rôles	-10409
alogues	-10410
ophones	-10411
▁Ouvert	-10412
▁Vierge	-10413
▁appels	-10414
▁député	-10415
▁fermer	-10416
▁frappe	-10417
▁pattes	-10418
ducation	-10419
orations	-10420
▁Firefox	-10421
▁accepte	-10422
▁parcour	-10423
▁partagé	-10424
▁témoins	-10425
▁adresses	-10426
▁business	-10427
▁retourne	-10428
▁visibles	-10429
immobilier	-10430
▁Dominique	-10431
▁découvrez	-10432
▁délicieux	-10433
▁inférieur	-10434
▁protocole	-10435
▁provoquer	-10436
▁québécois	-10437
▁réactions	-10438
▁spéciales	-10439
▁symptômes	-10440
▁biologique	-10441
▁présidence	-10442
▁initiatives	-10443
▁enseignement	-10444
▁personnellement	-10445
68	-10446
:0	-10447
din	-10448
hip	-10449
hom	-10450
ump	-10451
▁(+	-10452
▁7,	-10453
▁88	-10454
▁OU	-10455
▁éb	-10456
azon	-10457
etre	-10458
iger	-10459
issi	-10460
over	-10461
▁Rap	-10462
▁Sab	-10463
▁Sup	-10464
▁fes	-10465
▁pom	-10466
▁tas	-10467
▁tch	-10468
▁véc	-10469
champ	-10470
telle	-10471
ulent	-10472
çants	-10473
éraux	-10474
▁Avis	-10475
▁Chic	-10476
▁Entr	-10477
▁Font	-10478
▁Lady	-10479
▁Tele	-10480
▁buff	-10481
▁capt	-10482
▁cote	-10483
▁stup	-10484
▁vies	-10485
▁vign	-10486
ctrice	-10487
ineuse	-10488
liques	-10489
ouvant	-10490
rières	-10491
▁2014.	-10492
▁Serge	-10493
▁bords	-10494
▁gener	-10495
▁menée	-10496
adolesc	-10497
aissant	-10498
▁Maître	-10499
▁bouger	-10500
▁carton	-10501
▁cuivre	-10502
▁effort	-10503
▁fesses	-10504
▁futurs	-10505
▁impôts	-10506
▁issues	-10507
▁mariti	-10508
▁plaire	-10509
▁rayons	-10510
▁résist	-10511
▁révélé	-10512
▁saisie	-10513
▁savons	-10514
lecteurs	-10515
▁Lettres	-10516
▁emplois	-10517
▁express	-10518
▁filière	-10519
▁inoubli	-10520
▁modules	-10521
▁palette	-10522
▁préparé	-10523
▁rendent	-10524
▁évaluer	-10525
▁Profitez	-10526
▁journaux	-10527
▁mobilier	-10528
▁rajouter	-10529
▁remonter	-10530
▁Catherine	-10531
▁Christian	-10532
▁Sélection	-10533
▁accueilli	-10534
▁chaleureux	-10535
▁créativité	-10536
▁invitation	-10537
▁possession	-10538
▁véritables	-10539
▁américaines	-10540
▁constamment	-10541
▁disparition	-10542
▁constructeur	-10543
▁configuration	-10544
▁référencement	-10545
fl	-10546
vu	-10547
▁î	-10548
ONU	-10549
oly	-10550
actu	-10551
ancy	-10552
dney	-10553
gène	-10554
inez	-10555
itié	-10556
itôt	-10557
roge	-10558
▁Ast	-10559
▁Bos	-10560
▁Lis	-10561
▁Ron	-10562
▁agr	-10563
▁pir	-10564
▁ras	-10565
▁thr	-10566
Paris	-10567
aurer	-10568
entir	-10569
ertés	-10570
▁Mise	-10571
▁obst	-10572
▁pute	-10573
▁soix	-10574
▁soph	-10575
▁subi	-10576
astien	-10577
ilique	-10578
phones	-10579
rosoft	-10580
Église	-10581
▁2008,	-10582
▁Afric	-10583
▁Izumi	-10584
▁chers	-10585
▁gorge	-10586
▁haine	-10587
▁lampe	-10588
▁trent	-10589
▁âgées	-10590
akistan	-10591
▁Consul	-10592
▁accent	-10593
▁bracel	-10594
▁conjug	-10595
▁degrés	-10596
▁exprim	-10597
▁fiable	-10598
▁grandi	-10599
▁lancée	-10600
▁miroir	-10601
▁prévus	-10602
▁sollic	-10603
▁variés	-10604
applique	-10605
attendre	-10606
▁Algérie	-10607
▁Conserv	-10608
▁Théâtre	-10609
▁William	-10610
▁affront	-10611
▁défaite	-10612
▁enlever	-10613
▁mystère	-10614
▁plancha	-10615
▁protest	-10616
▁terreur	-10617
videmment	-10618
▁Vendredi	-10619
▁acquérir	-10620
▁canadien	-10621
▁capables	-10622
▁disposer	-10623
▁nettoyer	-10624
▁évidence	-10625
habitation	-10626
▁concernés	-10627
▁constante	-10628
▁disposent	-10629
▁frontière	-10630
▁qualifiés	-10631
▁continuent	-10632
▁instrument	-10633
▁Appartement	-10634
▁Département	-10635
▁alternative	-10636
▁expositions	-10637
▁représenter	-10638
▁constitution	-10639
▁déclarations	-10640
▁géographique	-10641
Bl	-10642
Ce	-10643
][	-10644
▁▷	-10645
ero	-10646
toi	-10647
▁%.	-10648
▁(8	-10649
▁**	-10650
▁07	-10651
▁Ly	-10652
▁up	-10653
▁»)	-10654
alem	-10655
asso	-10656
lieu	-10657
veil	-10658
ware	-10659
▁350	-10660
▁Arn	-10661
▁Bad	-10662
▁Bay	-10663
▁Din	-10664
▁GPS	-10665
▁Gab	-10666
▁Poi	-10667
▁Uni	-10668
▁Viv	-10669
▁Wil	-10670
▁Mess	-10671
▁POUR	-10672
▁book	-10673
▁enle	-10674
accept	-10675
énager	-10676
▁Jeune	-10677
▁canal	-10678
▁criti	-10679
▁décen	-10680
▁laine	-10681
▁proph	-10682
▁Gilles	-10683
▁algéri	-10684
▁balade	-10685
▁camion	-10686
▁corrig	-10687
▁ennemi	-10688
▁envies	-10689
▁estimé	-10690
▁humeur	-10691
▁jouets	-10692
▁orange	-10693
▁sonore	-10694
▁vulnér	-10695
▁Georges	-10696
▁couteau	-10697
▁linguis	-10698
▁mesurer	-10699
▁précisé	-10700
▁tailles	-10701
▁vanille	-10702
effectuer	-10703
▁Création	-10704
▁attaques	-10705
▁chanteur	-10706
▁espérons	-10707
▁finition	-10708
▁matériau	-10709
▁souviens	-10710
▁sérieuse	-10711
▁Instagram	-10712
▁agricoles	-10713
▁bienvenue	-10714
▁cherchent	-10715
▁multitude	-10716
▁composants	-10717
▁compétence	-10718
▁considérée	-10719
▁dominantes	-10720
▁electrique	-10721
▁industriel	-10722
▁maternelle	-10723
▁métallique	-10724
▁opérateurs	-10725
▁régionales	-10726
▁utilisateur	-10727
▁Constitution	-10728
▁alimentation	-10729
▁artificielle	-10730
▁personnalités	-10731
49	-10732
Re	-10733
kh	-10734
uf	-10735
uk	-10736
EST	-10737
ISS	-10738
osh	-10739
ums	-10740
▁6.	-10741
▁66	-10742
▁CA	-10743
▁Od	-10744
▁PH	-10745
▁Sn	-10746
233;	-10747
abes	-10748
aker	-10749
chev	-10750
enny	-10751
pent	-10752
sans	-10753
tech	-10754
▁186	-10755
▁Bul	-10756
▁Gui	-10757
▁Las	-10758
▁Lum	-10759
▁Mam	-10760
▁raj	-10761
▁rug	-10762
▁tué	-10763
acher	-10764
cière	-10765
oques	-10766
échec	-10767
▁Chat	-10768
▁coco	-10769
▁dune	-10770
▁méch	-10771
▁ridi	-10772
allery	-10773
aution	-10774
change	-10775
enseur	-10776
pignan	-10777
rairie	-10778
▁Alpes	-10779
▁Artis	-10780
▁Tarja	-10781
▁bière	-10782
▁légal	-10783
▁sacré	-10784
▁voyez	-10785
▁avocat	-10786
▁datant	-10787
▁débarr	-10788
▁défend	-10789
▁gueule	-10790
▁jouent	-10791
▁mariée	-10792
▁muscul	-10793
▁oblige	-10794
▁trompe	-10795
▁Trouvez	-10796
▁agences	-10797
▁assimil	-10798
▁défauts	-10799
▁fortune	-10800
▁graines	-10801
▁implant	-10802
▁inspiré	-10803
▁inutile	-10804
▁muscles	-10805
▁paradis	-10806
▁passées	-10807
▁prévues	-10808
▁pétrole	-10809
▁refaire	-10810
▁tromper	-10811
cessoires	-10812
▁adaptées	-10813
▁clinique	-10814
▁collecte	-10815
▁enceinte	-10816
▁pourriez	-10817
▁registre	-10818
▁Charlotte	-10819
▁chrétiens	-10820
▁contenant	-10821
▁infrastru	-10822
▁organisme	-10823
▁pinterest	-10824
▁possèdent	-10825
▁apparition	-10826
▁industries	-10827
▁particules	-10828
▁passionnés	-10829
▁équipement	-10830
▁concurrents	-10831
▁réalisateur	-10832
▁Commentaires	-10833
▁transactions	-10834
enregistrement	-10835
▁révolutionnaire	-10836
Th	-10837
so	-10838
30.	-10839
Cal	-10840
ION	-10841
Jac	-10842
Uni	-10843
ila	-10844
ocy	-10845
oko	-10846
pie	-10847
voi	-10848
▁Az	-10849
-200	-10850
atti	-10851
clés	-10852
ghan	-10853
itoy	-10854
odie	-10855
ombe	-10856
uant	-10857
ward	-10858
éles	-10859
▁Bag	-10860
▁Dum	-10861
▁Ram	-10862
▁Rod	-10863
▁Sun	-10864
▁Tel	-10865
▁boy	-10866
▁kit	-10867
▁pic	-10868
▁tue	-10869
▁vif	-10870
ammam	-10871
gence	-10872
habit	-10873
itées	-10874
rètes	-10875
▁Glob	-10876
▁Sant	-10877
▁Sauf	-10878
▁Tags	-10879
▁affi	-10880
▁free	-10881
▁gonf	-10882
▁sond	-10883
éclair	-10884
▁Bible	-10885
▁Fourn	-10886
▁Video	-10887
▁Villa	-10888
▁doigt	-10889
▁dîner	-10890
▁fixer	-10891
▁horiz	-10892
▁spont	-10893
▁trucs	-10894
▁voila	-10895
arriver	-10896
cieuses	-10897
▁Améric	-10898
▁Bureau	-10899
▁Madara	-10900
▁espère	-10901
▁fondée	-10902
▁refuse	-10903
▁refusé	-10904
▁réside	-10905
▁tenues	-10906
rètement	-10907
▁arrivés	-10908
▁attirer	-10909
▁avancer	-10910
▁costume	-10911
▁diversi	-10912
▁désigne	-10913
▁faciles	-10914
▁panneau	-10915
▁placard	-10916
▁typique	-10917
influence	-10918
▁branches	-10919
▁centaine	-10920
▁exprimer	-10921
▁inscrire	-10922
▁médicale	-10923
▁optimale	-10924
▁remplacé	-10925
▁surfaces	-10926
▁décennies	-10927
▁extension	-10928
▁grossesse	-10929
▁générique	-10930
▁promenade	-10931
▁puissante	-10932
observation	-10933
▁Finalement	-10934
▁Révolution	-10935
▁compatible	-10936
▁profiterez	-10937
▁présentées	-10938
informatique	-10939
▁Association	-10940
▁encastrable	-10941
▁planétaires	-10942
▁témoignages	-10943
▁confirmation	-10944
▁certification	-10945
5)	-10946
TU	-10947
ка	-10948
▁]	-10949
IST	-10950
TIC	-10951
auf	-10952
avi	-10953
ifs	-10954
ota	-10955
▁41	-10956
▁EX	-10957
▁RT	-10958
▁hu	-10959
Mont	-10960
amel	-10961
anas	-10962
bien	-10963
olée	-10964
pper	-10965
rict	-10966
tein	-10967
▁Mou	-10968
▁Nor	-10969
▁Out	-10970
▁bug	-10971
▁due	-10972
▁noy	-10973
▁pin	-10974
▁urg	-10975
aisie	-10976
enfin	-10977
ierry	-10978
iture	-10979
oises	-10980
▁2003	-10981
▁Vert	-10982
▁cens	-10983
▁dieu	-10984
▁game	-10985
▁tiré	-10986
allage	-10987
resses	-10988
▁Harry	-10989
▁Kelly	-10990
▁Seine	-10991
▁antic	-10992
▁arriv	-10993
▁neufs	-10994
▁recon	-10995
▁rêver	-10996
▁élarg	-10997
éditeur	-10998
▁Sydney	-10999
▁affect	-11000
▁ambiti	-11001
▁cathéd	-11002
▁dirait	-11003
▁genoux	-11004
▁gestes	-11005
▁massac	-11006
▁moulin	-11007
▁ordonn	-11008
▁pseudo	-11009
▁tourné	-11010
altitude	-11011
çonnerie	-11012
▁Parfois	-11013
▁diffusé	-11014
▁examens	-11015
▁ludique	-11016
▁maillot	-11017
▁malades	-11018
▁modifié	-11019
▁prouver	-11020
▁refuser	-11021
▁reposer	-11022
▁sentait	-11023
onnements	-11024
organiser	-11025
▁Meilleur	-11026
▁broyeurs	-11027
▁contract	-11028
▁espérant	-11029
▁mélanger	-11030
▁respecte	-11031
▁soutient	-11032
▁autonomie	-11033
▁demandent	-11034
▁manifeste	-11035
▁militants	-11036
▁musulmans	-11037
▁stabilité	-11038
emplacement	-11039
▁auxquelles	-11040
▁enthousias	-11041
▁inférieure	-11042
▁répertoire	-11043
▁évaluation	-11044
▁dispositifs	-11045
▁francophones	-11046
▁individuelle	-11047
▁inscriptions	-11048
▁susceptibles	-11049
▁sélectionnés	-11050
▁transparence	-11051
▁nécessairement	-11052
tan	-11053
▁09	-11054
▁8.	-11055
▁AF	-11056
▁pa	-11057
▁rd	-11058
▁sw	-11059
IQUE	-11060
Mich	-11061
kets	-11062
sace	-11063
ular	-11064
éhen	-11065
▁Bac	-11066
▁Cat	-11067
▁Hug	-11068
▁Mir	-11069
▁Ton	-11070
▁jac	-11071
▁lar	-11072
▁pli	-11073
acées	-11074
atori	-11075
aules	-11076
iforn	-11077
liger	-11078
voire	-11079
▁2001	-11080
▁Côté	-11081
▁Imag	-11082
▁hété	-11083
▁perc	-11084
▁semi	-11085
▁sols	-11086
▁stop	-11087
▁unes	-11088
adaire	-11089
aindre	-11090
entine	-11091
etooth	-11092
outube	-11093
▁Royal	-11094
▁brune	-11095
▁culte	-11096
▁fière	-11097
▁hotel	-11098
▁pomme	-11099
▁recue	-11100
essayer	-11101
ffement	-11102
ouement	-11103
ussitôt	-11104
▁Macron	-11105
▁Prenez	-11106
▁attire	-11107
▁balles	-11108
▁engagé	-11109
▁gloire	-11110
▁indemn	-11111
▁pommes	-11112
▁récent	-11113
▁réfrig	-11114
▁silhou	-11115
▁sièges	-11116
▁stable	-11117
▁vaisse	-11118
▁Thierry	-11119
▁appelés	-11120
▁contest	-11121
▁monnaie	-11122
▁optique	-11123
▁papiers	-11124
▁traités	-11125
▁élégant	-11126
▁Dimanche	-11127
▁analyses	-11128
▁associée	-11129
▁descente	-11130
▁implique	-11131
▁initiale	-11132
▁internes	-11133
▁laissent	-11134
▁monsieur	-11135
▁provient	-11136
▁révision	-11137
▁souhaité	-11138
▁variable	-11139
▁énergies	-11140
▁Perpignan	-11141
▁consultez	-11142
▁créateurs	-11143
▁entraîner	-11144
▁pratiquer	-11145
▁éducation	-11146
glomération	-11147
▁construite	-11148
▁identifier	-11149
▁adversaires	-11150
▁catholiques	-11151
▁francophone	-11152
▁volontaires	-11153
intermédiaire	-11154
▁constructeurs	-11155
▁prochainement	-11156
CM	-11157
за	-11158
.),	-11159
ERS	-11160
ING	-11161
LLE	-11162
OIR	-11163
obé	-11164
▁Af	-11165
▁Bé	-11166
▁IS	-11167
▁mg	-11168
▁Éc	-11169
▁Ép	-11170
amis	-11171
reau	-11172
▁900	-11173
▁Sen	-11174
▁bot	-11175
▁fal	-11176
▁fût	-11177
aurai	-11178
eroun	-11179
journ	-11180
miers	-11181
mètre	-11182
teste	-11183
urité	-11184
▁Caen	-11185
▁Chef	-11186
▁Gard	-11187
▁Robe	-11188
▁Tant	-11189
▁Test	-11190
▁case	-11191
▁chic	-11192
▁empê	-11193
▁jury	-11194
▁nois	-11195
▁payé	-11196
▁spéc	-11197
commun	-11198
umeurs	-11199
économ	-11200
▁2012.	-11201
▁Index	-11202
▁Leurs	-11203
▁armés	-11204
▁artic	-11205
▁impré	-11206
▁laser	-11207
▁rayon	-11208
▁relie	-11209
▁écras	-11210
auteurs	-11211
cidents	-11212
extrait	-11213
heureux	-11214
issance	-11215
▁Berlin	-11216
▁Hôtels	-11217
▁dirigé	-11218
▁doutes	-11219
▁débats	-11220
▁décors	-11221
▁dédiée	-11222
▁fleuve	-11223
▁housse	-11224
▁malade	-11225
▁payant	-11226
▁perles	-11227
▁qualif	-11228
▁réunis	-11229
▁souris	-11230
▁webcam	-11231
cipation	-11232
orthodox	-11233
ébastien	-11234
▁comport	-11235
▁crainte	-11236
▁femelle	-11237
▁gardien	-11238
▁garçons	-11239
▁lambris	-11240
▁nourrir	-11241
▁plaques	-11242
▁ramener	-11243
▁relever	-11244
tinéraire	-11245
▁Stéphane	-11246
▁auxquels	-11247
▁contenir	-11248
▁entreten	-11249
▁envisage	-11250
▁informer	-11251
▁musiques	-11252
▁produite	-11253
▁provoque	-11254
▁périodes	-11255
▁qualifié	-11256
obligation	-11257
▁Direction	-11258
▁effectuée	-11259
▁modalités	-11260
▁municipal	-11261
▁reconnaît	-11262
▁sexuelles	-11263
▁Université	-11264
▁collectifs	-11265
▁concasseur	-11266
▁magnétique	-11267
▁permanence	-11268
▁recommandé	-11269
▁socialiste	-11270
▁téléphones	-11271
▁conseillers	-11272
▁découvertes	-11273
▁dégustation	-11274
▁fournisseur	-11275
▁Actuellement	-11276
▁portefeuille	-11277
▁publications	-11278
▁pédagogiques	-11279
▁sérieusement	-11280
">	-11281
/4	-11282
MD	-11283
Ob	-11284
jr	-11285
ns	-11286
vc	-11287
Des	-11288
ral	-11289
éen	-11290
▁02	-11291
▁69	-11292
▁Hu	-11293
▁It	-11294
▁Sm	-11295
Inde	-11296
RAND	-11297
adox	-11298
cler	-11299
enep	-11300
iors	-11301
ovis	-11302
rade	-11303
spir	-11304
▁(17	-11305
▁Bil	-11306
▁Blu	-11307
▁Fen	-11308
▁Hor	-11309
▁Iss	-11310
▁ger	-11311
▁lai	-11312
otage	-11313
quine	-11314
▁2002	-11315
▁Arts	-11316
▁Bach	-11317
▁Orig	-11318
▁poch	-11319
▁race	-11320
▁rect	-11321
▁tang	-11322
Intern	-11323
etteur	-11324
hésite	-11325
occupe	-11326
▁Bruno	-11327
▁Fonds	-11328
▁Quels	-11329
▁Temps	-11330
▁avion	-11331
▁colis	-11332
▁douze	-11333
▁inaug	-11334
▁joint	-11335
▁métro	-11336
▁sœurs	-11337
▁télés	-11338
▁états	-11339
enepveu	-11340
horizon	-11341
yrénées	-11342
▁Coucou	-11343
▁Master	-11344
▁Rendez	-11345
▁bronze	-11346
▁carnet	-11347
▁classé	-11348
▁danser	-11349
▁debout	-11350
▁détach	-11351
▁espoir	-11352
▁frustr	-11353
▁intemp	-11354
▁passés	-11355
▁promet	-11356
▁sécher	-11357
▁usines	-11358
▁varier	-11359
▁élevée	-11360
adhésion	-11361
immeuble	-11362
▁Cliquez	-11363
▁Travail	-11364
▁adapter	-11365
▁bizarre	-11366
▁chargée	-11367
▁console	-11368
▁diriger	-11369
▁disques	-11370
▁déposer	-11371
▁excessi	-11372
▁falloir	-11373
▁forment	-11374
▁gagnant	-11375
▁inconnu	-11376
▁offerts	-11377
▁remonte	-11378
▁échelle	-11379
augmenter	-11380
dialement	-11381
président	-11382
▁effectue	-11383
▁garantit	-11384
▁milliard	-11385
▁naviguer	-11386
▁profitez	-11387
▁rassembl	-11388
▁Ministère	-11389
▁chimiques	-11390
▁combattre	-11391
▁consacrée	-11392
▁contribue	-11393
▁poursuite	-11394
▁rassemble	-11395
▁regardant	-11396
▁sportives	-11397
▁titulaire	-11398
▁canadienne	-11399
▁communiste	-11400
▁mécanismes	-11401
▁provenance	-11402
▁connaissait	-11403
▁enregistrer	-11404
▁raisonnable	-11405
▁photographies	-11406
▁véritablement	-11407
/3	-11408
BL	-11409
bé	-11410
fa	-11411
ни	-11412
▁Â	-11413
ENS	-11414
aël	-11415
dem	-11416
ela	-11417
esc	-11418
han	-11419
ria	-11420
▁64	-11421
▁Bâ	-11422
▁Dj	-11423
▁Do	-11424
▁на	-11425
anat	-11426
ando	-11427
ated	-11428
oies	-11429
prix	-11430
éroï	-11431
▁Dre	-11432
▁Gol	-11433
▁MAR	-11434
▁ath	-11435
▁obs	-11436
amine	-11437
itale	-11438
obles	-11439
ocats	-11440
orant	-11441
écrit	-11442
▁2019	-11443
▁Anti	-11444
▁Fils	-11445
▁Foot	-11446
▁Hard	-11447
▁Thér	-11448
▁fout	-11449
▁harc	-11450
▁racc	-11451
▁réci	-11452
Office	-11453
acieux	-11454
onymes	-11455
usanne	-11456
▁abond	-11457
▁juges	-11458
▁linge	-11459
▁lisse	-11460
▁marie	-11461
▁perru	-11462
▁pince	-11463
▁vieil	-11464
essionn	-11465
▁Meuble	-11466
▁attaqu	-11467
▁chaine	-11468
▁conçue	-11469
▁duquel	-11470
▁dégâts	-11471
▁manuel	-11472
▁mettez	-11473
▁poivre	-11474
▁prouve	-11475
▁prêtre	-11476
▁recomm	-11477
▁survie	-11478
▁vapeur	-11479
▁voisin	-11480
achement	-11481
inateurs	-11482
intégrer	-11483
▁Antoine	-11484
▁Etienne	-11485
▁broyage	-11486
▁collier	-11487
▁concent	-11488
▁fromage	-11489
▁gouvern	-11490
▁prononc	-11491
▁racines	-11492
▁rappelé	-11493
▁revendi	-11494
▁triomph	-11495
quipement	-11496
▁Novembre	-11497
▁Sciences	-11498
▁annuelle	-11499
▁monument	-11500
▁prostitu	-11501
▁vieilles	-11502
▁capitaine	-11503
▁demandeur	-11504
▁fiabilité	-11505
▁féministe	-11506
▁occasionn	-11507
▁présentés	-11508
▁surprises	-11509
▁testament	-11510
▁universel	-11511
▁Méditerran	-11512
▁abonnement	-11513
▁bouteilles	-11514
▁organisées	-11515
▁européennes	-11516
▁laboratoire	-11517
▁précédentes	-11518
▁départements	-11519
▁communautaire	-11520
▁enseignements	-11521
▁positionnement	-11522
.-	-11523
.”	-11524
ва	-11525
▁Ê	-11526
URS	-11527
asy	-11528
neu	-11529
sen	-11530
▁(«	-11531
▁99	-11532
▁Gh	-11533
▁IP	-11534
▁Vu	-11535
ayez	-11536
inal	-11537
isté	-11538
pris	-11539
ssis	-11540
▁10%	-11541
▁20%	-11542
▁Dec	-11543
▁Gay	-11544
▁Gri	-11545
▁Num	-11546
▁PCF	-11547
▁Rab	-11548
▁arn	-11549
▁coh	-11550
▁cyl	-11551
▁gré	-11552
▁éro	-11553
armer	-11554
atéri	-11555
endel	-11556
enons	-11557
léans	-11558
ocker	-11559
reurs	-11560
érité	-11561
▁Blue	-11562
▁Empl	-11563
▁Grég	-11564
▁Mars	-11565
▁Park	-11566
▁René	-11567
▁Sams	-11568
▁lent	-11569
▁merc	-11570
▁pend	-11571
▁pote	-11572
▁poup	-11573
▁rich	-11574
▁saut	-11575
▁scru	-11576
▁turb	-11577
▁édit	-11578
anique	-11579
anisme	-11580
ctueux	-11581
ortées	-11582
ticien	-11583
▁Compt	-11584
▁Crich	-11585
▁Durée	-11586
▁Tours	-11587
▁blogs	-11588
▁drame	-11589
▁emblé	-11590
▁félic	-11591
▁intui	-11592
▁latin	-11593
▁mètre	-11594
▁perso	-11595
▁rattr	-11596
▁redéc	-11597
▁resté	-11598
engager	-11599
ommande	-11600
tissent	-11601
▁Autres	-11602
▁approf	-11603
▁collég	-11604
▁manqué	-11605
▁noctur	-11606
▁plumes	-11607
▁priori	-11608
▁rebond	-11609
▁rouler	-11610
▁stages	-11611
adeloupe	-11612
▁Réunion	-11613
▁dessert	-11614
▁discret	-11615
▁déploie	-11616
▁esprits	-11617
▁filiale	-11618
▁glisser	-11619
▁liaison	-11620
▁protège	-11621
▁sublime	-11622
▁vivante	-11623
▁africain	-11624
▁condamné	-11625
▁créature	-11626
▁exécutif	-11627
▁fidélité	-11628
▁intégrée	-11629
▁invitons	-11630
▁plombier	-11631
▁pourcent	-11632
▁promesse	-11633
▁réunions	-11634
ctionnaire	-11635
▁attendent	-11636
▁challenge	-11637
▁destinées	-11638
▁masculine	-11639
▁sensibles	-11640
immigration	-11641
▁individuel	-11642
▁souhaitons	-11643
▁compositeur	-11644
▁essentielles	-11645
▁électroniques	-11646
▁problématiques	-11647
66	-11648
;#	-11649
TP	-11650
ко	-11651
IDE	-11652
lès	-11653
ogo	-11654
yer	-11655
égr	-11656
▁53	-11657
▁AG	-11658
▁Fe	-11659
▁Ke	-11660
****	-11661
..."	-11662
Acad	-11663
baye	-11664
encé	-11665
ombr	-11666
terr	-11667
▁10,	-11668
▁50%	-11669
▁Bis	-11670
▁Lam	-11671
▁Lot	-11672
▁Pom	-11673
▁Sem	-11674
▁ens	-11675
▁nau	-11676
▁tub	-11677
▁vid	-11678
Ecole	-11679
aigne	-11680
avage	-11681
cheur	-11682
ertes	-11683
expos	-11684
field	-11685
itait	-11686
olive	-11687
▁Dame	-11688
▁Girl	-11689
▁Pass	-11690
▁Seul	-11691
▁abus	-11692
▁clip	-11693
▁guér	-11694
▁jean	-11695
▁mour	-11696
▁play	-11697
▁pomp	-11698
▁puff	-11699
▁sois	-11700
▁trag	-11701
accent	-11702
amitié	-11703
mières	-11704
onçant	-11705
âteaux	-11706
▁Bravo	-11707
▁House	-11708
▁Simon	-11709
▁World	-11710
▁armée	-11711
▁biodi	-11712
▁citer	-11713
▁gramm	-11714
▁réjou	-11715
embourg	-11716
èvement	-11717
▁Agence	-11718
▁Bourse	-11719
▁Canadi	-11720
▁Destin	-11721
▁Lettre	-11722
▁casque	-11723
▁impati	-11724
▁lavage	-11725
▁méthod	-11726
▁occupe	-11727
▁sachez	-11728
▁soigne	-11729
▁écrans	-11730
▁Maurice	-11731
▁Quelles	-11732
▁carbone	-11733
▁communs	-11734
▁débuter	-11735
▁entouré	-11736
▁exercer	-11737
▁ménages	-11738
▁polyval	-11739
▁urbaine	-11740
appliquer	-11741
intéresse	-11742
onciation	-11743
▁Crichton	-11744
▁Personne	-11745
▁aliments	-11746
▁extraits	-11747
▁instants	-11748
▁légitime	-11749
▁récentes	-11750
▁tensions	-11751
▁veuillez	-11752
▁échanger	-11753
▁Normandie	-11754
▁existence	-11755
▁librement	-11756
▁parcourir	-11757
▁souhaiter	-11758
▁trentaine	-11759
▁Conférence	-11760
▁adversaire	-11761
▁directrice	-11762
▁handicapée	-11763
▁adolescents	-11764
▁essentielle	-11765
▁psychologie	-11766
▁entrepreneur	-11767
▁industrielle	-11768
▁intelligence	-11769
▁négociations	-11770
▁disponibilité	-11771
▁traditionnelles	-11772
Av	-11773
BM	-11774
OI	-11775
aa	-11776
20,	-11777
add	-11778
bal	-11779
dro	-11780
leg	-11781
lum	-11782
oug	-11783
url	-11784
▁94	-11785
▁MS	-11786
▁PU	-11787
▁SI	-11788
▁WC	-11789
▁we	-11790
▁не	-11791
▁€.	-11792
gres	-11793
mant	-11794
orph	-11795
très	-11796
urés	-11797
vard	-11798
émat	-11799
▁Ang	-11800
▁Big	-11801
▁MON	-11802
▁Pou	-11803
▁Puy	-11804
▁duc	-11805
▁gig	-11806
▁laï	-11807
▁obé	-11808
▁sté	-11809
ommun	-11810
quage	-11811
étape	-11812
▁Ford	-11813
▁Gene	-11814
▁Land	-11815
▁Lois	-11816
▁Resp	-11817
▁Sing	-11818
▁boss	-11819
▁flot	-11820
▁heur	-11821
▁miel	-11822
▁mâch	-11823
▁path	-11824
▁perm	-11825
▁révé	-11826
▁vété	-11827
▁écar	-11828
agraph	-11829
animal	-11830
ariste	-11831
idente	-11832
ueuses	-11833
uriers	-11834
▁Blais	-11835
▁Canal	-11836
▁Carte	-11837
▁Esfir	-11838
▁Fille	-11839
▁Fleur	-11840
▁Rhône	-11841
▁amené	-11842
▁bleus	-11843
▁corde	-11844
▁doubl	-11845
▁détec	-11846
▁flash	-11847
▁génie	-11848
▁incom	-11849
▁livré	-11850
▁prodi	-11851
▁serre	-11852
aliment	-11853
appeler	-11854
oureuse	-11855
quement	-11856
▁Aucune	-11857
▁albums	-11858
▁charte	-11859
▁cigare	-11860
▁musées	-11861
▁redout	-11862
▁retenu	-11863
▁réunit	-11864
▁situés	-11865
▁sperme	-11866
▁élevés	-11867
Académie	-11868
▁Journée	-11869
▁Samsung	-11870
▁connues	-11871
▁engagée	-11872
▁fatigue	-11873
▁libérer	-11874
▁marquer	-11875
▁marquée	-11876
▁mettons	-11877
▁nations	-11878
▁parrain	-11879
▁requête	-11880
▁saveurs	-11881
▁séduire	-11882
▁télévis	-11883
▁équipés	-11884
▁atteinte	-11885
▁courriel	-11886
▁déguster	-11887
▁financer	-11888
▁maximale	-11889
▁successi	-11890
▁traverse	-11891
▁Solutions	-11892
▁distingue	-11893
▁démontrer	-11894
▁fraîcheur	-11895
▁indiquant	-11896
▁mauvaises	-11897
▁officiels	-11898
▁ressentir	-11899
▁régionaux	-11900
▁théorique	-11901
▁traverser	-11902
▁commencent	-11903
▁dépression	-11904
▁renseigner	-11905
▁spectacles	-11906
▁catastrophe	-11907
▁emplacement	-11908
▁nationalité	-11909
▁productions	-11910
▁biodiversité	-11911
▁coordination	-11912
▁intéressants	-11913
▁renforcement	-11914
▁renseignement	-11915
1%	-11916
72	-11917
76	-11918
85	-11919
NH	-11920
jo	-11921
▁̈	-11922
Une	-11923
abo	-11924
eul	-11925
ulf	-11926
ége	-11927
▁0.	-11928
▁74	-11929
▁8,	-11930
▁FN	-11931
▁MP	-11932
▁Ol	-11933
▁TR	-11934
asin	-11935
lies	-11936
omie	-11937
omon	-11938
siez	-11939
uils	-11940
▁Dor	-11941
▁LED	-11942
▁Mah	-11943
▁ade	-11944
▁pvc	-11945
▁tén	-11946
didas	-11947
giène	-11948
icien	-11949
onnez	-11950
organ	-11951
trage	-11952
équip	-11953
étage	-11954
êques	-11955
▁Camb	-11956
▁Gros	-11957
▁Guer	-11958
▁Mass	-11959
▁Pape	-11960
▁Yves	-11961
▁info	-11962
▁lots	-11963
......	-11964
encour	-11965
erreur	-11966
onnage	-11967
parole	-11968
usalem	-11969
▁2011.	-11970
▁Anton	-11971
▁Front	-11972
▁Proph	-11973
▁Studi	-11974
▁Verts	-11975
▁aband	-11976
▁bouge	-11977
▁décal	-11978
▁hôtes	-11979
▁rangs	-11980
▁socio	-11981
▁sérén	-11982
▁vigil	-11983
rection	-11984
ulateur	-11985
▁Espace	-11986
▁Frères	-11987
▁Matéri	-11988
▁Source	-11989
▁guider	-11990
▁insuff	-11991
▁litres	-11992
▁marine	-11993
▁nuages	-11994
▁propag	-11995
▁russes	-11996
▁touché	-11997
▁vagues	-11998
▁visité	-11999
aisselle	-12000
isations	-12001
ortation	-12002
▁Système	-12003
▁Thérèse	-12004
▁absolue	-12005
▁compens	-12006
▁concret	-12007
▁condamn	-12008
▁devrais	-12009
▁donnait	-12010
▁passait	-12011
▁plainte	-12012
▁poignée	-12013
▁ressort	-12014
▁réduite	-12015
▁splendi	-12016
▁Lenepveu	-12017
▁brillant	-12018
▁créateur	-12019
▁libertés	-12020
▁procurer	-12021
▁reconnue	-12022
▁réfugiés	-12023
▁tablette	-12024
▁apparence	-12025
▁dirigeant	-12026
▁régulière	-12027
ouvernement	-12028
▁Actualités	-12029
▁Entreprise	-12030
▁confection	-12031
▁fabricants	-12032
▁littéraire	-12033
▁logistique	-12034
▁parisienne	-12035
▁potentiels	-12036
▁combinaison	-12037
▁exemplaires	-12038
▁secondaires	-12039
▁Bibliothèque	-12040
▁amélioration	-12041
▁déménagement	-12042
▁réfrigérateur	-12043
CD	-12044
kg	-12045
AUX	-12046
Acc	-12047
bie	-12048
clé	-12049
gen	-12050
ily	-12051
tia	-12052
▁ES	-12053
▁PD	-12054
▁Sk	-12055
▁Ur	-12056
▁WW	-12057
▁ge	-12058
▁ja	-12059
▁ok	-12060
▁wc	-12061
▁xD	-12062
opes	-12063
pert	-12064
élég	-12065
▁140	-12066
▁Aur	-12067
▁Eli	-12068
▁PAC	-12069
▁Rol	-12070
▁Var	-12071
▁bah	-12072
▁blo	-12073
▁cav	-12074
▁féc	-12075
▁île	-12076
acces	-12077
alors	-12078
ebdom	-12079
oween	-12080
ulant	-12081
écart	-12082
▁Doub	-12083
▁Play	-12084
▁Pont	-12085
▁hect	-12086
▁inse	-12087
▁opus	-12088
▁sere	-12089
▁susc	-12090
▁égal	-12091
Christ	-12092
affich	-12093
aissez	-12094
assins	-12095
illant	-12096
verser	-12097
▁Denis	-12098
▁Guide	-12099
▁Prise	-12100
▁Techn	-12101
▁accum	-12102
▁adoré	-12103
▁débou	-12104
▁formé	-12105
▁fumée	-12106
▁plaqu	-12107
▁poêle	-12108
▁rénov	-12109
▁rétro	-12110
▁têtes	-12111
imagine	-12112
obation	-12113
version	-12114
▁Client	-12115
▁Collec	-12116
▁Gérard	-12117
▁Thèmes	-12118
▁blessé	-12119
▁citron	-12120
▁courbe	-12121
▁créant	-12122
▁engage	-12123
▁forums	-12124
▁goûter	-12125
▁incorp	-12126
▁listes	-12127
▁multic	-12128
▁métaux	-12129
▁parois	-12130
▁relevé	-12131
▁salons	-12132
▁simult	-12133
▁visuel	-12134
moiselle	-12135
▁Haendel	-12136
▁Maisons	-12137
▁Tunisie	-12138
▁affirmé	-12139
▁ajoutée	-12140
▁occuper	-12141
▁soumise	-12142
▁suppose	-12143
expliquer	-12144
▁Affaires	-12145
▁adresser	-12146
▁chimique	-12147
▁espagnol	-12148
▁harmonie	-12149
▁masculin	-12150
▁raconter	-12151
▁soixante	-12152
▁souligné	-12153
▁sérénité	-12154
ébergement	-12155
▁Bourgogne	-12156
▁actuelles	-12157
▁camarades	-12158
▁compromis	-12159
▁consacrer	-12160
▁employeur	-12161
▁faisaient	-12162
▁médiation	-12163
▁poussière	-12164
▁Convention	-12165
▁Techniques	-12166
▁Versailles	-12167
▁accessoire	-12168
▁concernent	-12169
▁conformité	-12170
▁extérieurs	-12171
▁obligation	-12172
▁plastiques	-12173
▁similaires	-12174
▁symbolique	-12175
▁transforme	-12176
▁Professionn	-12177
▁bénéficient	-12178
▁immobilière	-12179
▁obligations	-12180
▁strictement	-12181
▁réalisations	-12182
▁enregistrement	-12183
AG	-12184
Fi	-12185
án	-12186
▁~	-12187
▁°	-12188
-18	-12189
100	-12190
END	-12191
aka	-12192
awa	-12193
eck	-12194
lot	-12195
mus	-12196
oom	-12197
▁/>	-12198
▁AB	-12199
▁EC	-12200
▁Fa	-12201
▁Ps	-12202
▁sn	-12203
▁xx	-12204
acts	-12205
adir	-12206
anth	-12207
ardo	-12208
aria	-12209
eroy	-12210
itte	-12211
locu	-12212
lore	-12213
mper	-12214
ount	-12215
étal	-12216
▁Cop	-12217
▁PAS	-12218
▁Six	-12219
▁Sus	-12220
▁Tok	-12221
▁UNE	-12222
▁Veu	-12223
▁Voy	-12224
▁bol	-12225
▁dun	-12226
▁éth	-12227
aurez	-12228
entis	-12229
idier	-12230
isson	-12231
ondir	-12232
rette	-12233
rsquo	-12234
èches	-12235
▁Pres	-12236
▁SNCF	-12237
▁cave	-12238
▁nage	-12239
▁papa	-12240
iteurs	-12241
▁Jules	-12242
▁Monte	-12243
▁aides	-12244
▁appui	-12245
▁congé	-12246
▁dédic	-12247
▁embar	-12248
▁exper	-12249
▁folle	-12250
▁grain	-12251
▁nulle	-12252
▁robes	-12253
▁sémin	-12254
▁tchat	-12255
▁thèse	-12256
alition	-12257
atation	-12258
experts	-12259
rements	-12260
tissant	-12261
▁Cialis	-12262
▁Hommes	-12263
▁Israël	-12264
▁Modèle	-12265
▁coopér	-12266
▁devrez	-12267
▁favori	-12268
▁fiscal	-12269
▁genres	-12270
▁médiév	-12271
▁pontif	-12272
▁poulet	-12273
▁ressus	-12274
▁rousse	-12275
▁réunir	-12276
▁surviv	-12277
▁séduit	-12278
▁urbain	-12279
▁voyait	-12280
▁étudié	-12281
accepter	-12282
▁Exemple	-12283
▁Raymond	-12284
▁Souvent	-12285
▁absence	-12286
▁assorti	-12287
▁chaises	-12288
▁citoyen	-12289
▁comédie	-12290
▁fédéral	-12291
▁menaces	-12292
▁miracle	-12293
▁tiendra	-12294
▁voyance	-12295
atteindre	-12296
autonomie	-12297
dications	-12298
▁Clermont	-12299
▁aérienne	-12300
▁bénéfice	-12301
▁charmant	-12302
▁proposée	-12303
▁scandale	-12304
ectivement	-12305
▁Champagne	-12306
▁Microsoft	-12307
▁faiblesse	-12308
▁librairie	-12309
▁locataire	-12310
▁matériels	-12311
▁peintures	-12312
▁Guadeloupe	-12313
▁concentrer	-12314
▁constituée	-12315
▁discrétion	-12316
▁encourager	-12317
▁répression	-12318
▁évolutions	-12319
▁engagements	-12320
▁suppression	-12321
▁efficacement	-12322
▁personnalisée	-12323
▁spectaculaire	-12324
▁impressionnant	-12325
▁téléchargement	-12326
▁responsabilités	-12327
▁sensibilisation	-12328
79	-12329
на	-12330
▁›	-12331
asa	-12332
aum	-12333
iro	-12334
php	-12335
ury	-12336
▁?)	-12337
▁AC	-12338
▁DC	-12339
▁FR	-12340
▁RD	-12341
avre	-12342
back	-12343
gner	-12344
mère	-12345
oger	-12346
rovi	-12347
stad	-12348
uent	-12349
▁Aub	-12350
▁Dig	-12351
▁EST	-12352
▁GMT	-12353
▁Jud	-12354
▁Pet	-12355
▁Pok	-12356
▁Pot	-12357
▁Rep	-12358
▁Sel	-12359
▁chê	-12360
▁pdf	-12361
▁sén	-12362
appli	-12363
aurus	-12364
odeur	-12365
oites	-12366
pirer	-12367
▁Brit	-12368
▁Cuir	-12369
▁Date	-12370
▁Ital	-12371
▁King	-12372
▁Mini	-12373
▁Vern	-12374
▁Vrai	-12375
▁Wiki	-12376
▁drag	-12377
▁pile	-12378
▁toul	-12379
▁zéro	-12380
Esprit	-12381
Michel	-12382
essaie	-12383
pitaux	-12384
reinte	-12385
▁Arrêt	-12386
▁Fiche	-12387
▁Steph	-12388
▁Vaill	-12389
▁abatt	-12390
▁blond	-12391
▁cohér	-12392
▁innoc	-12393
▁issue	-12394
▁phare	-12395
▁précé	-12396
acteurs	-12397
ularité	-12398
▁Colomb	-12399
▁Monaco	-12400
▁Quatre	-12401
▁autoch	-12402
▁discip	-12403
▁dissim	-12404
▁gâteau	-12405
▁parait	-12406
▁ranger	-12407
▁rappro	-12408
acifique	-12409
▁Install	-12410
▁blessés	-12411
▁châssis	-12412
▁désagré	-12413
▁entrain	-12414
▁escorte	-12415
▁figures	-12416
▁numéros	-12417
▁parquet	-12418
▁portait	-12419
▁retours	-12420
▁surmont	-12421
▁variées	-12422
▁épaules	-12423
▁Produits	-12424
▁Résultat	-12425
▁Sécurité	-12426
▁apprécie	-12427
▁autorisé	-12428
▁autorité	-12429
▁chapelle	-12430
▁corriger	-12431
▁courants	-12432
▁célèbres	-12433
▁détruire	-12434
▁enseigne	-12435
▁francais	-12436
▁investir	-12437
▁mentionn	-12438
▁ouvriers	-12439
▁relevage	-12440
▁seigneur	-12441
▁traduire	-12442
▁trouvera	-12443
identifier	-12444
▁Françoise	-12445
▁abandonné	-12446
▁accoudoir	-12447
▁adhérents	-12448
▁basilique	-12449
▁campagnes	-12450
▁demandant	-12451
▁espagnole	-12452
▁identifié	-12453
▁intéressé	-12454
▁ordinaire	-12455
▁princesse	-12456
▁Professeur	-12457
▁atmosphère	-12458
▁continuité	-12459
▁originales	-12460
▁renovation	-12461
▁souhaitant	-12462
Organisation	-12463
▁apparemment	-12464
▁perspectives	-12465
▁précédemment	-12466
▁Conservatoire	-12467
cô	-12468
€.	-12469
▁ç	-12470
eil	-12471
hop	-12472
ims	-12473
pdf	-12474
uez	-12475
▁76	-12476
▁AM	-12477
▁Ak	-12478
▁Wi	-12479
▁gâ	-12480
Anne	-12481
aceu	-12482
arez	-12483
ases	-12484
enue	-12485
raft	-12486
rest	-12487
ride	-12488
site	-12489
vais	-12490
▁10.	-12491
▁185	-12492
▁Aix	-12493
▁Bab	-12494
▁Cyb	-12495
▁aér	-12496
▁bla	-12497
▁sat	-12498
aissé	-12499
azote	-12500
fient	-12501
inity	-12502
issan	-12503
lites	-12504
petit	-12505
École	-12506
▁Brig	-12507
▁Chem	-12508
▁Hier	-12509
▁Médi	-12510
▁Saji	-12511
▁chol	-12512
▁cris	-12513
▁iran	-12514
▁renf	-12515
▁épic	-12516
assant	-12517
avocat	-12518
chette	-12519
emprun	-12520
illons	-12521
invent	-12522
timent	-12523
▁Allez	-12524
▁Hauts	-12525
▁Ligne	-12526
▁Peter	-12527
▁chrom	-12528
▁démis	-12529
▁estiv	-12530
▁filet	-12531
▁frein	-12532
▁numér	-12533
▁pente	-12534
▁saura	-12535
▁époux	-12536
▁évite	-12537
activer	-12538
▁Jamais	-12539
▁Nissan	-12540
▁Presse	-12541
▁Sports	-12542
▁décédé	-12543
▁déposé	-12544
▁désert	-12545
▁expédi	-12546
▁mental	-12547
▁schéma	-12548
▁signer	-12549
▁subtil	-12550
▁temple	-12551
artistes	-12552
▁Musique	-12553
▁actuels	-12554
▁cellule	-12555
▁charger	-12556
▁chemise	-12557
▁choisit	-12558
▁espérer	-12559
▁matelas	-12560
▁pensais	-12561
▁pleurer	-12562
▁prendra	-12563
▁program	-12564
▁publiés	-12565
▁révéler	-12566
▁souffre	-12567
formation	-12568
▁archives	-12569
▁argument	-12570
▁aussitôt	-12571
▁favorise	-12572
▁figurent	-12573
▁médaille	-12574
▁observer	-12575
▁parvient	-12576
▁passages	-12577
▁probable	-12578
▁rapporte	-12579
▁rapproch	-12580
▁visuelle	-12581
▁vêtement	-12582
▁Christine	-12583
▁Entretien	-12584
▁animation	-12585
▁automobil	-12586
▁descendre	-12587
▁exclusive	-12588
▁génétique	-12589
▁justifier	-12590
▁paragraph	-12591
▁partisans	-12592
▁spirituel	-12593
▁cathédrale	-12594
▁graphiques	-12595
▁intéressés	-12596
▁promotions	-12597
▁régulation	-12598
▁thématique	-12599
▁bandoulière	-12600
▁inoubliable	-12601
▁publicitaire	-12602
▁stratégiques	-12603
▁planification	-12604
▁psychologique	-12605
▁administration	-12606
▁fonctionnaires	-12607
▁respectivement	-12608
▁réglementation	-12609
▁tranquillement	-12610
CY	-12611
RS	-12612
▁ô	-12613
:00	-12614
Car	-12615
lib	-12616
lip	-12617
upp	-12618
▁Ky	-12619
gles	-12620
iées	-12621
nels	-12622
ocal	-12623
olph	-12624
orez	-12625
suis	-12626
uira	-12627
▁(3)	-12628
▁Arm	-12629
▁Roi	-12630
▁SUR	-12631
▁Tab	-12632
▁cot	-12633
▁leg	-12634
▁rus	-12635
▁ved	-12636
assée	-12637
faits	-12638
inces	-12639
index	-12640
oline	-12641
ommée	-12642
tième	-12643
trans	-12644
ueurs	-12645
▁Ball	-12646
▁Jour	-12647
▁Lune	-12648
▁Mons	-12649
▁Nick	-12650
▁admi	-12651
▁cray	-12652
▁feux	-12653
▁roue	-12654
▁sand	-12655
▁slog	-12656
▁tele	-12657
▁vall	-12658
▁yoga	-12659
angile	-12660
ansion	-12661
aucune	-12662
ensive	-12663
impose	-12664
ration	-12665
ystème	-12666
électr	-12667
évêque	-12668
▁Euros	-12669
▁GRAND	-12670
▁Médec	-12671
▁Trump	-12672
▁aveug	-12673
▁crâne	-12674
▁dotée	-12675
▁dépit	-12676
▁emmen	-12677
▁ennuy	-12678
▁etait	-12679
▁label	-12680
▁manne	-12681
▁mante	-12682
▁mince	-12683
▁neuve	-12684
▁piège	-12685
▁prédé	-12686
▁réels	-12687
▁stagi	-12688
▁verse	-12689
accéder	-12690
▁Classe	-12691
▁Gaulle	-12692
▁Marine	-12693
▁Street	-12694
▁Xavier	-12695
▁boucle	-12696
▁bourse	-12697
▁cahier	-12698
▁dragon	-12699
▁essaie	-12700
▁facade	-12701
▁fierté	-12702
▁livrer	-12703
▁rendus	-12704
▁robots	-12705
▁volant	-12706
________	-12707
finition	-12708
installe	-12709
écrivain	-12710
éléments	-12711
▁Angeles	-12712
▁Défense	-12713
▁Restaur	-12714
▁Vietnam	-12715
▁assisté	-12716
▁cookies	-12717
▁correct	-12718
▁densité	-12719
▁décrire	-12720
▁guerres	-12721
▁majeurs	-12722
▁notions	-12723
▁prenait	-12724
▁préserv	-12725
▁rattach	-12726
▁rigueur	-12727
▁sagesse	-12728
▁sexuels	-12729
▁séjours	-12730
▁vitrage	-12731
▁Chapitre	-12732
▁cheminée	-12733
▁cocktail	-12734
▁conserve	-12735
▁couronne	-12736
▁entraine	-12737
▁inconnue	-12738
▁redonner	-12739
▁régulier	-12740
▁syndicat	-12741
▁écriture	-12742
▁étranger	-12743
assistance	-12744
ordinateur	-12745
▁Continuer	-12746
▁effectifs	-12747
▁identique	-12748
▁rendement	-12749
▁répondent	-12750
▁satisfais	-12751
▁Européenne	-12752
▁concernées	-12753
▁intentions	-12754
▁juridiques	-12755
▁silhouette	-12756
▁suspension	-12757
▁tentatives	-12758
▁artistiques	-12759
▁explication	-12760
▁spectateurs	-12761
▁Méditerranée	-12762
▁téléphonique	-12763
▁apprentissage	-12764
▁entrepreneurs	-12765
▁intéressantes	-12766
▁fonctionnalité	-12767
▁infrastructures	-12768
EM	-12769
ae	-12770
dl	-12771
39;	-12772
ERT	-12773
LES	-12774
anz	-12775
aps	-12776
cat	-12777
ecc	-12778
mie	-12779
opt	-12780
xic	-12781
▁59	-12782
▁DS	-12783
▁Gé	-12784
ands	-12785
ardi	-12786
dité	-12787
isco	-12788
mile	-12789
oman	-12790
plan	-12791
tinc	-12792
▁175	-12793
▁Arg	-12794
▁Asi	-12795
▁ICI	-12796
▁Nov	-12797
▁PVC	-12798
▁Ref	-12799
▁Sky	-12800
▁Tit	-12801
▁bad	-12802
▁bor	-12803
▁crê	-12804
▁rdv	-12805
acier	-12806
ampli	-12807
entez	-12808
ierie	-12809
impôt	-12810
leurs	-12811
obser	-12812
ointe	-12813
point	-12814
quité	-12815
éenne	-12816
éries	-12817
évent	-12818
▁...)	-12819
▁1950	-12820
▁Béné	-12821
▁Cuba	-12822
▁DANS	-12823
▁FRAN	-12824
▁Hist	-12825
▁Made	-12826
▁Phil	-12827
▁cime	-12828
▁doré	-12829
▁grad	-12830
▁lune	-12831
▁nuis	-12832
▁pais	-12833
▁tirs	-12834
▁vols	-12835
ancier	-12836
chauss	-12837
enaire	-12838
ophone	-12839
opping	-12840
partie	-12841
quième	-12842
▁2006,	-12843
▁Apple	-12844
▁Idéal	-12845
▁Libre	-12846
▁Nancy	-12847
▁angle	-12848
▁animé	-12849
▁blind	-12850
▁broch	-12851
▁côtes	-12852
▁flamb	-12853
▁fouet	-12854
▁parts	-12855
▁révis	-12856
▁signi	-12857
▁voter	-12858
ctoires	-12859
essence	-12860
ockerjr	-12861
▁Projet	-12862
▁Sylvie	-12863
▁caisse	-12864
▁copine	-12865
▁cuisin	-12866
▁débute	-12867
▁déclin	-12868
▁décoll	-12869
▁habite	-12870
▁périph	-12871
▁sauter	-12872
▁triple	-12873
▁vendus	-12874
▁Sénégal	-12875
▁bactéri	-12876
▁casting	-12877
▁coloris	-12878
▁dirigée	-12879
▁impermé	-12880
▁informé	-12881
▁plongée	-12882
▁réparer	-12883
▁solides	-12884
▁sortent	-12885
▁énormes	-12886
▁Archives	-12887
▁Florence	-12888
▁Veuillez	-12889
▁hospital	-12890
▁pockerjr	-12891
▁prétexte	-12892
▁ridicule	-12893
▁terminée	-12894
▁tournant	-12895
▁vitesses	-12896
▁abordable	-12897
▁bénéfices	-12898
▁cinquième	-12899
▁conscient	-12900
▁créatures	-12901
▁débutants	-12902
▁mécanisme	-12903
▁priorités	-12904
▁promesses	-12905
▁suffisant	-12906
accompagner	-12907
▁navigateur	-12908
▁rembourser	-12909
▁réflexions	-12910
▁substances	-12911
▁variations	-12912
▁institution	-12913
▁sélectionné	-12914
▁travaillant	-12915
▁Applications	-12916
▁considérable	-12917
▁indépendante	-12918
▁législatives	-12919
▁administratif	-12920
▁organisateurs	-12921
64	-12922
PR	-12923
ws	-12924
ет	-12925
lem	-12926
rue	-12927
via	-12928
éga	-12929
▁9,	-12930
▁DI	-12931
::::	-12932
IIIe	-12933
ador	-12934
amed	-12935
aqué	-12936
geot	-12937
oxyd	-12938
phab	-12939
pres	-12940
rira	-12941
rive	-12942
tell	-12943
uela	-12944
uzzi	-12945
▁1,5	-12946
▁Alt	-12947
▁GRA	-12948
▁Ger	-12949
▁Jui	-12950
▁Lut	-12951
▁MEN	-12952
▁Pon	-12953
▁mad	-12954
▁sep	-12955
▁soc	-12956
▁twe	-12957
▁Île	-12958
▁œil	-12959
Alpes	-12960
aucun	-12961
bonne	-12962
chard	-12963
endum	-12964
habil	-12965
média	-12966
odore	-12967
onnet	-12968
ridge	-12969
▁!!!!	-12970
▁Aide	-12971
▁Etat	-12972
▁Free	-12973
▁Gold	-12974
▁Porn	-12975
▁Word	-12976
▁entr	-12977
▁incl	-12978
▁mien	-12979
▁narr	-12980
▁péch	-12981
▁this	-12982
▁trah	-12983
▁éman	-12984
▁îles	-12985
allais	-12986
mètres	-12987
omètre	-12988
uscule	-12989
épanou	-12990
▁Andre	-12991
▁Laval	-12992
▁Lucie	-12993
▁Poste	-12994
▁caché	-12995
▁chimi	-12996
▁décla	-12997
▁juifs	-12998
▁monop	-12999
▁média	-13000
▁révol	-13001
▁veste	-13002
▁virus	-13003
▁épais	-13004
Jacques	-13005
affiche	-13006
épisode	-13007
▁Office	-13008
▁Orient	-13009
▁Propos	-13010
▁Termin	-13011
▁antéri	-13012
▁arômes	-13013
▁attent	-13014
▁bouill	-13015
▁bovins	-13016
▁divine	-13017
▁donnez	-13018
▁donnés	-13019
▁décida	-13020
▁histor	-13021
▁humour	-13022
▁incomp	-13023
▁noires	-13024
▁précon	-13025
▁relais	-13026
▁repère	-13027
▁requis	-13028
Internet	-13029
individu	-13030
quemment	-13031
▁partant	-13032
▁réglage	-13033
▁usagers	-13034
▁viendra	-13035
▁éclaire	-13036
▁éleveur	-13037
arisation	-13038
employeur	-13039
▁Allemand	-13040
▁Business	-13041
▁Deuxième	-13042
▁Ensemble	-13043
▁Nathalie	-13044
▁affinity	-13045
▁approxim	-13046
▁demandez	-13047
▁douleurs	-13048
▁Jérusalem	-13049
▁culturels	-13050
▁détriment	-13051
▁installés	-13052
▁puissants	-13053
▁sanitaire	-13054
▁solidaire	-13055
▁souligner	-13056
▁tranquill	-13057
▁Disponible	-13058
▁circulaire	-13059
▁ingénieurs	-13060
▁champignons	-13061
▁disparaître	-13062
▁smartphones	-13063
▁architecture	-13064
▁opportunités	-13065
▁accompagnement	-13066
▁universitaires	-13067
,.	-13068
SM	-13069
[1	-13070
wa	-13071
▁ч	-13072
esh	-13073
mas	-13074
pot	-13075
sem	-13076
str	-13077
ual	-13078
uck	-13079
yan	-13080
▁%,	-13081
▁NE	-13082
arin	-13083
bons	-13084
eres	-13085
gure	-13086
lège	-13087
obel	-13088
émor	-13089
▁Dev	-13090
▁Fac	-13091
▁Feu	-13092
▁Lit	-13093
▁Mot	-13094
▁SER	-13095
▁Vic	-13096
▁aig	-13097
▁bur	-13098
▁fau	-13099
▁her	-13100
▁loy	-13101
▁pig	-13102
▁pyr	-13103
▁pép	-13104
▁éte	-13105
achet	-13106
ajout	-13107
arbre	-13108
eller	-13109
instr	-13110
isent	-13111
océan	-13112
émerg	-13113
▁Bush	-13114
▁Chou	-13115
▁Dipl	-13116
▁Love	-13117
▁Moll	-13118
▁Quar	-13119
▁Soit	-13120
▁aidé	-13121
▁arom	-13122
▁aval	-13123
▁axes	-13124
▁bars	-13125
▁cann	-13126
▁céré	-13127
▁dira	-13128
▁engl	-13129
▁file	-13130
▁home	-13131
▁pard	-13132
▁rage	-13133
▁refl	-13134
▁tamp	-13135
▁théâ	-13136
▁trio	-13137
actory	-13138
amuser	-13139
angers	-13140
encier	-13141
nières	-13142
érable	-13143
▁2003,	-13144
▁2005,	-13145
▁2008.	-13146
▁Corée	-13147
▁Night	-13148
▁Passe	-13149
▁Power	-13150
▁amène	-13151
▁coins	-13152
▁créés	-13153
▁délib	-13154
▁enter	-13155
▁fines	-13156
▁grise	-13157
▁jolis	-13158
▁leçon	-13159
▁menus	-13160
▁roses	-13161
▁saine	-13162
▁égale	-13163
onnante	-13164
ressent	-13165
▁accusé	-13166
▁chalet	-13167
▁confié	-13168
▁gluten	-13169
▁nostal	-13170
▁poussé	-13171
▁provis	-13172
▁valise	-13173
▁volets	-13174
▁étoile	-13175
internet	-13176
▁convivi	-13177
▁copains	-13178
▁ferrovi	-13179
▁fournis	-13180
▁intègre	-13181
▁magistr	-13182
▁origine	-13183
▁panique	-13184
▁parlait	-13185
▁pensait	-13186
▁profité	-13187
▁suprême	-13188
▁tranche	-13189
▁évêques	-13190
obtention	-13191
▁Grenoble	-13192
▁afficher	-13193
▁chinoise	-13194
▁conclure	-13195
▁conjoint	-13196
▁diffuser	-13197
▁diminuer	-13198
▁détaillé	-13199
▁factures	-13200
▁posséder	-13201
▁remplace	-13202
▁rivières	-13203
▁souffrir	-13204
▁spécific	-13205
▁tiennent	-13206
▁Politique	-13207
▁africaine	-13208
▁associées	-13209
▁chapitres	-13210
▁deviendra	-13211
▁optimiser	-13212
▁originaux	-13213
▁partagent	-13214
▁portraits	-13215
▁vainqueur	-13216
▁dramatique	-13217
▁management	-13218
▁mystérieux	-13219
▁négociation	-13220
▁participant	-13221
▁participent	-13222
▁terroristes	-13223
▁civilisation	-13224
▁intervenants	-13225
▁littéralement	-13226
▁signification	-13227
/7	-13228
Ah	-13229
Az	-13230
FM	-13231
AFP	-13232
ORD	-13233
med	-13234
mph	-13235
ove	-13236
▁61	-13237
▁JO	-13238
▁Lé	-13239
▁MC	-13240
▁SO	-13241
▁[1	-13242
▁mn	-13243
html	-13244
olle	-13245
osex	-13246
post	-13247
▁Cay	-13248
▁Cos	-13249
▁Gas	-13250
▁Han	-13251
▁LNH	-13252
▁Tes	-13253
▁oli	-13254
▁sap	-13255
▁tan	-13256
▁uni	-13257
avère	-13258
cence	-13259
enait	-13260
icité	-13261
intim	-13262
lises	-13263
mbles	-13264
merci	-13265
oller	-13266
press	-13267
tones	-13268
viers	-13269
ôtres	-13270
▁Dist	-13271
▁Mali	-13272
▁Mans	-13273
▁Miss	-13274
▁Plut	-13275
▁Rach	-13276
▁XIXe	-13277
▁cest	-13278
▁coch	-13279
▁folk	-13280
▁inég	-13281
▁lamp	-13282
▁lesb	-13283
▁saga	-13284
▁team	-13285
▁tron	-13286
▁voté	-13287
abelle	-13288
effond	-13289
ermain	-13290
objets	-13291
office	-13292
oignez	-13293
ousses	-13294
tilles	-13295
élèves	-13296
▁Ouest	-13297
▁Pense	-13298
▁Timéo	-13299
▁paill	-13300
▁roche	-13301
▁égard	-13302
▁épuis	-13303
ionnats	-13304
écouter	-13305
▁congés	-13306
▁devint	-13307
▁doctor	-13308
▁décont	-13309
▁enchaî	-13310
▁extrém	-13311
▁formés	-13312
▁pertes	-13313
▁pleins	-13314
▁quinze	-13315
▁restri	-13316
▁suivez	-13317
▁tirage	-13318
▁verser	-13319
▁vertus	-13320
otection	-13321
▁Ajoutez	-13322
▁bateaux	-13323
▁broyeur	-13324
▁couloir	-13325
▁couture	-13326
▁exister	-13327
▁libéral	-13328
▁répéter	-13329
▁saurait	-13330
▁veiller	-13331
▁éditeur	-13332
interface	-13333
sionnaire	-13334
▁Commerce	-13335
▁Pratique	-13336
▁bonhomme	-13337
▁cinquant	-13338
▁dessiner	-13339
▁détendre	-13340
▁externes	-13341
▁montrant	-13342
▁mythique	-13343
▁tournage	-13344
excellence	-13345
▁bienveill	-13346
▁convaincu	-13347
▁déroulera	-13348
▁interface	-13349
▁pharmaceu	-13350
▁équitable	-13351
▁Immobilier	-13352
▁conducteur	-13353
▁développée	-13354
▁exemplaire	-13355
▁méditerran	-13356
▁célibataire	-13357
▁intelligent	-13358
▁respiration	-13359
▁spirituelle	-13360
▁universités	-13361
▁visiblement	-13362
▁consommateur	-13363
▁destinations	-13364
▁manipulation	-13365
▁observations	-13366
▁Effectivement	-13367
▁qualification	-13368
")	-13369
HA	-13370
my	-13371
sw	-13372
xy	-13373
°1	-13374
-20	-13375
OUV	-13376
amé	-13377
hal	-13378
ipp	-13379
not	-13380
udy	-13381
vue	-13382
▁51	-13383
▁62	-13384
▁DA	-13385
▁Oz	-13386
▁pH	-13387
Alex	-13388
Irak	-13389
ampe	-13390
arti	-13391
ceau	-13392
chem	-13393
lave	-13394
tics	-13395
▁188	-13396
▁Bet	-13397
▁Duc	-13398
▁Ech	-13399
▁Kit	-13400
▁Lan	-13401
▁Maj	-13402
▁Pil	-13403
▁bip	-13404
▁déç	-13405
▁hur	-13406
▁lus	-13407
&#39;	-13408
alons	-13409
astes	-13410
chers	-13411
dicat	-13412
femme	-13413
ibres	-13414
inaug	-13415
quins	-13416
▁Amer	-13417
▁Cast	-13418
▁Proc	-13419
▁Soud	-13420
▁baby	-13421
▁barr	-13422
▁chor	-13423
▁cils	-13424
▁embr	-13425
▁foie	-13426
▁juif	-13427
▁lign	-13428
▁mani	-13429
▁mâle	-13430
▁plug	-13431
▁sale	-13432
▁scri	-13433
▁somm	-13434
▁tamb	-13435
agnies	-13436
appuie	-13437
ariats	-13438
cières	-13439
espèce	-13440
instar	-13441
opport	-13442
ousser	-13443
▁Croix	-13444
▁Laura	-13445
▁Olymp	-13446
▁aspir	-13447
▁béton	-13448
▁guise	-13449
▁manus	-13450
▁mixte	-13451
▁recyc	-13452
▁remor	-13453
▁trail	-13454
▁tunis	-13455
▁villa	-13456
/11/201	-13457
antaine	-13458
octobre	-13459
surtout	-13460
▁Jérôme	-13461
▁bambou	-13462
▁brosse	-13463
▁campus	-13464
▁désesp	-13465
▁hebdom	-13466
▁imposé	-13467
▁misère	-13468
▁occupé	-13469
▁perdue	-13470
▁persév	-13471
▁refuge	-13472
▁résolu	-13473
▁résume	-13474
▁sauvet	-13475
▁ultime	-13476
▁viagra	-13477
Bretagne	-13478
adoption	-13479
anniques	-13480
articles	-13481
dication	-13482
illement	-13483
olitique	-13484
▁boisson	-13485
▁claires	-13486
▁colonne	-13487
▁cuisses	-13488
▁détruit	-13489
▁entrées	-13490
▁futures	-13491
▁latéral	-13492
▁protégé	-13493
▁recense	-13494
▁savoirs	-13495
▁servant	-13496
▁vivants	-13497
▁volumes	-13498
émergence	-13499
épaisseur	-13500
▁annuaire	-13501
▁avancées	-13502
▁concepts	-13503
▁connecté	-13504
▁constaté	-13505
▁construc	-13506
▁enquêtes	-13507
▁fabrique	-13508
▁hypothéc	-13509
▁immeuble	-13510
▁lumières	-13511
▁manières	-13512
▁palestin	-13513
▁primordi	-13514
▁regrette	-13515
▁remporte	-13516
▁soutenue	-13517
▁supporte	-13518
▁transmet	-13519
▁échapper	-13520
▁élégante	-13521
alisations	-13522
▁Australie	-13523
▁Consultez	-13524
▁Contactez	-13525
▁Seulement	-13526
▁Sébastien	-13527
▁champions	-13528
▁charmante	-13529
▁chaussure	-13530
▁cohérence	-13531
▁contrôles	-13532
▁mentionné	-13533
▁modernité	-13534
▁monuments	-13535
▁passagers	-13536
▁Luxembourg	-13537
▁opposition	-13538
▁intégration	-13539
▁Communication	-13540
▁considération	-13541
▁partiellement	-13542
▁préoccupations	-13543
▁Personnellement	-13544
▁administratives	-13545
▁confidentialité	-13546
):	-13547
46	-13548
ng	-13549
ERN	-13550
afé	-13551
elé	-13552
ida	-13553
tor	-13554
▁BE	-13555
▁GT	-13556
▁IL	-13557
▁LG	-13558
▁TF	-13559
▁VA	-13560
▁af	-13561
▁ah	-13562
????	-13563
Tube	-13564
anca	-13565
ican	-13566
ilée	-13567
judi	-13568
oney	-13569
onté	-13570
édée	-13571
▁!).	-13572
▁Alb	-13573
▁Cog	-13574
▁FOR	-13575
▁Far	-13576
▁Ini	-13577
▁Kyo	-13578
▁Nap	-13579
▁Nat	-13580
▁Nik	-13581
▁PME	-13582
▁Pau	-13583
▁VTT	-13584
▁Wat	-13585
▁bid	-13586
▁flu	-13587
▁flè	-13588
▁imb	-13589
▁nue	-13590
▁rez	-13591
▁éco	-13592
Loire	-13593
Louis	-13594
atisé	-13595
atric	-13596
herbe	-13597
olles	-13598
ordan	-13599
orial	-13600
élène	-13601
▁Asie	-13602
▁Cass	-13603
▁Hold	-13604
▁Véri	-13605
▁amor	-13606
▁anal	-13607
▁jupe	-13608
▁obsc	-13609
▁unif	-13610
▁vamp	-13611
▁verd	-13612
▁âgée	-13613
anning	-13614
ignant	-13615
onnent	-13616
outils	-13617
telier	-13618
tifier	-13619
urance	-13620
▁2010.	-13621
▁Avoir	-13622
▁Peint	-13623
▁apres	-13624
▁défic	-13625
▁fêter	-13626
▁goûts	-13627
▁jette	-13628
▁noble	-13629
▁nourr	-13630
▁nuage	-13631
▁poils	-13632
▁réuni	-13633
▁sexes	-13634
▁étais	-13635
emplois	-13636
ovision	-13637
échappe	-13638
élevage	-13639
élément	-13640
érature	-13641
▁Associ	-13642
▁Compte	-13643
▁Didier	-13644
▁Donald	-13645
▁Manuel	-13646
▁affili	-13647
▁attiré	-13648
▁caress	-13649
▁dirais	-13650
▁exposé	-13651
▁fluide	-13652
▁incons	-13653
▁leçons	-13654
▁marbre	-13655
▁placés	-13656
▁rendue	-13657
▁tombée	-13658
▁témoin	-13659
▁vraies	-13660
François	-13661
audience	-13662
▁Salomon	-13663
▁astuces	-13664
▁attaché	-13665
▁clichés	-13666
▁consécu	-13667
▁empêche	-13668
▁fameuse	-13669
▁obtenus	-13670
▁paradox	-13671
▁scrutin	-13672
▁soigner	-13673
▁visionn	-13674
▁étendue	-13675
assemblée	-13676
▁Institut	-13677
▁blessure	-13678
▁célébrer	-13679
▁designer	-13680
▁démarrer	-13681
▁désigner	-13682
▁fabuleux	-13683
▁habitude	-13684
▁incendie	-13685
▁incluant	-13686
▁lectures	-13687
▁migrants	-13688
▁multipli	-13689
▁survivre	-13690
▁témoigne	-13691
▁Livraison	-13692
▁bourgeois	-13693
▁chasseurs	-13694
▁démission	-13695
▁incapable	-13696
▁interlocu	-13697
▁interprét	-13698
▁passionné	-13699
▁soumettre	-13700
imagination	-13701
intégralité	-13702
▁chrétienne	-13703
▁compagnies	-13704
▁islamistes	-13705
▁préférable	-13706
▁surprenant	-13707
▁surveiller	-13708
▁validation	-13709
▁chaleureuse	-13710
▁distinction	-13711
▁déroulement	-13712
▁ordinateurs	-13713
▁thématiques	-13714
▁agriculteurs	-13715
▁fondamentaux	-13716
▁Environnement	-13717
▁détermination	-13718
▁informatiques	-13719
);	-13720
DS	-13721
DT	-13722
Ge	-13723
RL	-13724
po	-13725
vo	-13726
wn	-13727
ât	-13728
ст	-13729
IRL	-13730
aki	-13731
até	-13732
dee	-13733
déc	-13734
ecd	-13735
ios	-13736
pha	-13737
éry	-13738
▁1:	-13739
▁IM	-13740
▁SH	-13741
anée	-13742
dies	-13743
exer	-13744
isti	-13745
lène	-13746
ople	-13747
ster	-13748
èves	-13749
▁;-)	-13750
▁Aug	-13751
▁Cad	-13752
▁Lev	-13753
▁Riv	-13754
▁Wol	-13755
▁cho	-13756
▁erg	-13757
▁ste	-13758
▁tic	-13759
▁vom	-13760
▁ème	-13761
Ordre	-13762
anter	-13763
enfer	-13764
hôtes	-13765
iciel	-13766
media	-13767
olais	-13768
ports	-13769
raîch	-13770
ustom	-13771
▁Alli	-13772
▁Anth	-13773
▁COMM	-13774
▁Case	-13775
▁Défi	-13776
▁Magn	-13777
▁Post	-13778
▁fres	-13779
▁fuir	-13780
▁holl	-13781
▁irak	-13782
▁isra	-13783
▁jazz	-13784
▁pôle	-13785
▁rous	-13786
▁spot	-13787
▁tons	-13788
▁tors	-13789
▁tram	-13790
▁âmes	-13791
Empire	-13792
enrich	-13793
estern	-13794
orelle	-13795
orteur	-13796
ortier	-13797
élérer	-13798
▁Brand	-13799
▁Congo	-13800
▁Etudi	-13801
▁Julie	-13802
▁Robin	-13803
▁Sorti	-13804
▁Série	-13805
▁Tapis	-13806
▁Thème	-13807
▁Tokyo	-13808
▁condi	-13809
▁gardé	-13810
▁immun	-13811
▁isolé	-13812
▁levée	-13813
▁merde	-13814
▁rentr	-13815
▁seuil	-13816
▁short	-13817
▁tabou	-13818
▁tuyau	-13819
▁varie	-13820
acances	-13821
attends	-13822
lecteur	-13823
lusions	-13824
meubles	-13825
ométrie	-13826
resseur	-13827
tiendra	-13828
▁Classi	-13829
▁Nicole	-13830
▁Orange	-13831
▁Prince	-13832
▁Sophie	-13833
▁Tribun	-13834
▁Vendée	-13835
▁Victor	-13836
▁Visite	-13837
▁cabine	-13838
▁combus	-13839
▁fermés	-13840
▁forcer	-13841
▁franco	-13842
▁gardes	-13843
▁lourde	-13844
▁recons	-13845
▁serons	-13846
abulaire	-13847
cherelle	-13848
déjeuner	-13849
pectueux	-13850
▁Achetez	-13851
▁Charlie	-13852
▁Cybille	-13853
▁Moderne	-13854
▁Princip	-13855
▁abonnés	-13856
▁accords	-13857
▁boucles	-13858
▁engagés	-13859
▁faculté	-13860
▁fausses	-13861
▁imprimé	-13862
▁modeste	-13863
▁monstre	-13864
▁organes	-13865
▁pétroli	-13866
▁réclame	-13867
▁réelles	-13868
▁réussit	-13869
▁échéant	-13870
▁épaisse	-13871
▁établie	-13872
▁Prophète	-13873
▁Théodore	-13874
▁aisément	-13875
▁annoncer	-13876
▁arrivant	-13877
▁commandé	-13878
▁durables	-13879
▁facilite	-13880
▁fixation	-13881
▁hectares	-13882
▁lymphome	-13883
▁sanction	-13884
▁sections	-13885
▁signaler	-13886
▁symboles	-13887
▁sécurisé	-13888
expédition	-13889
sionnaires	-13890
▁blessures	-13891
▁exterieur	-13892
▁libertine	-13893
▁métropole	-13894
▁placement	-13895
hébergement	-13896
▁Catégories	-13897
▁délégation	-13898
▁entretiens	-13899
▁grandement	-13900
▁présidente	-13901
▁représenté	-13902
▁congelateur	-13903
▁fréquemment	-13904
▁permettrait	-13905
▁techniciens	-13906
▁confortables	-13907
▁illustrations	-13908
▁mathématiques	-13909
▁administrative	-13910
▁arrondissement	-13911
▁communautaires	-13912
/5	-13913
41	-13914
FL	-13915
FS	-13916
GA	-13917
Ne	-13918
Tr	-13919
ua	-13920
zo	-13921
▁б	-13922
Pas	-13923
aïs	-13924
cas	-13925
dus	-13926
ech	-13927
inn	-13928
lar	-13929
lav	-13930
uce	-13931
wan	-13932
zer	-13933
▁-,	-13934
▁Ok	-13935
▁râ	-13936
▁rô	-13937
INES	-13938
amer	-13939
eron	-13940
ipel	-13941
oner	-13942
phém	-13943
tera	-13944
▁Day	-13945
▁Gle	-13946
▁Mut	-13947
▁Mém	-13948
▁Pér	-13949
▁Réc	-13950
▁Tir	-13951
▁Tra	-13952
▁job	-13953
▁lev	-13954
▁los	-13955
▁vil	-13956
Entre	-13957
Seine	-13958
ançon	-13959
ateau	-13960
escal	-13961
ignes	-13962
illés	-13963
tiser	-13964
ulsar	-13965
▁1970	-13966
▁Boud	-13967
▁Hill	-13968
▁Mère	-13969
▁Sont	-13970
▁ajus	-13971
▁dons	-13972
▁doué	-13973
▁flui	-13974
▁foss	-13975
▁jugé	-13976
▁paup	-13977
▁rall	-13978
▁rhum	-13979
▁ritu	-13980
▁your	-13981
▁»...	-13982
effici	-13983
entier	-13984
hypoth	-13985
iderot	-13986
orange	-13987
oriste	-13988
vergne	-13989
▁2007.	-13990
▁Corps	-13991
▁Frank	-13992
▁Mardi	-13993
▁Route	-13994
▁SAINT	-13995
▁Style	-13996
▁apais	-13997
▁bêtes	-13998
▁comte	-13999
▁crédi	-14000
▁dinos	-14001
▁ferai	-14002
▁group	-14003
▁ouest	-14004
▁poule	-14005
▁rugby	-14006
▁rural	-14007
▁taxes	-14008
▁écout	-14009
Orléans	-14010
aissait	-14011
antiers	-14012
ifornie	-14013
indique	-14014
pertuis	-14015
urrence	-14016
▁Dumont	-14017
▁Mettez	-14018
▁Sachez	-14019
▁Vienne	-14020
▁Virgin	-14021
▁armées	-14022
▁buffet	-14023
▁coller	-14024
▁consci	-14025
▁cordes	-14026
▁croyez	-14027
▁disons	-14028
▁déchir	-14029
▁exerce	-14030
▁perpét	-14031
▁rachat	-14032
▁refroi	-14033
▁réform	-14034
▁sortis	-14035
▁spacie	-14036
▁statue	-14037
harmonie	-14038
interrog	-14039
▁Diderot	-14040
▁Galerie	-14041
▁avocats	-14042
▁chanter	-14043
▁chauffe	-14044
▁cherché	-14045
▁clavier	-14046
▁demanda	-14047
▁descrip	-14048
▁dignité	-14049
▁dérange	-14050
▁fragile	-14051
▁graisse	-14052
▁grecque	-14053
▁légales	-14054
extension	-14055
ghanistan	-14056
▁acceptez	-14057
▁ambition	-14058
▁circuits	-14059
▁concerné	-14060
▁coquines	-14061
▁courante	-14062
▁dénoncer	-14063
▁explorer	-14064
▁franchir	-14065
▁inspirée	-14066
▁institut	-14067
▁purement	-14068
▁réserves	-14069
▁réservée	-14070
▁toilette	-14071
occupation	-14072
événements	-14073
▁ambitieux	-14074
▁autrefois	-14075
▁carrément	-14076
▁concentré	-14077
▁démarrage	-14078
▁déterminé	-14079
▁effectués	-14080
▁japonaise	-14081
▁quantités	-14082
▁richesses	-14083
▁résidents	-14084
▁Patrimoine	-14085
▁adaptation	-14086
▁complicité	-14087
▁conviction	-14088
▁distinguer	-14089
▁rapprocher	-14090
▁relaxation	-14091
▁reproduire	-14092
▁répétition	-14093
▁silencieux	-14094
▁succession	-14095
▁accompagnés	-14096
▁architectur	-14097
▁commerçants	-14098
▁contiennent	-14099
▁immobiliers	-14100
▁majoritaire	-14101
international	-14102
▁Cordialement	-14103
▁municipalité	-14104
▁conversations	-14105
▁individuelles	-14106
▁indispensables	-14107
%)	-14108
71	-14109
Ac	-14110
EV	-14111
FC	-14112
QL	-14113
}}	-14114
ÉS	-14115
300	-14116
500	-14117
AMB	-14118
All	-14119
Ath	-14120
Pro	-14121
aim	-14122
ife	-14123
nom	-14124
oke	-14125
win	-14126
▁("	-14127
▁Gt	-14128
▁TH	-14129
▁To	-14130
▁ec	-14131
▁vr	-14132
Dame	-14133
Laur	-14134
QUES	-14135
appé	-14136
arra	-14137
dium	-14138
fiez	-14139
ints	-14140
osta	-14141
raux	-14142
tina	-14143
trav	-14144
épar	-14145
▁750	-14146
▁Bow	-14147
▁Bén	-14148
▁CDI	-14149
▁Sum	-14150
▁Tch	-14151
▁Vin	-14152
▁XXe	-14153
▁[18	-14154
▁are	-14155
▁fat	-14156
▁nan	-14157
acter	-14158
chron	-14159
ellés	-14160
icone	-14161
jamin	-14162
olage	-14163
olore	-14164
quons	-14165
shirt	-14166
tabil	-14167
vains	-14168
ènent	-14169
ètent	-14170
▁AVEC	-14171
▁Best	-14172
▁Expl	-14173
▁Open	-14174
▁caps	-14175
▁cite	-14176
▁delà	-14177
▁dioc	-14178
▁fang	-14179
▁mord	-14180
▁tape	-14181
▁taxi	-14182
▁tete	-14183
▁that	-14184
▁vacc	-14185
▁État	-14186
▁égyp	-14187
agisse	-14188
cembre	-14189
esthés	-14190
ources	-14191
sionné	-14192
▁.....	-14193
▁Coran	-14194
▁Métis	-14195
▁aperç	-14196
▁cessé	-14197
▁dieux	-14198
▁fibre	-14199
▁gains	-14200
▁moule	-14201
▁natal	-14202
▁pouce	-14203
▁soupe	-14204
▁sueur	-14205
▁voler	-14206
illages	-14207
tigieux	-14208
émotion	-14209
▁Bénéfi	-14210
▁Cheval	-14211
▁Jeunes	-14212
▁Moscou	-14213
▁Pulsar	-14214
▁Unique	-14215
▁bottes	-14216
▁canaux	-14217
▁chimie	-14218
▁croise	-14219
▁harmon	-14220
▁larges	-14221
▁mondes	-14222
▁navire	-14223
▁pleure	-14224
▁péchés	-14225
▁romain	-14226
▁royale	-14227
▁soldes	-14228
acquérir	-14229
inations	-14230
investir	-14231
▁Francis	-14232
▁Gilbert	-14233
▁Laisser	-14234
▁Octobre	-14235
▁Qualité	-14236
▁ajoutez	-14237
▁capteur	-14238
▁chaudes	-14239
▁conjoin	-14240
▁devenus	-14241
▁exprimé	-14242
▁honneur	-14243
▁matinée	-14244
▁meurtre	-14245
▁reviend	-14246
▁soudain	-14247
▁églises	-14248
formément	-14249
▁Bertrand	-14250
▁Pyrénées	-14251
▁ajoutant	-14252
▁boissons	-14253
▁collègue	-14254
▁complets	-14255
▁consacre	-14256
▁déclarer	-14257
▁généreux	-14258
▁libertin	-14259
▁plancher	-14260
▁policier	-14261
▁précises	-14262
▁relatifs	-14263
▁sentiers	-14264
▁surement	-14265
▁thérapie	-14266
▁variétés	-14267
▁écrivain	-14268
cieusement	-14269
▁Pratiques	-14270
▁allemands	-14271
▁approprié	-14272
▁cherchant	-14273
▁demandait	-14274
▁disciples	-14275
▁entourage	-14276
▁installée	-14277
▁plomberie	-14278
▁recherché	-14279
▁remporter	-14280
▁résistant	-14281
▁solitaire	-14282
▁substance	-14283
▁sérieuses	-14284
▁électeurs	-14285
▁évènement	-14286
▁définitive	-14287
▁influences	-14288
▁sculptures	-14289
▁spécialité	-14290
▁individuels	-14291
▁Construction	-14292
▁Informations	-14293
▁cinquantaine	-14294
▁démonstration	-14295
CP	-14296
Gr	-14297
LT	-14298
Pr	-14299
uv	-14300
ïn	-14301
/01	-14302
1).	-14303
cop	-14304
oce	-14305
oît	-14306
tén	-14307
▁91	-14308
▁HT	-14309
▁Pâ	-14310
▁ax	-14311
▁lé	-14312
▁na	-14313
ANCE	-14314
agen	-14315
auph	-14316
deux	-14317
enix	-14318
etti	-14319
mité	-14320
nest	-14321
oude	-14322
outi	-14323
tage	-14324
vice	-14325
émon	-14326
▁12,	-14327
▁179	-14328
▁???	-14329
▁Cél	-14330
▁DNA	-14331
▁Dam	-14332
▁Die	-14333
▁Dos	-14334
▁Pla	-14335
▁Rub	-14336
▁SMS	-14337
▁bic	-14338
▁blé	-14339
Amour	-14340
ardez	-14341
arros	-14342
diens	-14343
graph	-14344
ineau	-14345
lante	-14346
lions	-14347
ourer	-14348
overs	-14349
viève	-14350
▁1998	-14351
▁2020	-14352
▁Août	-14353
▁Avez	-14354
▁Bond	-14355
▁Cité	-14356
▁Faut	-14357
▁Game	-14358
▁Gris	-14359
▁Leon	-14360
▁MAIS	-14361
▁Mour	-14362
▁Spor	-14363
▁Type	-14364
▁Wood	-14365
▁baie	-14366
▁clos	-14367
▁déni	-14368
▁fous	-14369
▁héri	-14370
▁noel	-14371
▁orch	-14372
▁soft	-14373
▁surp	-14374
▁écho	-14375
Israël	-14376
emment	-14377
icales	-14378
iciens	-14379
istent	-14380
mesure	-14381
orient	-14382
prises	-14383
ternel	-14384
égraph	-14385
▁2002,	-14386
▁2004,	-14387
▁Corse	-14388
▁Force	-14389
▁Lundi	-14390
▁autoc	-14391
▁bourg	-14392
▁caric	-14393
▁céréb	-14394
▁diplô	-14395
▁débar	-14396
▁fiers	-14397
▁grade	-14398
▁illim	-14399
▁poker	-14400
▁posée	-14401
▁péché	-14402
▁ravis	-14403
▁start	-14404
▁échec	-14405
eurette	-14406
opriété	-14407
ticiens	-14408
▁Rappel	-14409
▁Simple	-14410
▁arabes	-14411
▁avouer	-14412
▁débuté	-14413
▁désirs	-14414
▁fermée	-14415
▁firent	-14416
▁posent	-14417
▁réconc	-14418
▁struct	-14419
▁trésor	-14420
antation	-14421
ceptions	-14422
térieure	-14423
▁Organis	-14424
▁accompl	-14425
▁balance	-14426
▁chargés	-14427
▁clôture	-14428
▁colonie	-14429
▁devoirs	-14430
▁inverse	-14431
▁marches	-14432
▁opinion	-14433
▁ouvrant	-14434
▁proclam	-14435
▁secrète	-14436
▁sortant	-14437
▁surpren	-14438
▁tchèque	-14439
▁Location	-14440
▁Lorraine	-14441
▁assassin	-14442
▁cavalier	-14443
▁coiffure	-14444
▁colloque	-14445
▁composés	-14446
▁desserte	-14447
▁sessions	-14448
▁Autrement	-14449
▁consommer	-14450
▁invisible	-14451
▁marocaine	-14452
▁portables	-14453
▁ressortir	-14454
▁ressource	-14455
▁reçoivent	-14456
▁répondant	-14457
▁traversée	-14458
▁voulaient	-14459
▁Libération	-14460
▁diminution	-14461
▁effectuées	-14462
▁enseignant	-14463
▁familiales	-14464
▁favorisant	-14465
▁introduire	-14466
▁originaire	-14467
▁phénomènes	-14468
▁provisoire	-14469
▁randonnées	-14470
▁respectant	-14471
▁république	-14472
▁satellites	-14473
▁semblerait	-14474
▁Température	-14475
▁centimètres	-14476
▁gouvernance	-14477
▁indications	-14478
▁pourcentage	-14479
▁prestigieux	-14480
▁conservateur	-14481
▁indépendants	-14482
▁tranquillité	-14483
▁particularité	-14484
▁particulières	-14485
▁significative	-14486
▁correspondance	-14487
▁caractéristique	-14488
Ec	-14489
▁у	-14490
/20	-14491
6).	-14492
Can	-14493
ICE	-14494
Luc	-14495
ONS	-14496
aou	-14497
arl	-14498
dam	-14499
tar	-14500
▁73	-14501
▁Os	-14502
▁RA	-14503
▁Ta	-14504
▁mp	-14505
aban	-14506
anch	-14507
etta	-14508
fond	-14509
obie	-14510
onnu	-14511
ords	-14512
oyés	-14513
temp	-14514
èdes	-14515
énie	-14516
▁(50	-14517
▁125	-14518
▁RDV	-14519
▁Run	-14520
▁Sub	-14521
▁naï	-14522
▁nés	-14523
▁our	-14524
▁pis	-14525
▁sod	-14526
▁vél	-14527
aillé	-14528
ceaux	-14529
ensés	-14530
estér	-14531
icule	-14532
juste	-14533
èbres	-14534
étrie	-14535
▁(199	-14536
▁Abri	-14537
▁Bret	-14538
▁Fair	-14539
▁Fête	-14540
▁Inde	-14541
▁Mary	-14542
▁Merc	-14543
▁Péri	-14544
▁Serr	-14545
▁barb	-14546
▁bret	-14547
▁camb	-14548
▁clan	-14549
▁impl	-14550
▁osse	-14551
▁perf	-14552
▁recr	-14553
▁soif	-14554
▁émet	-14555
arnais	-14556
enneté	-14557
humain	-14558
igence	-14559
illées	-14560
nergie	-14561
refour	-14562
ysique	-14563
▁Autom	-14564
▁Dijon	-14565
▁Matth	-14566
▁Offre	-14567
▁Sénat	-14568
▁ailes	-14569
▁canon	-14570
▁chari	-14571
▁creux	-14572
▁durer	-14573
▁décom	-14574
▁griff	-14575
▁marin	-14576
▁mères	-14577
▁natur	-14578
▁nomme	-14579
▁sauvé	-14580
▁tonne	-14581
aptiste	-14582
horreur	-14583
ussions	-14584
▁Hammam	-14585
▁Images	-14586
▁Mettre	-14587
▁abrite	-14588
▁avancé	-14589
▁bloque	-14590
▁bloqué	-14591
▁chevel	-14592
▁conçus	-14593
▁disais	-14594
▁déesse	-14595
▁latine	-14596
▁lâcher	-14597
▁mignon	-14598
▁nommée	-14599
▁prêter	-14600
▁sanctu	-14601
▁valide	-14602
▁violon	-14603
▁évolue	-14604
▁évolué	-14605
▁évoqué	-14606
assadeur	-14607
viennent	-14608
▁Blanche	-14609
▁Domaine	-14610
▁Mariage	-14611
▁Paysage	-14612
▁anticip	-14613
▁armoire	-14614
▁compact	-14615
▁confier	-14616
▁détenus	-14617
▁détient	-14618
▁informe	-14619
▁initial	-14620
▁manteau	-14621
▁refroid	-14622
▁regards	-14623
▁tomates	-14624
apparence	-14625
isolation	-14626
éclairage	-14627
▁Grégoire	-14628
▁Tribunal	-14629
▁affirmer	-14630
▁agrément	-14631
▁appliqué	-14632
▁comptait	-14633
▁freinage	-14634
▁horizont	-14635
▁marquier	-14636
▁monstres	-14637
▁rafraîch	-14638
▁éliminer	-14639
tissements	-14640
▁affronter	-14641
▁apportent	-14642
▁bénéficié	-14643
▁convivial	-14644
▁fondation	-14645
▁franchise	-14646
▁maîtresse	-14647
▁provinces	-14648
▁rappelant	-14649
▁remarques	-14650
▁reportage	-14651
▁récepteur	-14652
▁réservoir	-14653
▁variation	-14654
▁compagnons	-14655
▁correction	-14656
▁corruption	-14657
▁directeurs	-14658
▁excellence	-14659
▁nomination	-14660
▁popularité	-14661
▁privilégié	-14662
▁produisent	-14663
▁reviennent	-14664
▁référendum	-14665
▁terrorisme	-14666
▁volontaire	-14667
▁électorale	-14668
inauguration	-14669
▁apparitions	-14670
▁conventions	-14671
▁ferroviaire	-14672
▁imagination	-14673
▁psychologue	-14674
▁Gouvernement	-14675
▁Organisation	-14676
▁consentement	-14677
▁manifestants	-14678
identification	-14679
▁publicitaires	-14680
▁rassemblement	-14681
▁renouvelables	-14682
▁communications	-14683
,,	-14684
77	-14685
DR	-14686
OD	-14687
XX	-14688
uu	-14689
1-1	-14690
150	-14691
Ann	-14692
IIe	-14693
IRA	-14694
OST	-14695
TML	-14696
TRE	-14697
arp	-14698
bis	-14699
cin	-14700
dés	-14701
fil	-14702
hée	-14703
ima	-14704
len	-14705
rin	-14706
▁),	-14707
▁83	-14708
▁CP	-14709
▁DN	-14710
▁FL	-14711
▁mû	-14712
▁sl	-14713
Asie	-14714
Iran	-14715
Mais	-14716
ateg	-14717
elin	-14718
foli	-14719
mens	-14720
oges	-14721
stan	-14722
tels	-14723
tico	-14724
éner	-14725
évac	-14726
▁202	-14727
▁:-)	-14728
▁Aim	-14729
▁Hal	-14730
▁Inn	-14731
▁Jun	-14732
▁Ken	-14733
▁Som	-14734
▁Spe	-14735
▁TRA	-14736
▁adh	-14737
▁bec	-14738
▁lie	-14739
▁lob	-14740
afric	-14741
anner	-14742
atern	-14743
attle	-14744
avril	-14745
encre	-14746
erson	-14747
euses	-14748
inale	-14749
incin	-14750
ivern	-14751
oster	-14752
poser	-14753
ulées	-14754
écile	-14755
élien	-14756
érait	-14757
▁Bass	-14758
▁CONT	-14759
▁Fait	-14760
▁Hall	-14761
▁Juin	-14762
▁Kard	-14763
▁Midi	-14764
▁Ross	-14765
▁Sale	-14766
▁Sony	-14767
▁Yann	-14768
▁Yoko	-14769
▁ferm	-14770
▁frai	-14771
▁gymn	-14772
▁mast	-14773
▁noté	-14774
▁quil	-14775
Ivoire	-14776
arités	-14777
nelles	-14778
oscope	-14779
ypique	-14780
épaule	-14781
▁2000,	-14782
▁Ayant	-14783
▁Films	-14784
▁Frais	-14785
▁Gabri	-14786
▁Gener	-14787
▁Group	-14788
▁Image	-14789
▁Mieux	-14790
▁Milan	-14791
▁Vieux	-14792
▁charp	-14793
▁clics	-14794
▁cross	-14795
▁dames	-14796
▁desqu	-14797
▁girls	-14798
▁hélas	-14799
▁mexic	-14800
▁raide	-14801
▁rappe	-14802
▁sculp	-14803
▁socle	-14804
▁solde	-14805
▁trous	-14806
aisembl	-14807
ampleur	-14808
ancourt	-14809
ensions	-14810
onsable	-14811
oublier	-14812
outchou	-14813
ressant	-14814
▁Amazon	-14815
▁Entrée	-14816
▁Mobile	-14817
▁Supéri	-14818
▁atouts	-14819
▁basées	-14820
▁chèque	-14821
▁coloré	-14822
▁commod	-14823
▁humide	-14824
▁impecc	-14825
▁lisant	-14826
▁minier	-14827
▁ongles	-14828
▁opposé	-14829
▁placée	-14830
▁pompes	-14831
▁souter	-14832
▁épices	-14833
/06/2018	-14834
cesseurs	-14835
intrigue	-14836
ouvement	-14837
▁Compagn	-14838
▁Laissez	-14839
▁Village	-14840
▁cinémat	-14841
▁critère	-14842
▁exprime	-14843
▁imposer	-14844
▁nuances	-14845
▁passera	-14846
▁tristes	-14847
▁weekend	-14848
oritaires	-14849
▁Annonces	-14850
▁Générale	-14851
▁Pakistan	-14852
▁alliance	-14853
▁biblioth	-14854
▁chrétien	-14855
▁compteur	-14856
▁curieuse	-14857
▁disposez	-14858
▁grandeur	-14859
▁illustre	-14860
▁miracles	-14861
▁moyennes	-14862
▁princess	-14863
▁provinci	-14864
▁puissiez	-14865
▁rapidité	-14866
▁recharge	-14867
▁rousseur	-14868
▁serveurs	-14869
▁supermar	-14870
▁trouvant	-14871
▁Résidence	-14872
▁cardiaque	-14873
▁cinquante	-14874
▁coalition	-14875
▁connectés	-14876
▁corrigées	-14877
▁distances	-14878
▁miniature	-14879
▁musicales	-14880
▁officiers	-14881
▁protoxyde	-14882
▁résultant	-14883
▁tribunaux	-14884
▁Américains	-14885
▁Protection	-14886
▁applicable	-14887
▁complexité	-14888
▁consultant	-14889
▁couramment	-14890
▁médiatique	-14891
▁permettait	-14892
▁règlements	-14893
▁autochtones	-14894
▁biologiques	-14895
▁extérieures	-14896
▁harcèlement	-14897
▁innovations	-14898
▁plateformes	-14899
▁ressemblent	-14900
▁transporter	-14901
▁intelligente	-14902
▁marchandises	-14903
▁télécommande	-14904
▁valorisation	-14905
▁réchauffement	-14906
!.	-14907
'.	-14908
74	-14909
BN	-14910
Ev	-14911
GO	-14912
rr	-14913
ón	-14914
ки	-14915
ле	-14916
aso	-14917
mag	-14918
oln	-14919
oïs	-14920
roï	-14921
êve	-14922
ûte	-14923
▁2)	-14924
▁9.	-14925
▁92	-14926
▁>>	-14927
▁SC	-14928
▁TE	-14929
▁TU	-14930
Dans	-14931
ELLE	-14932
abie	-14933
alla	-14934
avan	-14935
ding	-14936
gard	-14937
igny	-14938
imie	-14939
mblé	-14940
neus	-14941
posé	-14942
soit	-14943
▁(4)	-14944
▁11,	-14945
▁130	-14946
▁170	-14947
▁184	-14948
▁30%	-14949
▁But	-14950
▁DRO	-14951
▁Hel	-14952
▁Kid	-14953
▁Neu	-14954
▁big	-14955
▁cub	-14956
▁faç	-14957
▁idi	-14958
▁ira	-14959
agnol	-14960
audit	-14961
cript	-14962
cules	-14963
enjeu	-14964
ineux	-14965
olini	-14966
olite	-14967
order	-14968
uiles	-14969
▁Ense	-14970
▁Vict	-14971
▁airs	-14972
▁back	-14973
▁cell	-14974
▁diab	-14975
▁dort	-14976
▁mang	-14977
▁masc	-14978
▁mous	-14979
▁quai	-14980
▁text	-14981
▁ther	-14982
▁vaud	-14983
[...]
